const unsigned char model_tflite[] = {
  0x1C, 0x00, 0x00, 0x00, 0x54, 0x46, 0x4C, 0x33, 0x14, 0x00,
  0x20, 0x00, 0x1C, 0x00, 0x18, 0x00, 0x14, 0x00, 0x10, 0x00,
  0x0C, 0x00, 0x00, 0x00, 0x08, 0x00, 0x04, 0x00, 0x14, 0x00,
  0x00, 0x00, 0x1C, 0x00, 0x00, 0x00, 0x88, 0x00, 0x00, 0x00,
  0xE0, 0x00, 0x00, 0x00, 0x3C, 0x03, 0x01, 0x00, 0x4C, 0x03,
  0x01, 0x00, 0xB8, 0x21, 0x01, 0x00, 0x03, 0x00, 0x00, 0x00,
  0x01, 0x00, 0x00, 0x00, 0x04, 0x00, 0x00, 0x00, 0xF2, 0xF9,
  0xFE, 0xFF, 0x0C, 0x00, 0x00, 0x00, 0x1C, 0x00, 0x00, 0x00,
  0x3C, 0x00, 0x00, 0x00, 0x0F, 0x00, 0x00, 0x00, 0x73, 0x65,
  0x72, 0x76, 0x69, 0x6E, 0x67, 0x5F, 0x64, 0x65, 0x66, 0x61,
  0x75, 0x6C, 0x74, 0x00, 0x01, 0x00, 0x00, 0x00, 0x04, 0x00,
  0x00, 0x00, 0x94, 0xFF, 0xFF, 0xFF, 0x20, 0x00, 0x00, 0x00,
  0x04, 0x00, 0x00, 0x00, 0x09, 0x00, 0x00, 0x00, 0x71, 0x75,
  0x61, 0x6E, 0x74, 0x5F, 0x6F, 0x75, 0x74, 0x00, 0x00, 0x00,
  0x01, 0x00, 0x00, 0x00, 0x04, 0x00, 0x00, 0x00, 0xFA, 0xF9,
  0xFE, 0xFF, 0x04, 0x00, 0x00, 0x00, 0x0B, 0x00, 0x00, 0x00,
  0x69, 0x6E, 0x70, 0x75, 0x74, 0x5F, 0x6C, 0x61, 0x79, 0x65,
  0x72, 0x00, 0x02, 0x00, 0x00, 0x00, 0x34, 0x00, 0x00, 0x00,
  0x04, 0x00, 0x00, 0x00, 0xDC, 0xFF, 0xFF, 0xFF, 0x23, 0x00,
  0x00, 0x00, 0x04, 0x00, 0x00, 0x00, 0x13, 0x00, 0x00, 0x00,
  0x43, 0x4F, 0x4E, 0x56, 0x45, 0x52, 0x53, 0x49, 0x4F, 0x4E,
  0x5F, 0x4D, 0x45, 0x54, 0x41, 0x44, 0x41, 0x54, 0x41, 0x00,
  0x08, 0x00, 0x0C, 0x00, 0x08, 0x00, 0x04, 0x00, 0x08, 0x00,
  0x00, 0x00, 0x22, 0x00, 0x00, 0x00, 0x04, 0x00, 0x00, 0x00,
  0x13, 0x00, 0x00, 0x00, 0x6D, 0x69, 0x6E, 0x5F, 0x72, 0x75,
  0x6E, 0x74, 0x69, 0x6D, 0x65, 0x5F, 0x76, 0x65, 0x72, 0x73,
  0x69, 0x6F, 0x6E, 0x00, 0x24, 0x00, 0x00, 0x00, 0x58, 0x02,
  0x01, 0x00, 0x50, 0x02, 0x01, 0x00, 0x38, 0x02, 0x01, 0x00,
  0x24, 0x02, 0x01, 0x00, 0x10, 0x02, 0x01, 0x00, 0xFC, 0x01,
  0x01, 0x00, 0xF4, 0x01, 0x01, 0x00, 0xE0, 0x01, 0x01, 0x00,
  0xD8, 0x01, 0x01, 0x00, 0xD0, 0x01, 0x01, 0x00, 0xC8, 0x01,
  0x01, 0x00, 0xC0, 0x01, 0x01, 0x00, 0x50, 0x01, 0x01, 0x00,
  0x00, 0x01, 0x01, 0x00, 0xF8, 0x00, 0x01, 0x00, 0xE8, 0xFD,
  0x00, 0x00, 0x98, 0xFD, 0x00, 0x00, 0x90, 0xFD, 0x00, 0x00,
  0x88, 0xFD, 0x00, 0x00, 0x78, 0xF3, 0x00, 0x00, 0xE8, 0xF2,
  0x00, 0x00, 0xE0, 0xF2, 0x00, 0x00, 0xD0, 0xDE, 0x00, 0x00,
  0x40, 0xDE, 0x00, 0x00, 0x38, 0xDE, 0x00, 0x00, 0x30, 0xDE,
  0x00, 0x00, 0x28, 0xDE, 0x00, 0x00, 0x18, 0x06, 0x00, 0x00,
  0x08, 0x05, 0x00, 0x00, 0x00, 0x05, 0x00, 0x00, 0xF0, 0x00,
  0x00, 0x00, 0xA0, 0x00, 0x00, 0x00, 0x98, 0x00, 0x00, 0x00,
  0x90, 0x00, 0x00, 0x00, 0x70, 0x00, 0x00, 0x00, 0x04, 0x00,
  0x00, 0x00, 0x02, 0xFB, 0xFE, 0xFF, 0x04, 0x00, 0x00, 0x00,
  0x5C, 0x00, 0x00, 0x00, 0x0C, 0x00, 0x00, 0x00, 0x08, 0x00,
  0x0E, 0x00, 0x08, 0x00, 0x04, 0x00, 0x08, 0x00, 0x00, 0x00,
  0x10, 0x00, 0x00, 0x00, 0x2C, 0x00, 0x00, 0x00, 0x00, 0x00,
  0x06, 0x00, 0x08, 0x00, 0x04, 0x00, 0x06, 0x00, 0x00, 0x00,
  0x04, 0x00, 0x00, 0x00, 0x02, 0x00, 0x00, 0x00, 0xEB, 0x03,
  0x00, 0x00, 0xD0, 0x07, 0x00, 0x00, 0x00, 0x00, 0x0A, 0x00,
  0x10, 0x00, 0x0C, 0x00, 0x08, 0x00, 0x04, 0x00, 0x0A, 0x00,
  0x00, 0x00, 0x02, 0x00, 0x00, 0x00, 0x02, 0x00, 0x00, 0x00,
  0x04, 0x00, 0x00, 0x00, 0x06, 0x00, 0x00, 0x00, 0x32, 0x2E,
  0x31, 0x34, 0x2E, 0x31, 0x00, 0x00, 0x6A, 0xFB, 0xFE, 0xFF,
  0x04, 0x00, 0x00, 0x00, 0x10, 0x00, 0x00, 0x00, 0x31, 0x2E,
  0x31, 0x34, 0x2E, 0x30, 0x00, 0x00, 0x00, 0x00, 0x00, 0x00,
  0x00, 0x00, 0x00, 0x00, 0x10, 0xE1, 0xFE, 0xFF, 0x14, 0xE1,
  0xFE, 0xFF, 0x8E, 0xFB, 0xFE, 0xFF, 0x04, 0x00, 0x00, 0x00,
  0x40, 0x00, 0x00, 0x00, 0x33, 0xFD, 0xFF, 0xFF, 0xD2, 0xFD,
  0xFF, 0xFF, 0xC1, 0xFD, 0xFF, 0xFF, 0xFC, 0xFF, 0xFF, 0xFF,
  0x60, 0xFE, 0xFF, 0xFF, 0x57, 0xFE, 0xFF, 0xFF, 0xF6, 0xFD,
  0xFF, 0xFF, 0x08, 0xFE, 0xFF, 0xFF, 0xAF, 0xFE, 0xFF, 0xFF,
  0x5D, 0xFE, 0xFF, 0xFF, 0x22, 0xFE, 0xFF, 0xFF, 0xFD, 0xFD,
  0xFF, 0xFF, 0x8A, 0xFD, 0xFF, 0xFF, 0xCB, 0xFC, 0xFF, 0xFF,
  0x1A, 0xFE, 0xFF, 0xFF, 0xF3, 0xFD, 0xFF, 0xFF, 0xDA, 0xFB,
  0xFE, 0xFF, 0x04, 0x00, 0x00, 0x00, 0x00, 0x04, 0x00, 0x00,
  0x06, 0x01, 0xF4, 0xF3, 0xF6, 0x04, 0xFC, 0x07, 0x04, 0x06,
  0xFF, 0xFC, 0xFD, 0xFD, 0xF1, 0xFB, 0xFE, 0x00, 0xF7, 0xFF,
  0x02, 0xFF, 0xFF, 0xEE, 0x00, 0x04, 0xFB, 0xFE, 0x01, 0xFD,
  0xFA, 0xFB, 0x03, 0x02, 0xFE, 0xF8, 0x03, 0x04, 0xFF, 0xFA,
  0x03, 0xFC, 0x00, 0x00, 0x05, 0xFE, 0x58, 0x02, 0xF4, 0xFC,
  0x06, 0xFE, 0x03, 0x04, 0xF8, 0x02, 0x00, 0x04, 0xEA, 0xFE,
  0x16, 0x03, 0xFF, 0xFA, 0x07, 0x06, 0x0F, 0xF1, 0x14, 0x06,
  0x04, 0x09, 0xCC, 0x06, 0x0D, 0xD5, 0x07, 0x04, 0xEE, 0xE4,
  0x07, 0x06, 0xF7, 0x01, 0x03, 0x01, 0x05, 0xE7, 0x02, 0x03,
  0xFB, 0xF2, 0x01, 0xFC, 0x08, 0x03, 0x27, 0x01, 0x32, 0xF2,
  0x07, 0x05, 0x05, 0x07, 0x04, 0xFE, 0xFE, 0x04, 0xFC, 0xE1,
  0xFE, 0x05, 0xFC, 0xF4, 0xFE, 0x05, 0x09, 0x03, 0xF7, 0xFC,
  0x03, 0x02, 0x29, 0x0A, 0x1B, 0xFC, 0xEA, 0xF4, 0xFF, 0xFF,
  0xF7, 0xF5, 0xFC, 0x05, 0x09, 0x01, 0x10, 0xFE, 0x04, 0x1E,
  0x04, 0x03, 0xFC, 0xE4, 0x02, 0xFF, 0xF6, 0xFC, 0xFE, 0xFE,
  0xFD, 0xEC, 0x02, 0xFB, 0xFD, 0xEA, 0x04, 0x1E, 0xFA, 0xF9,
  0x00, 0xFA, 0x24, 0xF5, 0x00, 0x08, 0x05, 0xF4, 0x04, 0x08,
  0xDC, 0x0B, 0x33, 0xF7, 0x09, 0x05, 0xED, 0xEF, 0x26, 0xFF,
  0x02, 0xFB, 0xF6, 0xFB, 0x01, 0x04, 0x08, 0xF7, 0xDF, 0xF9,
  0xFB, 0x22, 0x01, 0x04, 0x08, 0xFA, 0x22, 0x08, 0xFA, 0x03,
  0xE2, 0x05, 0xF7, 0xFC, 0x05, 0xF2, 0x00, 0x0C, 0xEB, 0x07,
  0xC1, 0xFD, 0x07, 0x00, 0xFF, 0x1C, 0x04, 0x12, 0xFA, 0x0A,
  0x04, 0xD3, 0x00, 0x05, 0x0F, 0x02, 0xF7, 0xC4, 0x08, 0x07,
  0x06, 0x0C, 0x05, 0xF6, 0xD8, 0xE5, 0xFF, 0x2B, 0x09, 0x05,
  0xFD, 0x2A, 0x07, 0x04, 0x0C, 0xEE, 0x01, 0x15, 0x04, 0x05,
  0xF0, 0x05, 0x02, 0xF7, 0xF5, 0x0E, 0xFB, 0x04, 0x11, 0xF3,
  0xEC, 0x06, 0xFC, 0xFF, 0xED, 0xF9, 0xF5, 0xFF, 0x00, 0x03,
  0xF6, 0x04, 0x64, 0x05, 0xC7, 0xF8, 0xF0, 0xF7, 0xF8, 0xF4,
  0x05, 0xFC, 0xFB, 0x04, 0xFF, 0x0D, 0xF7, 0x01, 0xFD, 0xF9,
  0xFF, 0x1A, 0x04, 0x07, 0x00, 0x34, 0xF5, 0x01, 0xED, 0x67,
  0x0D, 0x16, 0x07, 0x01, 0xF4, 0xCC, 0x00, 0xEB, 0x07, 0x44,
  0x00, 0xE5, 0xFF, 0xF4, 0xF8, 0xFF, 0xFD, 0xF9, 0x03, 0xFD,
  0xE9, 0xF6, 0x06, 0xF3, 0xE3, 0x07, 0xF1, 0xF9, 0xF5, 0x07,
  0xEC, 0x07, 0xFE, 0xED, 0xFA, 0x06, 0xDA, 0xF0, 0xF1, 0xFF,
  0x22, 0x04, 0xF4, 0xF0, 0x01, 0xFC, 0xF6, 0xF8, 0x00, 0x17,
  0x08, 0x09, 0xEF, 0x02, 0x03, 0xF5, 0xF6, 0x08, 0x02, 0x21,
  0x75, 0xF5, 0x0B, 0xED, 0x03, 0x06, 0x05, 0x03, 0xF5, 0xF1,
  0x0B, 0x24, 0x05, 0xE4, 0xF6, 0x43, 0x00, 0x7C, 0x09, 0xFC,
  0xFD, 0x0E, 0xEF, 0xF3, 0xFB, 0x7F, 0x02, 0xF5, 0xF2, 0x06,
  0xFD, 0x06, 0xF5, 0x00, 0xF9, 0x0A, 0xF7, 0xF2, 0xF8, 0x06,
  0xFD, 0x7A, 0xF1, 0xFD, 0xF8, 0xF6, 0xF8, 0xFD, 0x02, 0x09,
  0xF7, 0xF9, 0xFF, 0xE8, 0xFE, 0x02, 0xF6, 0x06, 0x06, 0xF8,
  0x7D, 0x06, 0xF8, 0xFD, 0xF5, 0xF1, 0x07, 0xFB, 0x03, 0xFF,
  0x07, 0xF7, 0xF7, 0xF0, 0xF9, 0xFE, 0x08, 0xF8, 0xF5, 0xED,
  0x00, 0xF4, 0x04, 0x01, 0xF7, 0xF6, 0xF2, 0xFC, 0xFC, 0xF6,
  0xF7, 0xF8, 0xF2, 0x06, 0x00, 0x03, 0xF7, 0x06, 0xFD, 0x07,
  0x7F, 0xF3, 0xFB, 0x01, 0xF9, 0xF7, 0xF5, 0xFD, 0xFB, 0xF6,
  0xF6, 0x04, 0xFD, 0xFB, 0xF6, 0xF8, 0xF8, 0xFC, 0xFE, 0xF7,
  0xFB, 0xF9, 0x06, 0xF9, 0xF9, 0x08, 0x7E, 0xFF, 0x00, 0xF5,
  0x00, 0xFC, 0x07, 0xFB, 0x05, 0x7E, 0xF6, 0xF4, 0xF2, 0xFB,
  0x07, 0xF7, 0xF4, 0xF8, 0x00, 0xFF, 0xFE, 0xFE, 0xFE, 0xED,
  0xF7, 0xFE, 0xF8, 0x00, 0xEC, 0xF7, 0xF6, 0x07, 0x02, 0x06,
  0xF7, 0x05, 0x02, 0x05, 0xF8, 0xF1, 0xFE, 0xFA, 0xF1, 0x01,
  0xF5, 0xFA, 0xF2, 0x24, 0xF4, 0xFE, 0x76, 0x6E, 0xF7, 0xFD,
  0x76, 0x2C, 0x08, 0x08, 0xF9, 0x05, 0x05, 0xFB, 0xFE, 0x09,
  0xF5, 0x03, 0xFF, 0x0C, 0xFD, 0xF4, 0x06, 0xFF, 0x05, 0xF6,
  0xF0, 0xF5, 0xF3, 0xF5, 0x0A, 0xF2, 0xF5, 0xF0, 0xFB, 0xFC,
  0xFE, 0xFB, 0x04, 0xEF, 0xFD, 0x00, 0xEB, 0xFE, 0xEC, 0xF5,
  0x13, 0x08, 0x1D, 0x05, 0xF1, 0x00, 0x18, 0xF0, 0x0D, 0xE8,
  0xFA, 0x00, 0x08, 0x0D, 0xFA, 0xFD, 0x6D, 0xFB, 0xE1, 0xEE,
  0x08, 0x02, 0xB1, 0x26, 0xF0, 0xE7, 0xF8, 0xFD, 0xEB, 0x08,
  0xF8, 0xFB, 0x04, 0x09, 0x00, 0x06, 0x0A, 0xC2, 0x0B, 0xFC,
  0x15, 0x01, 0x07, 0x0A, 0xF3, 0xFB, 0xF3, 0xFC, 0x0A, 0x0E,
  0xF9, 0xC0, 0x65, 0x06, 0x08, 0xFC, 0xFC, 0x1A, 0x04, 0x19,
  0xFA, 0x05, 0x1E, 0xF1, 0xF6, 0x0B, 0x00, 0xF9, 0xF6, 0xF8,
  0x0B, 0xFE, 0x05, 0xF4, 0xED, 0xE9, 0x0E, 0x04, 0xF7, 0xCE,
  0xF3, 0x2B, 0xE7, 0x1A, 0xFF, 0x07, 0x0E, 0x27, 0xF2, 0xF2,
  0xFC, 0xF9, 0x16, 0x04, 0x04, 0xF9, 0x02, 0x09, 0x05, 0xF8,
  0x01, 0x40, 0x0B, 0x02, 0x0D, 0xFA, 0x08, 0x06, 0xF9, 0xF7,
  0xF1, 0xF8, 0x04, 0xF2, 0xC5, 0x32, 0x03, 0xFD, 0xF6, 0x06,
  0xF2, 0x1A, 0x12, 0x03, 0x01, 0x03, 0x03, 0xF3, 0xEA, 0x02,
  0x21, 0xFF, 0xF5, 0x01, 0xF6, 0xFC, 0x01, 0xFB, 0xF2, 0xF3,
  0xF9, 0x02, 0xF7, 0xFB, 0xFC, 0xBE, 0x33, 0xFB, 0x04, 0x04,
  0xFB, 0xFF, 0x26, 0x07, 0x02, 0x04, 0xF0, 0xF9, 0x02, 0xF6,
  0x03, 0x0B, 0x02, 0xF7, 0x06, 0xFC, 0xFE, 0x06, 0x00, 0xFE,
  0x06, 0x01, 0xF1, 0xF9, 0xFD, 0x2D, 0x4C, 0x0B, 0xF5, 0xF6,
  0x07, 0x05, 0xF8, 0x01, 0xFA, 0xE9, 0x20, 0x04, 0x0B, 0x04,
  0xFA, 0xF0, 0xF9, 0x63, 0xF3, 0xF9, 0xF4, 0xFF, 0x07, 0xF4,
  0x05, 0x09, 0xF0, 0xFD, 0x01, 0x04, 0xF6, 0xFC, 0x04, 0x14,
  0x0A, 0x01, 0x06, 0x00, 0xF4, 0x02, 0xF8, 0x09, 0x05, 0xF9,
  0xE5, 0xFC, 0xFC, 0xF9, 0x05, 0xFE, 0x03, 0xFE, 0x03, 0xF6,
  0xF4, 0x00, 0x0B, 0x07, 0x09, 0x05, 0xF2, 0xFC, 0xFE, 0x03,
  0x01, 0xFD, 0xF4, 0xF5, 0x03, 0x02, 0x15, 0x02, 0xF8, 0x02,
  0x08, 0xF5, 0x06, 0x01, 0xEA, 0xEF, 0x06, 0xFF, 0x04, 0xFF,
  0xF1, 0x05, 0xEC, 0xFD, 0x05, 0x13, 0xEF, 0x01, 0x04, 0x04,
  0xF5, 0xF5, 0x03, 0x00, 0xF6, 0xFB, 0x04, 0x05, 0xFD, 0x06,
  0x05, 0xFB, 0x08, 0xFC, 0xF2, 0x09, 0xFE, 0xF6, 0x03, 0x62,
  0x04, 0xFA, 0x03, 0x02, 0xF6, 0x02, 0x09, 0xF5, 0x07, 0x04,
  0x09, 0xF6, 0xFC, 0xFE, 0x08, 0xFE, 0xFC, 0x09, 0x03, 0x02,
  0xFF, 0x0E, 0xEF, 0x11, 0x05, 0xF3, 0xD9, 0x03, 0x08, 0x03,
  0x0A, 0x0C, 0xFA, 0xFB, 0xF1, 0x01, 0x06, 0x04, 0x03, 0x14,
  0xF7, 0x22, 0xFD, 0x04, 0xF5, 0x00, 0x02, 0xFC, 0x03, 0x06,
  0x07, 0x05, 0xF8, 0xE6, 0x07, 0x00, 0xFC, 0x00, 0xFE, 0x02,
  0x01, 0xF7, 0x03, 0xFB, 0x01, 0xF8, 0x04, 0xF7, 0xF4, 0xFF,
  0x00, 0xE9, 0x05, 0x03, 0xBC, 0xF4, 0x02, 0xFF, 0x0B, 0x00,
  0xF1, 0xFD, 0x03, 0x03, 0xF9, 0x35, 0x03, 0x12, 0x08, 0x00,
  0x06, 0x02, 0xFB, 0xB7, 0xF9, 0x09, 0x0E, 0xF8, 0xF4, 0x06,
  0x12, 0xFC, 0x03, 0xFB, 0x2B, 0x01, 0x01, 0x04, 0xF7, 0xE5,
  0x04, 0x00, 0xFA, 0x02, 0xFF, 0x00, 0xFB, 0xF6, 0xFE, 0x03,
  0x00, 0x05, 0x03, 0xFE, 0xFD, 0xFB, 0x02, 0x08, 0x01, 0xFF,
  0x03, 0xFF, 0x00, 0x01, 0x01, 0xFE, 0x05, 0x02, 0x0C, 0xFC,
  0x0C, 0x0A, 0x01, 0x01, 0x0F, 0xFD, 0x02, 0x03, 0xF8, 0x0F,
  0xFD, 0xFB, 0xFB, 0xF5, 0x70, 0xE5, 0xFE, 0xFF, 0xEA, 0xFF,
  0xFE, 0xFF, 0x04, 0x00, 0x00, 0x00, 0x00, 0x01, 0x00, 0x00,
  0x26, 0x05, 0x00, 0x00, 0xD6, 0x03, 0x00, 0x00, 0xC7, 0x04,
  0x00, 0x00, 0x16, 0x0F, 0x00, 0x00, 0x4C, 0x08, 0x00, 0x00,
  0xDE, 0x01, 0x00, 0x00, 0xBE, 0x00, 0x00, 0x00, 0x88, 0xFF,
  0xFF, 0xFF, 0xEC, 0x0D, 0x00, 0x00, 0x68, 0xFF, 0xFF, 0xFF,
  0x43, 0x00, 0x00, 0x00, 0xF0, 0x09, 0x00, 0x00, 0xC3, 0x04,
  0x00, 0x00, 0x71, 0x05, 0x00, 0x00, 0x0C, 0x09, 0x00, 0x00,
  0xDF, 0x06, 0x00, 0x00, 0xCA, 0x06, 0x00, 0x00, 0xE9, 0x05,
  0x00, 0x00, 0xBD, 0x0D, 0x00, 0x00, 0xDA, 0x0A, 0x00, 0x00,
  0x6A, 0x06, 0x00, 0x00, 0xC7, 0x05, 0x00, 0x00, 0xAF, 0x06,
  0x00, 0x00, 0x4A, 0x09, 0x00, 0x00, 0xA9, 0x03, 0x00, 0x00,
  0xC2, 0x02, 0x00, 0x00, 0x0C, 0x09, 0x00, 0x00, 0xD2, 0x05,
  0x00, 0x00, 0x46, 0x04, 0x00, 0x00, 0x39, 0x04, 0x00, 0x00,
  0xC4, 0xFF, 0xFF, 0xFF, 0x3B, 0xFF, 0xFF, 0xFF, 0xD5, 0x05,
  0x00, 0x00, 0x32, 0xFF, 0xFF, 0xFF, 0x6E, 0x02, 0x00, 0x00,
  0xC2, 0x0A, 0x00, 0x00, 0x19, 0x04, 0x00, 0x00, 0x2E, 0x00,
  0x00, 0x00, 0x74, 0x05, 0x00, 0x00, 0x72, 0x05, 0x00, 0x00,
  0xC1, 0x05, 0x00, 0x00, 0x39, 0x05, 0x00, 0x00, 0x30, 0x09,
  0x00, 0x00, 0x84, 0x05, 0x00, 0x00, 0x7B, 0xFF, 0xFF, 0xFF,
  0xBF, 0x08, 0x00, 0x00, 0x11, 0xFD, 0xFF, 0xFF, 0x11, 0x04,
  0x00, 0x00, 0x3C, 0x0A, 0x00, 0x00, 0xCE, 0x09, 0x00, 0x00,
  0xA6, 0x02, 0x00, 0x00, 0x91, 0x00, 0x00, 0x00, 0xAA, 0x00,
  0x00, 0x00, 0x77, 0x07, 0x00, 0x00, 0xDF, 0x09, 0x00, 0x00,
  0xE1, 0x04, 0x00, 0x00, 0x30, 0x06, 0x00, 0x00, 0xCD, 0x05,
  0x00, 0x00, 0xC9, 0x03, 0x00, 0x00, 0xD6, 0xFE, 0xFF, 0xFF,
  0x35, 0x05, 0x00, 0x00, 0xE3, 0xFF, 0xFF, 0xFF, 0xA4, 0x04,
  0x00, 0x00, 0x5F, 0x07, 0x00, 0x00, 0xF6, 0x00, 0xFF, 0xFF,
  0x04, 0x00, 0x00, 0x00, 0x00, 0xD8, 0x00, 0x00, 0xFE, 0xFB,
  0xFC, 0xFF, 0x01, 0x02, 0x02, 0x03, 0x04, 0x01, 0xFE, 0x06,
  0x07, 0x02, 0xFC, 0x00, 0x07, 0xFA, 0x06, 0xF9, 0x0A, 0xFF,
  0x10, 0x0A, 0x0F, 0x03, 0x00, 0xFB, 0xFC, 0x03, 0x0B, 0xFE,
  0x05, 0x13, 0xED, 0x08, 0x0E, 0x00, 0x05, 0xFF, 0x01, 0xFF,
  0x02, 0x0D, 0x0A, 0x04, 0x04, 0xFE, 0x03, 0x03, 0x00, 0x0B,
  0xFC, 0xFF, 0xFB, 0xED, 0xF5, 0x00, 0x07, 0xF8, 0xFB, 0x01,
  0xF0, 0x0D, 0x05, 0x04, 0xEB, 0x06, 0x07, 0xF7, 0x02, 0xFA,
  0x03, 0x01, 0x02, 0x0E, 0x06, 0x00, 0x0B, 0x08, 0x03, 0xFB,
  0xFA, 0xFA, 0x01, 0x05, 0x00, 0xF1, 0xF2, 0xF6, 0x0D, 0x0A,
  0xF9, 0x04, 0xEE, 0x09, 0x04, 0xF7, 0xEA, 0x04, 0x03, 0xFC,
  0xFF, 0x00, 0x07, 0xFD, 0x08, 0x06, 0x0E, 0x01, 0x0F, 0x07,
  0x02, 0x04, 0xFA, 0xFC, 0x09, 0xFD, 0x00, 0xF0, 0xF7, 0xFE,
  0x11, 0x01, 0xF4, 0x06, 0xF3, 0x0A, 0x06, 0xF9, 0xE9, 0x06,
  0x0D, 0x01, 0xFD, 0x02, 0x03, 0x05, 0x05, 0x11, 0x04, 0x0A,
  0x08, 0x03, 0x10, 0x06, 0xFF, 0x01, 0x01, 0x01, 0x00, 0xEA,
  0xFD, 0x13, 0x05, 0x02, 0xF3, 0x02, 0xF0, 0x0F, 0xFE, 0x04,
  0xF0, 0xFB, 0x05, 0x01, 0x05, 0xFE, 0xFD, 0x00, 0x0A, 0x0B,
  0x01, 0x08, 0x0B, 0xFC, 0x14, 0xFC, 0x0C, 0x03, 0x09, 0x08,
  0x0E, 0xE7, 0xFC, 0x03, 0x02, 0x00, 0xFD, 0xFC, 0xFA, 0x0E,
  0x02, 0x03, 0xF8, 0x0C, 0x08, 0x05, 0x01, 0x02, 0xF8, 0x09,
  0x05, 0xFE, 0x05, 0x08, 0xFE, 0x06, 0xFA, 0x02, 0x08, 0x00,
  0xFE, 0x04, 0x05, 0xF8, 0x02, 0x00, 0x07, 0x02, 0x13, 0x08,
  0x12, 0x07, 0x06, 0x0C, 0xFC, 0xFF, 0x0D, 0x0C, 0x0A, 0x07,
  0x02, 0xFF, 0x02, 0xFF, 0x0B, 0x05, 0x00, 0xFD, 0xFF, 0x08,
  0x08, 0x03, 0x09, 0xFD, 0x07, 0xFF, 0x04, 0x0D, 0x02, 0xF5,
  0x10, 0xF9, 0x0B, 0x09, 0x00, 0x19, 0xE4, 0x04, 0x09, 0x07,
  0x01, 0xF9, 0x01, 0x01, 0x06, 0x0E, 0x0A, 0x03, 0x03, 0x00,
  0x06, 0x02, 0x04, 0x07, 0xFE, 0x01, 0x06, 0xE3, 0xFB, 0xFA,
  0x03, 0x00, 0xF4, 0x01, 0xEF, 0x0F, 0x06, 0xFD, 0xE7, 0x01,
  0x0C, 0xFB, 0x00, 0x06, 0x06, 0xFF, 0x03, 0x0C, 0x09, 0x02,
  0x08, 0x02, 0x10, 0x00, 0x01, 0x02, 0x01, 0x04, 0x00, 0xED,
  0xF8, 0xFB, 0x13, 0x04, 0xF6, 0x0C, 0xF7, 0x10, 0x00, 0xF8,
  0xF8, 0x00, 0xFC, 0xFA, 0x03, 0x06, 0x0A, 0x05, 0x09, 0x08,
  0x06, 0x02, 0x08, 0x02, 0x06, 0x02, 0x02, 0xFF, 0x04, 0x01,
  0xFC, 0xF1, 0xF6, 0xFE, 0x10, 0x04, 0xFC, 0x03, 0xFA, 0x03,
  0x05, 0x01, 0xF4, 0x04, 0x0B, 0x00, 0xFE, 0xF7, 0x06, 0x00,
  0x00, 0x0C, 0xFF, 0x0D, 0x0B, 0x09, 0x04, 0x0D, 0xFD, 0xFE,
  0xFE, 0xFE, 0xFB, 0xF2, 0xFD, 0x0D, 0x06, 0x08, 0xFE, 0x04,
  0xF3, 0x02, 0xFF, 0xFA, 0xF7, 0xFA, 0x02, 0x08, 0xFD, 0xFF,
  0x00, 0x02, 0x04, 0xFF, 0x02, 0x08, 0x04, 0x00, 0x0C, 0xFD,
  0x02, 0x06, 0x01, 0xFF, 0x05, 0xF9, 0x06, 0x08, 0x08, 0x06,
  0xFA, 0x01, 0x01, 0x05, 0xFE, 0x02, 0xFC, 0x0B, 0x04, 0x05,
  0x04, 0x09, 0x01, 0x05, 0xFD, 0x02, 0x04, 0x07, 0xFE, 0x06,
  0x0E, 0x00, 0x05, 0x08, 0x01, 0x07, 0x05, 0x03, 0x00, 0x04,
  0x04, 0x02, 0x0C, 0x07, 0x0E, 0xFF, 0x06, 0x05, 0xFF, 0x00,
  0x01, 0x0A, 0x08, 0x07, 0x06, 0xFC, 0xFF, 0x03, 0x0C, 0x01,
  0xF9, 0x04, 0x08, 0x09, 0x0B, 0xFE, 0x0B, 0x05, 0x05, 0xFA,
  0x0B, 0x08, 0x00, 0xFB, 0x0C, 0x08, 0x10, 0x0A, 0xFD, 0x02,
  0xEF, 0x07, 0x08, 0x02, 0x0B, 0xFA, 0x06, 0xFF, 0x0A, 0x0A,
  0x07, 0x02, 0x03, 0x04, 0x02, 0xFF, 0xFE, 0x06, 0xFE, 0xFE,
  0x00, 0xFC, 0xF9, 0xFC, 0x0A, 0xFD, 0xFE, 0x03, 0xF6, 0x07,
  0x04, 0xFF, 0xF2, 0x08, 0x0B, 0xF6, 0x03, 0xFD, 0x03, 0x01,
  0x09, 0x08, 0x07, 0xFD, 0x09, 0x09, 0x06, 0x02, 0x03, 0xFD,
  0xFF, 0xFF, 0x01, 0xF3, 0xF8, 0xFC, 0x0D, 0x03, 0xF6, 0x05,
  0xFC, 0x08, 0x00, 0x03, 0xF2, 0x04, 0x00, 0x00, 0xFF, 0x02,
  0x04, 0x02, 0x0A, 0x0A, 0x0B, 0x05, 0x0A, 0x0A, 0x02, 0xFE,
  0xF9, 0x02, 0x03, 0x00, 0xFA, 0xF2, 0xF7, 0x01, 0x10, 0x05,
  0xF9, 0x04, 0xEF, 0x04, 0x00, 0xFA, 0xEC, 0x03, 0x0F, 0xFF,
  0xFF, 0xFE, 0x01, 0x03, 0x0C, 0x0D, 0x03, 0x07, 0x06, 0x07,
  0x08, 0x11, 0xFB, 0xFF, 0x03, 0x01, 0x01, 0xEA, 0xF9, 0x0B,
  0x0A, 0x0C, 0xFC, 0x08, 0xF2, 0x11, 0xFF, 0xF0, 0xED, 0xFE,
  0x0A, 0x0D, 0x02, 0x02, 0x05, 0xFE, 0x03, 0x0B, 0xFD, 0x06,
  0x03, 0xFE, 0x0F, 0xFD, 0x04, 0x08, 0xFE, 0xFE, 0x09, 0xEB,
  0x04, 0x0F, 0x03, 0x02, 0xF9, 0x00, 0xFC, 0x0B, 0x01, 0x00,
  0xF8, 0xFF, 0x07, 0x05, 0x05, 0x08, 0x02, 0x08, 0x00, 0xFD,
  0x06, 0x06, 0x00, 0xFB, 0x07, 0xFB, 0x07, 0x02, 0x04, 0x03,
  0x03, 0xF2, 0x0F, 0x0C, 0x02, 0x02, 0x01, 0x03, 0x10, 0x08,
  0xFF, 0x04, 0xF9, 0x0C, 0x0E, 0x06, 0x07, 0xFF, 0x05, 0x00,
  0x06, 0x00, 0x07, 0x04, 0x01, 0xF8, 0xFD, 0x0A, 0x0D, 0x02,
  0xF9, 0x0A, 0x01, 0xFC, 0xFE, 0x04, 0xFF, 0x02, 0x12, 0x01,
  0x03, 0x12, 0x00, 0xF7, 0xF0, 0x03, 0x0A, 0x01, 0xFF, 0xF7,
  0x03, 0x08, 0x07, 0x05, 0x04, 0x00, 0x06, 0xFD, 0x0D, 0x06,
  0x00, 0xFF, 0x05, 0x04, 0x07, 0x00, 0xF3, 0xFB, 0x09, 0xFE,
  0xFF, 0x02, 0xF0, 0x0A, 0x05, 0xFF, 0xE6, 0xFE, 0x0F, 0xF9,
  0x05, 0x02, 0x05, 0x02, 0x0A, 0x09, 0x0D, 0xFB, 0x02, 0x01,
  0x0E, 0x00, 0xFD, 0x0B, 0xFF, 0x03, 0xFA, 0xED, 0xF8, 0xFF,
  0x0B, 0x01, 0xF7, 0x00, 0xF0, 0x10, 0x06, 0xFE, 0xEE, 0x04,
  0x02, 0xF9, 0x02, 0xFB, 0x06, 0x05, 0x0C, 0x06, 0x06, 0x00,
  0x0C, 0x05, 0x0B, 0xFF, 0xFF, 0xFB, 0x01, 0x02, 0xFB, 0xEC,
  0xF7, 0xFD, 0x11, 0x02, 0xF6, 0x07, 0xF1, 0x0E, 0xFD, 0xF9,
  0xF5, 0x00, 0x0E, 0xF4, 0xFE, 0x01, 0x01, 0x02, 0x06, 0xFF,
  0x01, 0x04, 0x11, 0x09, 0xFB, 0x0C, 0x02, 0xFD, 0x03, 0x04,
  0xFD, 0xF4, 0xF0, 0x09, 0x12, 0x05, 0xF9, 0x08, 0xF0, 0x07,
  0x03, 0x06, 0xEC, 0x04, 0x12, 0xFC, 0x03, 0x00, 0x01, 0xFB,
  0x01, 0x02, 0x00, 0x0D, 0x04, 0xFC, 0x04, 0xFF, 0x07, 0x07,
  0x02, 0xFB, 0x03, 0xF5, 0xFF, 0x11, 0x08, 0xFF, 0x06, 0x01,
  0xF7, 0x0F, 0x03, 0x01, 0xFD, 0x05, 0x03, 0x08, 0xE4, 0x01,
  0x04, 0x00, 0x04, 0xFD, 0x01, 0xF5, 0x04, 0xFE, 0x08, 0x09,
  0x06, 0x09, 0xFF, 0x08, 0x04, 0x00, 0xF9, 0xD9, 0x0A, 0xFF,
  0x0C, 0x01, 0x02, 0x02, 0xF9, 0xFF, 0x00, 0x02, 0xFF, 0x06,
  0x23, 0x07, 0x00, 0xFF, 0xF9, 0xFB, 0x0E, 0xE6, 0x02, 0x00,
  0x04, 0xFC, 0xFD, 0xFA, 0xF8, 0x00, 0xFE, 0x01, 0x01, 0x05,
  0x06, 0xFE, 0x00, 0x03, 0x0B, 0xFD, 0x05, 0x01, 0x02, 0xF8,
  0x02, 0x00, 0x23, 0x0B, 0x01, 0xFF, 0x02, 0xFA, 0x18, 0xFA,
  0xFB, 0x04, 0xFF, 0xF4, 0xF5, 0xFD, 0xFE, 0x00, 0x03, 0x00,
  0xFE, 0x07, 0xFA, 0xFD, 0x01, 0xF8, 0x05, 0x01, 0x00, 0x04,
  0xFF, 0x03, 0x02, 0xFF, 0x0E, 0xF7, 0x01, 0xFD, 0x03, 0x03,
  0x07, 0x0D, 0xFD, 0xFF, 0xFC, 0x0D, 0xEF, 0xFC, 0x03, 0xFE,
  0xF7, 0x00, 0x08, 0x12, 0xFB, 0x00, 0xF9, 0x06, 0x00, 0x01,
  0x02, 0x00, 0x00, 0xFB, 0x00, 0x00, 0xF5, 0xF7, 0x04, 0xFB,
  0xFD, 0x00, 0x02, 0x1F, 0x02, 0xFE, 0xFF, 0x24, 0xFC, 0x02,
  0x00, 0x00, 0xFF, 0xFE, 0x07, 0xE4, 0x04, 0x04, 0xF8, 0x00,
  0xEF, 0xFF, 0xF3, 0xF9, 0xFB, 0x03, 0x00, 0x09, 0xDE, 0x04,
  0xFE, 0x02, 0x01, 0x05, 0x01, 0x14, 0xF9, 0xFC, 0x01, 0x10,
  0xFF, 0x09, 0x00, 0xFB, 0xF7, 0xFE, 0xF8, 0xBB, 0x02, 0x03,
  0x03, 0x01, 0xFE, 0x02, 0xFA, 0x05, 0xFC, 0x0D, 0x03, 0x02,
  0xF0, 0x0B, 0x02, 0x02, 0x00, 0x01, 0x01, 0xE7, 0x00, 0xFA,
  0x01, 0xF2, 0x08, 0x00, 0xFE, 0x01, 0xFD, 0xFB, 0xFC, 0xE1,
  0x03, 0xFC, 0x02, 0xF8, 0x18, 0x00, 0x04, 0x04, 0x04, 0xFB,
  0x02, 0xFD, 0x25, 0x08, 0x02, 0xFB, 0x01, 0x00, 0x0C, 0xD5,
  0x02, 0xFF, 0xFF, 0xD3, 0x0B, 0xFF, 0xFD, 0x08, 0x06, 0x01,
  0xFF, 0x1A, 0xFF, 0xFB, 0x02, 0x04, 0x14, 0xF9, 0x02, 0x03,
  0xFF, 0xF8, 0xFF, 0xE5, 0x2B, 0xFC, 0x03, 0xF6, 0xFC, 0xFD,
  0x14, 0xFC, 0xFA, 0x01, 0xFE, 0xFE, 0x07, 0xF7, 0x03, 0x00,
  0x06, 0x00, 0x07, 0x13, 0x00, 0xF8, 0xF9, 0x03, 0xFC, 0xFF,
  0x01, 0xFD, 0xFE, 0x00, 0xFC, 0xE7, 0x0B, 0xF2, 0xFC, 0x03,
  0x00, 0xFF, 0x10, 0x0D, 0xFE, 0x06, 0xFB, 0x14, 0x01, 0x02,
  0xEB, 0x04, 0xF2, 0x00, 0xF7, 0x08, 0xF6, 0x00, 0x04, 0x04,
  0xEC, 0xFF, 0xF9, 0x00, 0xFF, 0xFD, 0xFE, 0xFD, 0xD2, 0xF5,
  0xFD, 0x05, 0x05, 0x06, 0xF8, 0x12, 0x02, 0x01, 0xFB, 0x18,
  0xFA, 0xF9, 0x04, 0xF2, 0x05, 0xFF, 0xFE, 0xE6, 0x08, 0x06,
  0x05, 0xFE, 0x05, 0xFE, 0xFF, 0x04, 0x01, 0x03, 0xF9, 0xFE,
  0xF5, 0x04, 0x02, 0xFD, 0xFE, 0x04, 0xFC, 0x0F, 0xF4, 0xFE,
  0x01, 0x06, 0xFB, 0x04, 0x00, 0xFF, 0xF9, 0xFF, 0x02, 0xCE,
  0xFF, 0x06, 0x02, 0x04, 0x0D, 0x03, 0x00, 0x06, 0x03, 0xFF,
  0x06, 0xF9, 0x11, 0x03, 0x05, 0xFC, 0xFA, 0xF9, 0xFE, 0xE8,
  0x00, 0xFA, 0x06, 0xEE, 0x01, 0xFF, 0xFF, 0x01, 0xF6, 0x00,
  0xFD, 0xF4, 0xFD, 0xFF, 0x01, 0xF8, 0x06, 0x00, 0x01, 0x02,
  0xFC, 0xFF, 0xFE, 0xFF, 0x1E, 0xFD, 0xFE, 0x04, 0x02, 0xFB,
  0x05, 0xDA, 0x03, 0xFC, 0x02, 0xF7, 0x04, 0xFC, 0xFA, 0x07,
  0x0A, 0xF8, 0xFD, 0xF6, 0x02, 0xF8, 0x02, 0xFB, 0xF0, 0x05,
  0x00, 0x02, 0x01, 0xFC, 0x01, 0x06, 0x19, 0xFD, 0xF9, 0xFF,
  0x02, 0xFE, 0x10, 0xE7, 0x00, 0x02, 0x03, 0xE6, 0xFA, 0xF7,
  0xFD, 0x01, 0x0D, 0x03, 0x02, 0x13, 0xFE, 0xF9, 0x01, 0x07,
  0x07, 0xFB, 0x00, 0xFE, 0xFF, 0xF1, 0xFF, 0xE4, 0x11, 0xFB,
  0xFF, 0xF8, 0xFF, 0xFB, 0x12, 0x08, 0xEC, 0x01, 0xF9, 0xF4,
  0x07, 0xF6, 0x03, 0xF7, 0x06, 0x01, 0x04, 0x10, 0xFB, 0xF6,
  0xF9, 0x03, 0x07, 0xFF, 0x03, 0xFD, 0xFC, 0x06, 0xFE, 0xEB,
  0x05, 0xF7, 0xFF, 0x01, 0x03, 0x01, 0x13, 0x0D, 0xFF, 0x01,
  0xF4, 0x14, 0x01, 0x03, 0xEF, 0x01, 0xF6, 0xFF, 0xF6, 0x04,
  0xFB, 0xFF, 0x02, 0xFA, 0xF8, 0xFE, 0xFF, 0x01, 0xFE, 0xF9,
  0x00, 0xFB, 0xD8, 0xF3, 0x03, 0x02, 0x04, 0x08, 0xF8, 0x0F,
  0x00, 0xFF, 0xFF, 0x19, 0xFE, 0xF7, 0x04, 0xFC, 0xFF, 0xFF,
  0xF7, 0xF4, 0x0B, 0x04, 0x03, 0xFD, 0xF9, 0xFA, 0xFC, 0x03,
  0x00, 0x08, 0xFF, 0x03, 0x01, 0x03, 0x02, 0xF9, 0xFD, 0x02,
  0x00, 0xFE, 0xF6, 0xFE, 0x03, 0x0C, 0xFB, 0x04, 0xFB, 0x05,
  0xF5, 0x03, 0xFF, 0xBF, 0xFE, 0x01, 0x02, 0x07, 0x04, 0x01,
  0x00, 0x00, 0x03, 0x03, 0x02, 0x04, 0x1B, 0x09, 0xFE, 0xFC,
  0xFD, 0xFC, 0x00, 0xDB, 0x03, 0xFB, 0x04, 0xDE, 0x01, 0xFF,
  0xFF, 0x00, 0xFD, 0xFE, 0xFD, 0x01, 0xFE, 0xFC, 0x05, 0xFD,
  0x0D, 0x00, 0x0B, 0x04, 0xFF, 0xF6, 0x02, 0xFF, 0x32, 0x02,
  0xFD, 0xFF, 0x02, 0x00, 0x12, 0xE0, 0x00, 0x00, 0xFD, 0xDC,
  0x05, 0xFB, 0xFC, 0xFF, 0x02, 0x00, 0x01, 0x24, 0x01, 0xF9,
  0xFD, 0xFD, 0x07, 0x01, 0x05, 0x05, 0x01, 0xFB, 0x01, 0xFF,
  0x0F, 0xF8, 0xFD, 0xFD, 0x04, 0x00, 0x14, 0x0C, 0x00, 0xFE,
  0xFE, 0xFC, 0xFD, 0xFB, 0x07, 0xFF, 0x08, 0x00, 0x0E, 0x21,
  0x01, 0xF7, 0xF6, 0x03, 0xEC, 0xFF, 0x02, 0x03, 0x02, 0x01,
  0x00, 0x00, 0xDC, 0xFA, 0x04, 0xFD, 0x01, 0x04, 0x06, 0x24,
  0xFD, 0xFE, 0xFD, 0x18, 0xFA, 0x04, 0x00, 0xFF, 0x00, 0x01,
  0x04, 0x06, 0x00, 0x01, 0x03, 0x00, 0xE9, 0x04, 0xFD, 0xFC,
  0x00, 0x04, 0x01, 0xFE, 0xCD, 0x00, 0x02, 0xFF, 0xFF, 0xFF,
  0xFB, 0x14, 0xFF, 0xFD, 0x02, 0x18, 0x00, 0xFF, 0x02, 0xFF,
  0xFE, 0xFF, 0x04, 0x07, 0x04, 0x03, 0xF3, 0x03, 0xFA, 0x01,
  0x00, 0x00, 0xFD, 0x05, 0x01, 0xF1, 0xFF, 0x09, 0xFE, 0x05,
  0xFB, 0xFF, 0x00, 0x08, 0xFE, 0xFE, 0x04, 0x0F, 0x00, 0xFE,
  0xF6, 0x03, 0x02, 0x02, 0x01, 0x0E, 0xFF, 0xFD, 0x06, 0xFD,
  0x0B, 0x01, 0x00, 0x05, 0x02, 0xFB, 0x01, 0xF0, 0x0E, 0x0E,
  0x00, 0xFD, 0xFC, 0xFD, 0x0A, 0xEE, 0x02, 0xFE, 0x02, 0xCB,
  0x06, 0xFB, 0xFF, 0xFB, 0xF1, 0xFF, 0xFB, 0x0E, 0xFD, 0xFB,
  0x04, 0x06, 0x15, 0xFC, 0x04, 0x0A, 0xFF, 0xFE, 0xFE, 0xF1,
  0x13, 0xFC, 0x03, 0xFC, 0x08, 0x01, 0x07, 0xF8, 0xFF, 0xF9,
  0xF7, 0x0D, 0x08, 0xFE, 0x03, 0xFF, 0xF6, 0xFB, 0x06, 0x2C,
  0x03, 0xFA, 0xFE, 0xF9, 0xF7, 0x02, 0x05, 0x06, 0x07, 0xFE,
  0x00, 0x04, 0x06, 0x01, 0x05, 0xFE, 0x02, 0x03, 0x0E, 0x05,
  0x09, 0x03, 0x03, 0x00, 0x0C, 0xFA, 0x03, 0xFF, 0x00, 0x07,
  0x06, 0x03, 0x06, 0x02, 0xFD, 0x00, 0xFD, 0x03, 0xFD, 0x03,
  0x03, 0x08, 0x00, 0xF5, 0x07, 0xFF, 0x00, 0xFA, 0x01, 0xFE,
  0x1B, 0x04, 0x03, 0xFF, 0xFE, 0x04, 0xFA, 0x04, 0x09, 0x0F,
  0x04, 0x03, 0xFC, 0x00, 0x04, 0xFD, 0xF9, 0xFF, 0x00, 0x03,
  0x04, 0x0A, 0xFB, 0x09, 0xFD, 0xF4, 0x07, 0xFA, 0xFC, 0xFD,
  0xF6, 0x01, 0x07, 0xFD, 0xFE, 0x07, 0xF9, 0x04, 0xF5, 0x0B,
  0x13, 0x0B, 0x0B, 0x02, 0xF7, 0xFE, 0xFD, 0x00, 0xFB, 0x02,
  0x05, 0xFC, 0x05, 0x0A, 0x05, 0x08, 0x04, 0xFA, 0x03, 0xFF,
  0xFD, 0x00, 0x02, 0xFE, 0x11, 0xFB, 0xF9, 0x03, 0xFA, 0x07,
  0xF5, 0xFF, 0x13, 0x0D, 0x0E, 0x07, 0xF9, 0x03, 0xF8, 0x03,
  0xFD, 0x04, 0x08, 0x00, 0x01, 0x0B, 0x02, 0x04, 0xFE, 0xFC,
  0x03, 0x00, 0xFB, 0x01, 0xF7, 0x03, 0x08, 0x04, 0x01, 0x03,
  0xFA, 0x02, 0xFD, 0x04, 0x0D, 0x11, 0x08, 0x05, 0xFE, 0xFF,
  0x00, 0x08, 0xF7, 0x05, 0x03, 0xFD, 0xFF, 0x00, 0x07, 0xFF,
  0x03, 0x06, 0x03, 0x02, 0xFF, 0xFD, 0xFD, 0xFD, 0x0F, 0x02,
  0x04, 0x0B, 0x00, 0x01, 0x02, 0x03, 0x0E, 0x0F, 0x02, 0xFF,
  0xFE, 0xF8, 0x02, 0x08, 0xFF, 0x01, 0x04, 0xFF, 0xF9, 0x02,
  0x03, 0xFD, 0x03, 0x03, 0x06, 0x09, 0x08, 0xFC, 0x04, 0x05,
  0x0C, 0x02, 0x00, 0xFC, 0x03, 0x03, 0x07, 0xF3, 0xFA, 0xF1,
  0xFB, 0x04, 0xFB, 0xFE, 0x06, 0xFF, 0x00, 0xFB, 0xFF, 0x05,
  0xF6, 0xFC, 0xFF, 0x01, 0x03, 0x0A, 0x08, 0x02, 0x0B, 0xFB,
  0x03, 0x06, 0x0A, 0x05, 0x09, 0xFB, 0x06, 0x05, 0x06, 0xF8,
  0xF7, 0xF7, 0xFC, 0x06, 0xFE, 0x05, 0x0E, 0xFF, 0x07, 0x02,
  0xFF, 0x02, 0x01, 0x03, 0x03, 0xFE, 0x02, 0xFE, 0x07, 0x09,
  0xFA, 0xFE, 0xFF, 0xFF, 0x13, 0x09, 0xFE, 0x09, 0x01, 0xFF,
  0xFA, 0x02, 0x19, 0x0B, 0x04, 0x08, 0xFC, 0xFF, 0x03, 0x04,
  0xF8, 0x06, 0x00, 0x01, 0xFE, 0x06, 0x01, 0x06, 0xFF, 0xF5,
  0x04, 0x00, 0xFA, 0xFD, 0xF8, 0xFA, 0x08, 0xFA, 0xFC, 0x00,
  0xFC, 0x06, 0xF5, 0x06, 0x12, 0x0E, 0x08, 0x05, 0xF9, 0xFD,
  0xFC, 0x02, 0xFB, 0x03, 0x07, 0x00, 0x06, 0x06, 0x06, 0x02,
  0x02, 0xF4, 0x00, 0xFD, 0xFC, 0xFD, 0xFB, 0xFC, 0x11, 0xFA,
  0xFD, 0x03, 0xFB, 0xFF, 0xF4, 0x00, 0x0D, 0x09, 0x06, 0x01,
  0xF7, 0x01, 0xF8, 0x02, 0xFC, 0xFD, 0x03, 0xFA, 0x02, 0x07,
  0x00, 0x03, 0xFC, 0xFB, 0x03, 0xF8, 0xFC, 0xFA, 0xF6, 0x03,
  0x03, 0x00, 0xFA, 0xFB, 0xF9, 0x03, 0xF8, 0x03, 0x08, 0x0A,
  0x01, 0xF9, 0xFA, 0x01, 0xF8, 0xFD, 0xFC, 0x01, 0x03, 0x02,
  0xFB, 0x00, 0x01, 0xFE, 0xFD, 0x0A, 0x00, 0x0A, 0xFF, 0xFF,
  0xFD, 0xFD, 0x03, 0x05, 0x03, 0xFD, 0xFE, 0x02, 0xFA, 0x00,
  0x05, 0x07, 0x05, 0x01, 0x08, 0x05, 0x00, 0x04, 0xFC, 0x02,
  0x03, 0xFA, 0xF7, 0x01, 0xFF, 0xF6, 0x03, 0x06, 0x03, 0x02,
  0xFF, 0xF9, 0x04, 0x0D, 0x0A, 0x05, 0x01, 0xFF, 0xFE, 0x00,
  0x00, 0xF8, 0xFF, 0xF9, 0x02, 0xFF, 0xFF, 0x01, 0x03, 0x08,
  0xFC, 0x00, 0xFC, 0xFF, 0xF1, 0x07, 0x00, 0x03, 0xFF, 0x09,
  0x04, 0x0A, 0x09, 0xFD, 0x00, 0x05, 0x10, 0x01, 0x07, 0xFB,
  0x04, 0x01, 0x03, 0xFB, 0xFE, 0xFA, 0xFE, 0x04, 0xFD, 0x03,
  0x07, 0x01, 0x07, 0x02, 0x02, 0x01, 0x06, 0x06, 0x02, 0x00,
  0x01, 0xFE, 0x02, 0xFD, 0x02, 0xF9, 0xFC, 0xFB, 0x13, 0x00,
  0xFF, 0x02, 0xFA, 0x02, 0xF9, 0xFE, 0x09, 0x0B, 0x00, 0x02,
  0xF9, 0x01, 0xFB, 0x01, 0x01, 0x02, 0x00, 0xFB, 0x03, 0x02,
  0x03, 0x09, 0xFE, 0xF4, 0x01, 0xFD, 0xFA, 0xFD, 0xFA, 0xFE,
  0x06, 0xFD, 0x01, 0xF9, 0xFE, 0x09, 0xF1, 0x07, 0x0A, 0x0A,
  0x06, 0xFC, 0xFB, 0xFD, 0xFD, 0xFC, 0xFA, 0x03, 0x03, 0x01,
  0x04, 0x04, 0x04, 0x08, 0xFF, 0xF5, 0x00, 0xFF, 0xFD, 0x00,
  0xFD, 0xFC, 0x15, 0x00, 0xFB, 0x01, 0xF6, 0x00, 0xF5, 0x06,
  0x12, 0x0B, 0x08, 0xFF, 0xF9, 0xFE, 0xF7, 0x00, 0xF9, 0xFC,
  0x02, 0x03, 0xFE, 0xFF, 0x00, 0x08, 0x00, 0xF9, 0xFF, 0xF9,
  0xFD, 0xF9, 0xFA, 0x02, 0x07, 0x02, 0x03, 0x01, 0xF9, 0x03,
  0xF7, 0x06, 0x0D, 0x0D, 0x07, 0x04, 0xF6, 0x00, 0xFC, 0xFD,
  0x03, 0x03, 0xFF, 0x00, 0xFD, 0xFF, 0x00, 0xFC, 0xFE, 0x0F,
  0x06, 0x04, 0x00, 0xFA, 0x02, 0x02, 0x09, 0x03, 0x04, 0x05,
  0xFB, 0x04, 0xFE, 0x05, 0x0C, 0x13, 0x07, 0x08, 0x03, 0xFB,
  0x01, 0x0A, 0xF9, 0x03, 0x05, 0xFF, 0xFB, 0x08, 0x08, 0xFD,
  0x06, 0x06, 0x06, 0x01, 0x0A, 0x00, 0x02, 0x09, 0x0E, 0x05,
  0x04, 0xFC, 0xFF, 0x00, 0x06, 0xF1, 0xF7, 0xFD, 0x00, 0x02,
  0x07, 0xFD, 0x00, 0x00, 0xFE, 0xFD, 0xFE, 0xFF, 0xF4, 0x11,
  0x06, 0x01, 0x01, 0x09, 0x06, 0x09, 0x04, 0xFD, 0x06, 0x03,
  0x05, 0x08, 0xFD, 0xFB, 0x05, 0x0B, 0x07, 0xFB, 0xF8, 0xF2,
  0xF9, 0xFF, 0xFA, 0x00, 0x0E, 0xFC, 0x06, 0x00, 0x01, 0x04,
  0xFE, 0x07, 0x06, 0x03, 0xFC, 0xF9, 0x04, 0x00, 0x01, 0xFC,
  0xFC, 0xFF, 0x0A, 0x07, 0x07, 0x06, 0xFD, 0x05, 0x01, 0xFE,
  0x12, 0x10, 0x07, 0x0A, 0xF8, 0xFF, 0x01, 0x03, 0xFE, 0xFE,
  0x01, 0xFF, 0x02, 0x02, 0x01, 0x00, 0xFE, 0xFB, 0x05, 0x03,
  0xFB, 0xFD, 0xF9, 0x00, 0x06, 0xFF, 0x02, 0x01, 0xFA, 0x05,
  0xF5, 0x09, 0x0E, 0x13, 0x09, 0xFF, 0xF6, 0xFF, 0x01, 0xFE,
  0xFA, 0x05, 0x07, 0x00, 0x06, 0x03, 0x02, 0x02, 0x01, 0xF5,
  0x00, 0x01, 0x01, 0x00, 0xF9, 0xFE, 0x0F, 0xF7, 0xFB, 0x05,
  0xFF, 0x05, 0xF7, 0x01, 0x11, 0x12, 0x09, 0x01, 0x02, 0xFE,
  0xF5, 0x04, 0xFB, 0x01, 0x05, 0xFE, 0x01, 0x02, 0x07, 0x09,
  0x03, 0xF4, 0x01, 0x01, 0xFF, 0xFA, 0x00, 0xFE, 0x04, 0xFE,
  0x02, 0x07, 0xFE, 0x02, 0xFA, 0x09, 0x0F, 0x0B, 0x04, 0x07,
  0x01, 0xFF, 0xFC, 0x00, 0x01, 0x06, 0x06, 0x01, 0xFF, 0xFC,
  0xFF, 0x04, 0xFE, 0x02, 0x03, 0x09, 0x00, 0xFE, 0xFE, 0x05,
  0x04, 0x02, 0x01, 0x00, 0x04, 0x05, 0x02, 0x06, 0x0D, 0x0D,
  0x09, 0x03, 0x04, 0x02, 0xFF, 0x06, 0x0A, 0xFD, 0x06, 0x02,
  0xFF, 0x0E, 0x12, 0x08, 0xFC, 0x0A, 0x06, 0x02, 0x00, 0x00,
  0xFB, 0x08, 0x10, 0x0A, 0x02, 0x02, 0x04, 0x08, 0x08, 0x0B,
  0x09, 0x08, 0x08, 0x08, 0x08, 0x06, 0x04, 0xFF, 0x03, 0x06,
  0x08, 0xE6, 0x01, 0x0A, 0x0D, 0x03, 0xBD, 0x03, 0x04, 0x03,
  0x03, 0xFF, 0x00, 0xFA, 0x12, 0x01, 0xFE, 0xFE, 0x01, 0x08,
  0x06, 0x00, 0x00, 0x01, 0xFE, 0x14, 0x01, 0xFC, 0x02, 0xFF,
  0x01, 0xFE, 0x00, 0xB4, 0x09, 0xF2, 0x01, 0x06, 0xBD, 0xFF,
  0x07, 0x0A, 0x06, 0x02, 0x03, 0x0F, 0x0A, 0x01, 0x02, 0xFC,
  0x04, 0x04, 0x05, 0x01, 0xFF, 0xFA, 0x02, 0xFD, 0x03, 0xFE,
  0x05, 0x05, 0x01, 0xFD, 0x02, 0xB1, 0xFF, 0xF4, 0x00, 0x03,
  0xC4, 0x05, 0x02, 0x0A, 0x02, 0x02, 0x05, 0x1A, 0x06, 0x02,
  0x01, 0xFB, 0x1D, 0x01, 0x01, 0x00, 0x09, 0x00, 0x04, 0xFF,
  0x04, 0x02, 0xFB, 0x05, 0xFD, 0x03, 0xFF, 0xB2, 0x03, 0xFA,
  0x09, 0x04, 0xA9, 0x07, 0x03, 0x02, 0x02, 0x04, 0x05, 0xFF,
  0x00, 0x06, 0x02, 0xFE, 0x01, 0x04, 0x01, 0xFC, 0xFF, 0x00,
  0xFF, 0x05, 0x04, 0x0A, 0x05, 0x03, 0xFD, 0x01, 0x03, 0xAD,
  0x07, 0x20, 0x22, 0x06, 0xC9, 0x04, 0x08, 0x0A, 0x00, 0x01,
  0xFF, 0xFD, 0x00, 0x07, 0xFD, 0xFC, 0xF9, 0x03, 0x01, 0x06,
  0x00, 0xFD, 0x0B, 0x1B, 0x07, 0x0A, 0x04, 0x04, 0x05, 0x04,
  0x03, 0xB1, 0x06, 0x0C, 0x16, 0x08, 0xDC, 0x08, 0x08, 0x02,
  0x02, 0x08, 0x03, 0x06, 0x08, 0x07, 0x04, 0x0C, 0x01, 0x06,
  0x02, 0x07, 0x07, 0x0C, 0x0F, 0x14, 0x04, 0x0A, 0x07, 0x01,
  0x09, 0x09, 0x0E, 0xD6, 0x06, 0x0B, 0x18, 0x02, 0xD8, 0x06,
  0x04, 0x0B, 0x01, 0x07, 0x02, 0x02, 0x05, 0x07, 0x07, 0x09,
  0x02, 0x0A, 0x0A, 0x08, 0x0A, 0x08, 0x05, 0x13, 0x03, 0x06,
  0x06, 0xFE, 0x09, 0x0B, 0x08, 0xD0, 0x02, 0xE3, 0x19, 0x06,
  0xB4, 0x05, 0x08, 0x05, 0x04, 0x01, 0x01, 0xFC, 0x0F, 0x03,
  0x00, 0xFF, 0xFD, 0x06, 0x05, 0x03, 0x00, 0x02, 0x01, 0x25,
  0xFF, 0xFD, 0x07, 0x02, 0x03, 0x02, 0x01, 0xA7, 0x08, 0xF6,
  0x05, 0x07, 0xBD, 0x04, 0x07, 0x07, 0x04, 0x05, 0x05, 0x07,
  0x11, 0x00, 0xFE, 0xF8, 0x03, 0x06, 0x07, 0x04, 0x04, 0xFF,
  0x02, 0x07, 0x02, 0x00, 0x02, 0x07, 0x03, 0x03, 0x01, 0xA3,
  0xFE, 0xFD, 0xFA, 0x00, 0xC1, 0x02, 0x05, 0x08, 0x06, 0x02,
  0x03, 0x1A, 0x0F, 0x02, 0x01, 0xF8, 0x19, 0x06, 0x02, 0x00,
  0x06, 0x05, 0x05, 0xFE, 0x05, 0x02, 0x04, 0x07, 0x02, 0x03,
  0xFF, 0xB9, 0x05, 0xFA, 0xFF, 0x02, 0xC6, 0x04, 0x02, 0x0E,
  0x07, 0x00, 0x06, 0xFF, 0x05, 0x08, 0x08, 0x00, 0x06, 0x05,
  0x04, 0x01, 0x01, 0x01, 0x04, 0xF9, 0x02, 0x08, 0x08, 0x0D,
  0xFE, 0x01, 0x02, 0xC2, 0x08, 0x0B, 0x0C, 0x02, 0xE7, 0x06,
  0x03, 0x0C, 0xFE, 0x02, 0x00, 0x04, 0x01, 0x0C, 0xFB, 0xFF,
  0x00, 0x00, 0x06, 0x04, 0x03, 0xFF, 0x0D, 0x01, 0x08, 0x13,
  0xFE, 0x06, 0x04, 0x02, 0x02, 0xD2, 0x0B, 0x0F, 0x07, 0x05,
  0x17, 0x09, 0x09, 0x0C, 0x04, 0x04, 0x04, 0x06, 0x08, 0x06,
  0x08, 0x05, 0x0A, 0x08, 0x08, 0x0B, 0x06, 0x0A, 0x09, 0x0B,
  0x06, 0x09, 0x03, 0x03, 0x06, 0x06, 0x0A, 0x0A, 0x08, 0x0D,
  0x0C, 0x0B, 0x08, 0x0A, 0x08, 0x05, 0x07, 0x04, 0xFE, 0x05,
  0x0A, 0x02, 0x01, 0x05, 0x01, 0x0D, 0x04, 0x09, 0x08, 0x07,
  0x07, 0x08, 0x08, 0x07, 0x07, 0x07, 0x0A, 0x08, 0x09, 0x0D,
  0x03, 0xFE, 0x06, 0x06, 0xE5, 0x05, 0x09, 0xFF, 0x02, 0x03,
  0x02, 0x03, 0x0C, 0x05, 0xFB, 0x02, 0x05, 0x05, 0x08, 0x07,
  0xFE, 0x02, 0x04, 0x13, 0xFF, 0x00, 0x00, 0xFD, 0x01, 0x04,
  0x03, 0xD6, 0x09, 0x08, 0xFB, 0x03, 0xCF, 0x01, 0x07, 0xFE,
  0x06, 0x02, 0x0A, 0x04, 0x16, 0x02, 0x05, 0x04, 0x02, 0x08,
  0x06, 0x04, 0x02, 0x03, 0x03, 0x06, 0xFF, 0xFF, 0x0A, 0x00,
  0x02, 0x03, 0x01, 0xC0, 0xFD, 0xFE, 0xFA, 0xFE, 0xC5, 0x01,
  0x03, 0x06, 0x07, 0x00, 0x07, 0x1E, 0x10, 0xFE, 0x04, 0x01,
  0x19, 0x05, 0x02, 0xFF, 0x05, 0x05, 0x04, 0x01, 0x01, 0x04,
  0x06, 0xFB, 0x02, 0x00, 0xFF, 0xB9, 0x07, 0xFE, 0x02, 0x07,
  0xAC, 0x02, 0x01, 0x0D, 0x03, 0x01, 0x02, 0x04, 0x05, 0x09,
  0x02, 0x03, 0x0D, 0x04, 0x05, 0x00, 0xFB, 0x02, 0x03, 0xFF,
  0x02, 0x08, 0x04, 0x00, 0x05, 0xFF, 0x03, 0xA7, 0x09, 0x03,
  0x21, 0x00, 0xB7, 0x07, 0x04, 0x02, 0x00, 0x00, 0xFF, 0x01,
  0xFE, 0x09, 0x02, 0x03, 0xFD, 0x00, 0x04, 0x02, 0x03, 0xFF,
  0x07, 0x12, 0x08, 0x10, 0x08, 0x00, 0x03, 0x01, 0x07, 0xA5,
  0x0A, 0x10, 0x1D, 0x03, 0xEB, 0x06, 0x06, 0x0A, 0x01, 0x08,
  0xFE, 0x06, 0x09, 0x07, 0x05, 0x05, 0x06, 0x07, 0x03, 0x09,
  0x08, 0x0B, 0x09, 0x18, 0x09, 0x07, 0x06, 0x05, 0x01, 0x0B,
  0x09, 0xCD, 0x04, 0x0E, 0x15, 0x0A, 0xDB, 0x08, 0x07, 0x0F,
  0x06, 0x08, 0x03, 0xFF, 0x0A, 0x04, 0x06, 0x03, 0xFE, 0x08,
  0x09, 0x08, 0x0B, 0x0B, 0x09, 0x0A, 0x09, 0x08, 0x09, 0x07,
  0x0A, 0x08, 0x06, 0xCF, 0x06, 0x18, 0x1A, 0x0A, 0xD5, 0x05,
  0x07, 0xFD, 0x00, 0x01, 0xFE, 0xFC, 0x17, 0x06, 0x02, 0x07,
  0xFC, 0x04, 0x01, 0x06, 0x02, 0xFC, 0x08, 0x1E, 0x02, 0xFD,
  0x05, 0xF7, 0x07, 0x04, 0x03, 0xB4, 0x0B, 0x28, 0x0B, 0x03,
  0xB6, 0xFF, 0x04, 0xFC, 0x06, 0x01, 0x02, 0xF9, 0x16, 0xFF,
  0x02, 0x02, 0xFF, 0x06, 0x05, 0x02, 0x03, 0x03, 0xFE, 0x09,
  0x01, 0xFE, 0x08, 0xFC, 0xFD, 0x02, 0xFF, 0xAA, 0x01, 0xFE,
  0xF5, 0x03, 0xC1, 0x00, 0x06, 0x02, 0x00, 0x04, 0x04, 0x1C,
  0x06, 0xFE, 0x02, 0x06, 0x19, 0x01, 0xFD, 0xFF, 0x04, 0x03,
  0x00, 0xFC, 0x01, 0xFF, 0x04, 0xF8, 0xFF, 0x02, 0x01, 0xBD,
  0x0B, 0xEE, 0xE6, 0x07, 0xC5, 0xFF, 0x02, 0x07, 0xFF, 0x02,
  0x07, 0x15, 0xFE, 0x06, 0xFD, 0x08, 0x1B, 0x01, 0x09, 0xFD,
  0xFF, 0xFB, 0x03, 0xF3, 0x07, 0x07, 0x00, 0x01, 0x00, 0x01,
  0x00, 0xB0, 0x04, 0xE5, 0x02, 0xFB, 0xA5, 0x08, 0x05, 0x02,
  0x02, 0x06, 0x05, 0x0D, 0xFD, 0x06, 0xFF, 0x02, 0x12, 0x01,
  0x06, 0x01, 0x06, 0x07, 0x03, 0x02, 0xFE, 0x07, 0x00, 0x06,
  0x00, 0x01, 0xFF, 0xA8, 0x00, 0x03, 0xFE, 0x04, 0x01, 0x07,
  0x01, 0xFB, 0x07, 0xF5, 0x01, 0x00, 0x0B, 0x08, 0x03, 0xFA,
  0xFB, 0xF9, 0xFE, 0x06, 0x00, 0xFE, 0x05, 0xF8, 0xFA, 0x04,
  0x05, 0xFE, 0x0E, 0x07, 0x08, 0xFF, 0x01, 0x03, 0xFF, 0x03,
  0xFE, 0xFE, 0x06, 0x07, 0xFE, 0xFC, 0xFE, 0xFE, 0x0C, 0xFE,
  0x02, 0x04, 0x04, 0xFA, 0xF7, 0xFE, 0xFE, 0xF8, 0xFA, 0x07,
  0x0C, 0xFA, 0x02, 0x03, 0x0B, 0x0B, 0xF8, 0xFE, 0xFC, 0x08,
  0x05, 0xF8, 0xFF, 0x01, 0xFC, 0x02, 0xFA, 0xFE, 0xFF, 0x02,
  0xFB, 0xF7, 0x01, 0x06, 0x02, 0xFC, 0xFF, 0x05, 0xFD, 0xFD,
  0xF8, 0x00, 0x07, 0xF7, 0x01, 0x05, 0x06, 0x15, 0xF0, 0x02,
  0xFE, 0x0A, 0x05, 0x00, 0xFD, 0xFC, 0xF8, 0xF5, 0x01, 0x02,
  0xFB, 0x02, 0x0E, 0xF9, 0xFE, 0xFD, 0x01, 0xF8, 0xF9, 0x02,
  0xF9, 0x02, 0xFE, 0x03, 0x0B, 0xF7, 0xFF, 0x00, 0x0D, 0x10,
  0xFA, 0x00, 0xFA, 0x01, 0x04, 0x02, 0x00, 0xFC, 0xFC, 0x0F,
  0x01, 0xFA, 0xFD, 0x02, 0x08, 0x01, 0xFE, 0x02, 0xFE, 0x05,
  0xFF, 0x02, 0x01, 0xFF, 0xF5, 0x02, 0x04, 0x09, 0xFF, 0x08,
  0x08, 0x0F, 0xF7, 0x00, 0xFC, 0x00, 0x06, 0xFB, 0xFE, 0x06,
  0xFE, 0x11, 0x01, 0xFA, 0x00, 0x03, 0x00, 0x04, 0x03, 0x09,
  0x01, 0xFB, 0xFB, 0xFE, 0xFB, 0xFB, 0x03, 0x02, 0x0B, 0xF9,
  0xFD, 0x0E, 0x07, 0x0C, 0xF5, 0xFE, 0x0A, 0xFB, 0xFE, 0xFF,
  0xFD, 0x07, 0xFF, 0xFE, 0xFB, 0xFC, 0x06, 0x05, 0x04, 0x05,
  0x05, 0xEE, 0x05, 0xFD, 0xFD, 0xFE, 0xFF, 0x06, 0x16, 0x01,
  0x0F, 0xFC, 0x03, 0x04, 0x01, 0xF9, 0x10, 0xFF, 0xF6, 0xFE,
  0x01, 0x07, 0xFC, 0x00, 0x03, 0x01, 0x02, 0xF3, 0xFD, 0x04,
  0x05, 0x0B, 0x05, 0xF5, 0xFF, 0x00, 0x05, 0x06, 0x08, 0x02,
  0x01, 0xFA, 0xFF, 0x03, 0x06, 0xF5, 0x07, 0x04, 0x0B, 0xFA,
  0xFA, 0x02, 0x00, 0x04, 0x02, 0xFA, 0x02, 0x05, 0xFD, 0xF8,
  0xFE, 0x05, 0x1C, 0x05, 0x05, 0x05, 0x03, 0xFB, 0xFB, 0x01,
  0xF6, 0xFD, 0x01, 0x06, 0x07, 0xF7, 0x01, 0x06, 0x0F, 0x0A,
  0xF4, 0xFF, 0xFB, 0x01, 0x06, 0xFD, 0x00, 0x00, 0xFC, 0x0B,
  0x01, 0x01, 0x00, 0x00, 0xFF, 0xFD, 0x02, 0x09, 0x03, 0x03,
  0xFC, 0x04, 0xFA, 0xFD, 0xFD, 0x01, 0x05, 0xF6, 0x04, 0x09,
  0x07, 0x13, 0xFC, 0xFD, 0xFD, 0x06, 0x02, 0xFF, 0x00, 0xFC,
  0xFB, 0xEA, 0xFF, 0xFE, 0xFC, 0xFF, 0x09, 0xFA, 0x00, 0x02,
  0x05, 0xFD, 0xFC, 0x05, 0x01, 0xFE, 0xFE, 0xFF, 0x0C, 0xF9,
  0x00, 0xFF, 0x07, 0x0F, 0xFC, 0xFC, 0xFF, 0x03, 0x05, 0xFE,
  0x01, 0xFF, 0xF9, 0x0A, 0xFF, 0x02, 0xFB, 0x03, 0x05, 0x03,
  0x03, 0x06, 0x04, 0x08, 0x00, 0x00, 0x02, 0xFF, 0xFE, 0xFD,
  0x09, 0x08, 0xFD, 0x08, 0x05, 0x0C, 0xF5, 0x00, 0xFD, 0xFD,
  0x02, 0x03, 0x03, 0xFC, 0xFF, 0x06, 0x03, 0xFF, 0xFD, 0xFF,
  0xFF, 0x03, 0x01, 0x02, 0x01, 0xFD, 0xFF, 0x0B, 0x00, 0x00,
  0xFF, 0x01, 0x04, 0xFF, 0xFF, 0x07, 0x08, 0x06, 0xFB, 0xFE,
  0x05, 0x0B, 0x03, 0x01, 0x05, 0x04, 0x04, 0x06, 0x01, 0xFD,
  0x04, 0x02, 0x08, 0x02, 0x05, 0xF4, 0x00, 0xFB, 0x04, 0x01,
  0x07, 0x04, 0x09, 0x01, 0x02, 0x08, 0xFF, 0x04, 0x04, 0xFE,
  0x08, 0x00, 0xFE, 0x02, 0x01, 0x06, 0x03, 0xFE, 0x02, 0xFD,
  0x02, 0xF3, 0x02, 0x02, 0x09, 0x05, 0x04, 0xFC, 0x03, 0x02,
  0x05, 0xFF, 0x08, 0x04, 0x04, 0x01, 0x08, 0x05, 0x03, 0x01,
  0x01, 0xFE, 0x07, 0xFB, 0xF8, 0x0C, 0xFD, 0xFE, 0xFF, 0xFF,
  0xFC, 0xFE, 0x03, 0x00, 0xFF, 0x03, 0x16, 0x08, 0x02, 0x05,
  0x03, 0xFD, 0x00, 0xFE, 0xFD, 0xFE, 0x00, 0x01, 0x0A, 0xF9,
  0x02, 0x04, 0x0A, 0x09, 0xF8, 0x03, 0x00, 0x05, 0x00, 0x00,
  0xFE, 0xFF, 0xFE, 0x01, 0xFB, 0x04, 0xFD, 0xFE, 0xF7, 0xFE,
  0xFF, 0x01, 0xFF, 0xFE, 0xFA, 0x01, 0xFF, 0xFE, 0xFD, 0xFF,
  0x05, 0xF9, 0x02, 0x0A, 0x06, 0x0E, 0xF7, 0x02, 0xFD, 0xF8,
  0x05, 0xFC, 0xFE, 0xFD, 0xFB, 0xF4, 0x02, 0xFC, 0xFF, 0x03,
  0x0A, 0xFE, 0xFD, 0xFC, 0x06, 0xFC, 0xFA, 0x06, 0xFF, 0x00,
  0xFE, 0x03, 0x0F, 0xFF, 0x05, 0x05, 0x0C, 0x0B, 0xF9, 0xFE,
  0xFF, 0x09, 0x03, 0xFE, 0x03, 0xFA, 0xFA, 0x13, 0x02, 0xFD,
  0xFF, 0x00, 0x09, 0x03, 0x06, 0x04, 0x0A, 0x04, 0xFE, 0xFF,
  0xFB, 0xFD, 0xF6, 0x03, 0x04, 0xFE, 0x00, 0x06, 0x06, 0x12,
  0xF4, 0xFC, 0xFD, 0xFB, 0x0A, 0xFF, 0x00, 0x02, 0xFC, 0x10,
  0xFF, 0xF8, 0x00, 0x08, 0xFF, 0x00, 0x01, 0x0A, 0x03, 0xFE,
  0x00, 0x06, 0xFE, 0xF8, 0x02, 0x06, 0x04, 0xFF, 0x05, 0x08,
  0x10, 0x0C, 0xF8, 0x00, 0x07, 0x0D, 0x01, 0x07, 0xFD, 0x05,
  0x02, 0xFC, 0x08, 0xFB, 0x02, 0x04, 0x00, 0x00, 0x09, 0xF5,
  0x05, 0xF7, 0xFD, 0x09, 0x09, 0x03, 0x07, 0xFD, 0x03, 0x00,
  0x04, 0x00, 0x08, 0xFD, 0x0E, 0x00, 0x09, 0x01, 0x04, 0xFD,
  0xF8, 0x03, 0x01, 0xFC, 0x05, 0xF9, 0xFF, 0x04, 0x05, 0x08,
  0x00, 0xF1, 0x00, 0x05, 0x03, 0xFB, 0x06, 0x04, 0x0F, 0xFE,
  0x11, 0x00, 0x04, 0xFA, 0xFD, 0xFB, 0x01, 0x01, 0xFC, 0x06,
  0x08, 0xFD, 0x03, 0xF9, 0x00, 0x01, 0x03, 0xF4, 0xFD, 0x06,
  0x0C, 0x02, 0x06, 0x0B, 0xFF, 0xF8, 0x00, 0x05, 0xFA, 0xFE,
  0x06, 0x04, 0x0F, 0xF8, 0x04, 0x03, 0x05, 0x08, 0xFB, 0x00,
  0x00, 0x06, 0x08, 0xFD, 0x00, 0xFF, 0xFD, 0x06, 0xFE, 0xFE,
  0xFE, 0x04, 0x07, 0xF9, 0x01, 0x07, 0x02, 0xF3, 0x00, 0x00,
  0xF8, 0xFD, 0xFB, 0xFF, 0x0A, 0xF9, 0x02, 0x08, 0x08, 0x10,
  0xF6, 0xFF, 0xF8, 0xFE, 0x06, 0xFC, 0x03, 0x03, 0xFA, 0xF1,
  0x00, 0x04, 0xFA, 0x00, 0x09, 0xF9, 0xFE, 0x02, 0x08, 0xFE,
  0xFC, 0x04, 0xFD, 0xFC, 0xFA, 0x03, 0x09, 0xFA, 0xFF, 0x04,
  0x08, 0x10, 0xF5, 0xFA, 0xFE, 0x0A, 0x01, 0xFF, 0xFD, 0x04,
  0xF9, 0x0C, 0x00, 0x02, 0xFB, 0x04, 0x08, 0xFF, 0xFF, 0x07,
  0x01, 0x09, 0x00, 0xFA, 0xFA, 0xF9, 0xF9, 0xFF, 0x0A, 0x02,
  0xFE, 0x05, 0x06, 0x10, 0xF0, 0xFF, 0x02, 0xF6, 0x03, 0xFE,
  0x00, 0x05, 0xFA, 0x1A, 0x04, 0xFD, 0x03, 0x04, 0x03, 0x04,
  0x00, 0x00, 0x07, 0x06, 0x00, 0x02, 0xF7, 0x00, 0xFA, 0x03,
  0x04, 0x01, 0x03, 0x00, 0x03, 0x08, 0xFA, 0xFF, 0xF8, 0x00,
  0x00, 0xF3, 0xF9, 0x04, 0x07, 0xFC, 0x04, 0xFE, 0x00, 0xF2,
  0x10, 0xFE, 0xF3, 0xFF, 0xFF, 0x02, 0xFD, 0x00, 0xFE, 0x01,
  0xFD, 0xFB, 0x03, 0xFF, 0x11, 0xFD, 0x05, 0xFE, 0x02, 0x01,
  0xFF, 0x04, 0x07, 0xF5, 0x02, 0xFE, 0x03, 0x01, 0xFE, 0xFF,
  0x01, 0xF2, 0x05, 0x00, 0x3F, 0x02, 0xF1, 0x02, 0xFD, 0xFE,
  0x09, 0x00, 0x03, 0x0A, 0x00, 0x01, 0x4C, 0x01, 0x01, 0x02,
  0xFF, 0x04, 0x02, 0x05, 0x04, 0x01, 0x04, 0x02, 0xFE, 0xFD,
  0x02, 0x00, 0x01, 0x02, 0x04, 0xFE, 0x47, 0xFF, 0xFA, 0xFD,
  0xF9, 0x02, 0xF9, 0xFA, 0x02, 0x07, 0x05, 0xFF, 0x54, 0xFB,
  0x02, 0x02, 0xFF, 0xFD, 0xFA, 0x02, 0xEE, 0x01, 0xF6, 0xFB,
  0xFF, 0xFA, 0x00, 0xFF, 0xFD, 0x01, 0x03, 0x02, 0x48, 0xFF,
  0xF9, 0x03, 0x01, 0x01, 0xF7, 0xF2, 0x00, 0xEE, 0xFA, 0xFD,
  0x49, 0xFC, 0x01, 0x00, 0xFF, 0xFF, 0xED, 0xFC, 0x06, 0xF7,
  0x09, 0x01, 0x01, 0x00, 0xFD, 0xFE, 0x00, 0xFF, 0x08, 0x05,
  0x53, 0x00, 0xF6, 0x03, 0x00, 0xFE, 0x09, 0x0B, 0xFF, 0x00,
  0xFD, 0xFA, 0x5D, 0xFC, 0x01, 0x03, 0x00, 0x00, 0xE4, 0x04,
  0x05, 0xED, 0xFA, 0xFC, 0x00, 0xFA, 0x04, 0xFE, 0x06, 0xF3,
  0x03, 0xFF, 0x45, 0xFF, 0xE4, 0x02, 0x00, 0xFE, 0x09, 0x01,
  0xFF, 0x09, 0x01, 0xF8, 0x4A, 0xFB, 0x02, 0x00, 0x02, 0xFD,
  0xF3, 0xFE, 0xFA, 0xF0, 0x03, 0x05, 0x03, 0xF9, 0x02, 0xFF,
  0x00, 0xF6, 0x08, 0x03, 0xFE, 0xF6, 0xF1, 0x01, 0xFA, 0x01,
  0xFD, 0x02, 0xFE, 0xFC, 0xFC, 0xFE, 0x06, 0xF9, 0xF9, 0x02,
  0xFE, 0xFF, 0xF0, 0x01, 0xFE, 0xF1, 0xFB, 0xFD, 0xFE, 0xFB,
  0x01, 0x00, 0xFF, 0xF0, 0x0C, 0x01, 0xFA, 0xFC, 0xFD, 0x04,
  0x00, 0xFF, 0xFE, 0xFB, 0x02, 0xFC, 0x04, 0xFC, 0x0B, 0xF7,
  0xFE, 0xFE, 0x00, 0xFD, 0xF1, 0x02, 0x08, 0xE8, 0xF9, 0xFD,
  0x00, 0x06, 0xFF, 0xFF, 0x02, 0xEC, 0x03, 0x02, 0x51, 0x02,
  0xEE, 0xFF, 0xF9, 0xFE, 0x08, 0x04, 0xFF, 0x0B, 0xFB, 0x00,
  0x5B, 0x00, 0xFC, 0x02, 0xFF, 0x01, 0xF9, 0x07, 0x00, 0xF7,
  0x08, 0x01, 0xFD, 0xFF, 0x05, 0xFD, 0x00, 0xF7, 0xFE, 0x01,
  0x4F, 0xFE, 0xF6, 0xFC, 0xF9, 0xFE, 0x01, 0xFC, 0x02, 0x0A,
  0x0A, 0x00, 0x58, 0xFD, 0x03, 0x00, 0xFE, 0xFF, 0x04, 0xFF,
  0xEF, 0x05, 0xF5, 0xFD, 0xFE, 0x03, 0xFD, 0xFF, 0xFA, 0x00,
  0x00, 0x02, 0x43, 0xFF, 0xF5, 0x02, 0x01, 0x02, 0xEF, 0xF2,
  0xFE, 0xF0, 0xFC, 0xFE, 0x42, 0x04, 0xFF, 0x01, 0x00, 0x00,
  0x01, 0x02, 0x01, 0x07, 0x01, 0x00, 0xFE, 0xFD, 0xFD, 0xFD,
  0xFE, 0x0A, 0x01, 0x02, 0x3B, 0x00, 0x03, 0x02, 0x02, 0xFE,
  0x07, 0x05, 0xFD, 0xFC, 0xFC, 0xFC, 0x36, 0xFA, 0xFD, 0x02,
  0xFE, 0xFF, 0xF7, 0x01, 0x01, 0x02, 0x05, 0xF6, 0xFD, 0xFE,
  0x02, 0xFF, 0x03, 0x02, 0x01, 0x00, 0x23, 0xFC, 0xF9, 0xFF,
  0x01, 0xFE, 0xFF, 0xFC, 0xFE, 0xFF, 0x05, 0xF8, 0x25, 0xFD,
  0x0A, 0x00, 0x01, 0xFF, 0xF4, 0x00, 0xFC, 0xF9, 0xF7, 0x03,
  0x02, 0x02, 0xFF, 0xFB, 0x01, 0xFE, 0x03, 0xFE, 0xF0, 0x00,
  0xFA, 0xFD, 0xFD, 0xFE, 0x02, 0x03, 0xFD, 0xFF, 0xF9, 0xFE,
  0x00, 0x00, 0x02, 0xFD, 0xFD, 0xFB, 0xF6, 0xFE, 0xFE, 0xF1,
  0xFC, 0x00, 0xFD, 0x01, 0x03, 0xFB, 0x01, 0x02, 0x04, 0x00,
  0xF5, 0xFF, 0x07, 0xFE, 0xFA, 0xFE, 0xFE, 0x05, 0x01, 0xF8,
  0xFC, 0xFC, 0xF6, 0x00, 0xFF, 0xFF, 0x00, 0xF7, 0xFF, 0x06,
  0x02, 0xFD, 0x05, 0xFF, 0xFF, 0xFF, 0xFE, 0xFF, 0x02, 0xFB,
  0x08, 0xFE, 0x26, 0xFE, 0xFE, 0xFF, 0xFB, 0xFD, 0x02, 0xFD,
  0x01, 0x06, 0x04, 0x00, 0x32, 0x00, 0x07, 0xFF, 0x02, 0xFD,
  0x07, 0xFC, 0x00, 0xFE, 0x06, 0x00, 0x01, 0xFF, 0x01, 0x02,
  0xFA, 0x04, 0x00, 0x01, 0x39, 0xFF, 0x05, 0xF9, 0xFB, 0xFF,
  0x09, 0x04, 0x01, 0x04, 0xFF, 0x00, 0x44, 0x00, 0xFC, 0x01,
  0xFE, 0x02, 0x0A, 0x00, 0xF2, 0x01, 0xF8, 0x02, 0xFE, 0xFE,
  0xFA, 0xFD, 0xFF, 0x03, 0x07, 0xFE, 0x40, 0xFF, 0xF8, 0x00,
  0x02, 0x01, 0xEE, 0xF2, 0x00, 0xF2, 0xFE, 0xF9, 0x45, 0x00,
  0x01, 0x03, 0xFD, 0xFC, 0xF6, 0x02, 0x04, 0xFE, 0x05, 0xFD,
  0x01, 0xFB, 0x01, 0xFC, 0x04, 0xFF, 0xFF, 0x00, 0x51, 0xFC,
  0xF3, 0x05, 0xFD, 0xFF, 0x04, 0xFF, 0xFE, 0xFB, 0x03, 0xFD,
  0x59, 0xFC, 0xFF, 0x00, 0xFE, 0xFC, 0xE9, 0xFF, 0x06, 0xF1,
  0xFE, 0xFD, 0xFE, 0x02, 0x02, 0xFF, 0x00, 0xEF, 0x08, 0x02,
  0x48, 0x01, 0xE5, 0x00, 0x01, 0xFF, 0x09, 0x04, 0xFF, 0x0D,
  0xFA, 0xF8, 0x4F, 0xFF, 0x08, 0x00, 0x00, 0xFA, 0xEB, 0x04,
  0x00, 0xF4, 0x01, 0x03, 0xFF, 0xFE, 0xFF, 0xFD, 0x01, 0xF4,
  0xFE, 0xFE, 0x05, 0xF4, 0xEC, 0x03, 0xFC, 0xFF, 0xFE, 0xFF,
  0x01, 0xFF, 0xFD, 0xFA, 0x18, 0xFA, 0x03, 0xFF, 0x00, 0xFE,
  0xF6, 0xFC, 0xF8, 0xE8, 0x05, 0x00, 0xFE, 0xFA, 0x01, 0x00,
  0x05, 0xFE, 0x04, 0x00, 0x00, 0xFA, 0xF8, 0x00, 0xFE, 0xFE,
  0x00, 0x05, 0x04, 0xFA, 0x01, 0xFD, 0xFB, 0xFD, 0xFB, 0x00,
  0x00, 0xFF, 0xF0, 0xFF, 0x06, 0xE6, 0xF6, 0xFF, 0x02, 0x00,
  0x00, 0x00, 0x01, 0xE8, 0x09, 0x02, 0x42, 0xFF, 0xEB, 0x01,
  0xF9, 0x00, 0x07, 0x04, 0xFF, 0x07, 0xFD, 0xFF, 0x58, 0xFB,
  0xFE, 0x00, 0x01, 0x01, 0xFB, 0x00, 0x05, 0xF3, 0x08, 0xFC,
  0xFE, 0x03, 0xFD, 0xFD, 0xFB, 0xF7, 0x02, 0x01, 0x55, 0x03,
  0xF6, 0xFB, 0xFC, 0x00, 0x0D, 0x08, 0x02, 0x11, 0x06, 0x02,
  0x60, 0x02, 0x00, 0x01, 0x00, 0xFD, 0x08, 0x00, 0xF1, 0x06,
  0xFE, 0x06, 0x00, 0xFB, 0xFF, 0x00, 0xFF, 0xFF, 0xFE, 0xFD,
  0x48, 0xFD, 0xED, 0x00, 0x01, 0xFE, 0xEE, 0xF1, 0x00, 0xED,
  0xFD, 0xFE, 0x4F, 0x00, 0xFF, 0x03, 0x00, 0xFF, 0x0E, 0xFE,
  0x0A, 0x14, 0xF8, 0xFA, 0x01, 0xFF, 0x04, 0xFE, 0x02, 0xF7,
  0x02, 0x03, 0x41, 0x02, 0xF0, 0x05, 0xFB, 0x00, 0xF1, 0xEE,
  0xFF, 0x05, 0x06, 0xFD, 0x3F, 0xF9, 0x05, 0xFF, 0xFF, 0xFA,
  0x00, 0x02, 0x03, 0x06, 0x04, 0x00, 0xFD, 0x03, 0x02, 0x01,
  0x01, 0xF1, 0x04, 0x05, 0x39, 0x00, 0xF4, 0x03, 0x0C, 0x00,
  0xFA, 0xF7, 0x01, 0x0A, 0x0B, 0xFA, 0x27, 0xFD, 0x06, 0x01,
  0xFF, 0x05, 0xFE, 0x07, 0xFD, 0x01, 0x01, 0x01, 0xFF, 0x00,
  0x01, 0x01, 0x03, 0x05, 0x08, 0x01, 0xFB, 0x00, 0x00, 0x00,
  0x00, 0xFD, 0xFF, 0xF7, 0x04, 0xF9, 0xEF, 0xFE, 0x00, 0x05,
  0x08, 0x02, 0x04, 0xFD, 0x0E, 0x00, 0xFA, 0x18, 0x06, 0x07,
  0x03, 0xFC, 0xFD, 0xFC, 0xFD, 0x00, 0x03, 0x00, 0xF6, 0x01,
  0x04, 0xFD, 0xFD, 0xFF, 0xFC, 0xF3, 0xFF, 0xFC, 0x13, 0xFD,
  0xFC, 0xFD, 0x11, 0xFF, 0xFA, 0x03, 0x14, 0x03, 0x04, 0x14,
  0xFE, 0x01, 0xFC, 0xFD, 0xFD, 0x02, 0xFD, 0xFD, 0x0B, 0x02,
  0xFA, 0x04, 0x01, 0x00, 0x00, 0x02, 0xFE, 0xFB, 0xFD, 0x02,
  0x1B, 0xF6, 0x03, 0x01, 0x04, 0x04, 0xF5, 0x05, 0x06, 0x0C,
  0x00, 0x18, 0x06, 0x02, 0xFF, 0x07, 0xFD, 0x03, 0xFD, 0x01,
  0x0A, 0x03, 0xFC, 0xFF, 0xF8, 0xFF, 0x04, 0xFB, 0xFE, 0x04,
  0xFE, 0x02, 0x0A, 0xFB, 0xFD, 0x00, 0x0A, 0xFC, 0xFC, 0x03,
  0x1A, 0x07, 0x05, 0x14, 0x01, 0xFB, 0x02, 0xFD, 0x02, 0x02,
  0x01, 0xFC, 0x07, 0x07, 0x00, 0x03, 0x00, 0x0A, 0xFE, 0xFF,
  0xFC, 0xF9, 0x00, 0x01, 0x0C, 0x04, 0xFE, 0x03, 0x1D, 0xFE,
  0xF3, 0x01, 0x10, 0x01, 0xFA, 0x1B, 0xFF, 0x04, 0x02, 0x02,
  0xFC, 0xF9, 0x02, 0xFE, 0x04, 0x01, 0xF7, 0x00, 0x03, 0x04,
  0xF5, 0x01, 0xF2, 0xEB, 0x00, 0xF5, 0x11, 0x00, 0xF9, 0x02,
  0x0D, 0x02, 0xF6, 0x05, 0x03, 0xFC, 0x03, 0xF4, 0x05, 0x03,
  0xFD, 0x09, 0x06, 0xFB, 0xFC, 0xFF, 0x09, 0x02, 0x04, 0x01,
  0x03, 0x01, 0xFF, 0xFF, 0xFE, 0x02, 0x00, 0x04, 0x0D, 0xFD,
  0xFE, 0xFE, 0xE5, 0x0E, 0x04, 0xFC, 0x02, 0x00, 0xFC, 0x03,
  0xF7, 0xF5, 0x02, 0x05, 0x05, 0xFF, 0x01, 0x02, 0x07, 0x05,
  0x02, 0xFE, 0xFF, 0x03, 0x06, 0xFE, 0xF4, 0x00, 0x01, 0x02,
  0xF7, 0x02, 0xF8, 0x03, 0xFF, 0x05, 0x0C, 0xFF, 0x18, 0x00,
  0xF9, 0x1D, 0x00, 0xFE, 0x02, 0xFE, 0x02, 0x01, 0x00, 0x0C,
  0x04, 0xFF, 0xF4, 0xFD, 0xFE, 0x05, 0x02, 0xFF, 0xF5, 0xF1,
  0x04, 0xF7, 0x0D, 0x00, 0xFE, 0x03, 0x1F, 0x02, 0xF6, 0x07,
  0x0F, 0x08, 0x03, 0x19, 0xFF, 0x04, 0xFF, 0xFD, 0xFC, 0xFF,
  0xFC, 0xFB, 0x07, 0xFF, 0xFC, 0x04, 0x03, 0xF7, 0xF7, 0x02,
  0x00, 0xFB, 0xFE, 0x00, 0x0F, 0xFB, 0x01, 0x04, 0x10, 0xFE,
  0xF6, 0x04, 0x0B, 0x04, 0x01, 0x0E, 0x09, 0x02, 0x03, 0x08,
  0x01, 0x08, 0x01, 0xF5, 0x07, 0x02, 0xFE, 0xFC, 0xFE, 0xFD,
  0x01, 0xFE, 0xFA, 0x01, 0xFE, 0x00, 0x14, 0xFE, 0xFA, 0xFF,
  0xFB, 0x02, 0xFA, 0xFF, 0x0E, 0xFC, 0x03, 0x0F, 0x05, 0x04,
  0xFD, 0x00, 0xFD, 0x04, 0xFB, 0xFA, 0x03, 0x02, 0x00, 0x03,
  0xF9, 0x08, 0x07, 0xFF, 0x04, 0x01, 0xFF, 0x02, 0x12, 0x07,
  0xFA, 0x04, 0x0B, 0xFB, 0xF6, 0x02, 0x0F, 0x01, 0xFD, 0x0B,
  0x06, 0xFE, 0x01, 0x03, 0xFF, 0x01, 0xFD, 0x01, 0xFF, 0x04,
  0x00, 0x00, 0x06, 0xFD, 0x03, 0x06, 0x03, 0xFF, 0x04, 0xF7,
  0x03, 0xFF, 0xFD, 0x01, 0x11, 0x00, 0x00, 0x01, 0xFC, 0xFF,
  0xFB, 0xF9, 0xFC, 0xF9, 0x06, 0xFE, 0x02, 0x03, 0x06, 0x03,
  0x05, 0x06, 0xFE, 0x09, 0xFE, 0x02, 0x06, 0x00, 0x04, 0xF0,
  0x05, 0xFD, 0xFA, 0xFB, 0xFD, 0x08, 0xF7, 0x04, 0xFD, 0xFA,
  0x00, 0x02, 0xFF, 0xFA, 0xFF, 0xFB, 0x04, 0xFD, 0xFF, 0xFF,
  0x03, 0xFC, 0x0A, 0x07, 0x04, 0x00, 0x04, 0x04, 0x04, 0x05,
  0xF3, 0x00, 0x06, 0x06, 0xFB, 0x02, 0x08, 0x03, 0xEF, 0x03,
  0x06, 0xFD, 0x0E, 0x03, 0xFD, 0x0A, 0x01, 0x00, 0x01, 0xFF,
  0x00, 0xFE, 0xFE, 0x03, 0x0C, 0x02, 0x03, 0x01, 0x06, 0x05,
  0x02, 0xF9, 0xFE, 0x06, 0x01, 0xFF, 0x06, 0xFF, 0xFE, 0xFE,
  0x09, 0xFE, 0xFA, 0x05, 0x06, 0x07, 0x00, 0x18, 0x02, 0x03,
  0xFB, 0xFE, 0xFF, 0xFD, 0x02, 0xFC, 0x04, 0xFC, 0x01, 0x00,
  0xFE, 0xFB, 0xF3, 0xFD, 0x05, 0x04, 0xFA, 0x00, 0x0D, 0xFD,
  0x06, 0xFE, 0x13, 0x02, 0xF5, 0x03, 0x12, 0x04, 0xFD, 0x0A,
  0x05, 0x00, 0x03, 0x03, 0xFD, 0x07, 0xFE, 0xFB, 0x06, 0x01,
  0xFA, 0xFC, 0xFC, 0xFD, 0x06, 0x00, 0x00, 0xFF, 0x00, 0x03,
  0x10, 0xFD, 0x03, 0xFD, 0x02, 0x00, 0xF8, 0x06, 0x13, 0xFA,
  0x01, 0x1A, 0x07, 0x00, 0x00, 0x02, 0xFC, 0x05, 0xF8, 0xF5,
  0x05, 0x07, 0x01, 0x08, 0xFC, 0x0B, 0x09, 0x02, 0xF8, 0x03,
  0x00, 0x03, 0x12, 0x03, 0xFA, 0x03, 0x07, 0x01, 0xF5, 0x01,
  0x1F, 0x04, 0xF7, 0x16, 0x0C, 0xF8, 0x02, 0x00, 0x00, 0x02,
  0xFD, 0x08, 0x04, 0x04, 0xFC, 0x01, 0x05, 0xFF, 0x02, 0x02,
  0xF4, 0xED, 0x00, 0xF6, 0x07, 0xFD, 0xFE, 0xFE, 0x1A, 0xFE,
  0xFA, 0x03, 0xFF, 0xFE, 0x00, 0x07, 0xFC, 0x02, 0x05, 0x0A,
  0x05, 0xF8, 0xFE, 0x01, 0x05, 0x00, 0xFD, 0xFE, 0xFA, 0x01,
  0xF9, 0x03, 0x01, 0xED, 0xF7, 0xFF, 0xF6, 0xFB, 0xFB, 0x03,
  0x06, 0x05, 0x03, 0xFA, 0x01, 0x01, 0x00, 0xFD, 0x00, 0x01,
  0x00, 0x05, 0xFF, 0xFB, 0x01, 0xF7, 0xFF, 0x01, 0x00, 0x01,
  0x0A, 0x08, 0xFB, 0x02, 0x02, 0x01, 0xFF, 0x02, 0x0F, 0xFE,
  0x02, 0x06, 0xE3, 0x07, 0x02, 0x02, 0x18, 0x07, 0xFA, 0x1A,
  0x03, 0x01, 0xFE, 0x04, 0xFB, 0x05, 0x00, 0xFE, 0x05, 0x05,
  0xF4, 0x02, 0x03, 0x02, 0x07, 0xFB, 0xF2, 0xF3, 0x03, 0xFF,
  0x19, 0xFA, 0xFD, 0x02, 0x0F, 0x01, 0xFA, 0x03, 0x12, 0x00,
  0x03, 0x16, 0xFC, 0x02, 0x01, 0x03, 0x01, 0xFC, 0x01, 0xF8,
  0x04, 0xFE, 0xFF, 0xFA, 0x01, 0x00, 0xFE, 0x03, 0xF4, 0xFE,
  0xFA, 0xFD, 0x15, 0x01, 0x01, 0xFB, 0x15, 0xFC, 0xF8, 0x08,
  0x11, 0x04, 0x00, 0x14, 0x05, 0x04, 0xFF, 0x00, 0xFE, 0x08,
  0x03, 0xFD, 0x04, 0x02, 0xF9, 0xFF, 0xF7, 0x00, 0x00, 0xFD,
  0x00, 0xFB, 0xFF, 0xFD, 0x06, 0xFA, 0x02, 0x00, 0x0E, 0x01,
  0xFA, 0x03, 0x0F, 0xFE, 0x01, 0x0A, 0x02, 0x0A, 0xFE, 0x02,
  0xF8, 0x00, 0xFD, 0xFF, 0x07, 0x00, 0xFC, 0x02, 0xFD, 0x08,
  0x05, 0x01, 0x02, 0x03, 0xFF, 0x01, 0x0F, 0x04, 0xFF, 0x03,
  0x06, 0xFE, 0xF5, 0x03, 0x16, 0x00, 0xFE, 0x0B, 0x05, 0x01,
  0x02, 0x01, 0xFD, 0x01, 0x00, 0xFF, 0x03, 0x02, 0xF7, 0x00,
  0xFF, 0x05, 0xFA, 0x08, 0xFE, 0xFD, 0x03, 0xFF, 0x11, 0xFD,
  0xFC, 0x00, 0xF7, 0x02, 0xFD, 0x04, 0xFE, 0xFB, 0xFC, 0xFA,
  0xFA, 0xFF, 0x02, 0xFD, 0xFD, 0xFF, 0xFD, 0xF9, 0xFE, 0xFD,
  0x01, 0x02, 0xFB, 0x00, 0x00, 0x04, 0x05, 0xFD, 0xFE, 0xFB,
  0xF9, 0x02, 0xFD, 0xFC, 0xFA, 0xFF, 0xFE, 0xFC, 0x02, 0x02,
  0xFD, 0xFC, 0xFC, 0x01, 0x03, 0xFD, 0x00, 0x00, 0xFA, 0xFE,
  0xFD, 0x01, 0x02, 0x00, 0xFA, 0x01, 0xFF, 0x04, 0x01, 0xFE,
  0x02, 0xFF, 0xFC, 0xFD, 0x00, 0xFE, 0xFF, 0xFF, 0xFE, 0x00,
  0x03, 0xFB, 0xFC, 0xFC, 0xFD, 0x02, 0xFE, 0xFF, 0x01, 0xFC,
  0xFD, 0xF8, 0xFF, 0xFA, 0x00, 0xFF, 0x01, 0x03, 0x02, 0x01,
  0x02, 0xFC, 0xFE, 0xFE, 0xFF, 0xFB, 0x03, 0xFB, 0xFE, 0x01,
  0xFF, 0xFC, 0x02, 0xF9, 0x04, 0x00, 0xFD, 0xFD, 0x01, 0x02,
  0x03, 0x00, 0xFC, 0x02, 0x01, 0x01, 0xFD, 0xFA, 0x02, 0xFB,
  0x04, 0x00, 0x04, 0xFE, 0xFE, 0xFD, 0xFE, 0xFC, 0xFB, 0x01,
  0x01, 0xFA, 0xFA, 0xFB, 0x00, 0xFA, 0xF9, 0xFB, 0x04, 0xFD,
  0x01, 0x00, 0xFF, 0xFE, 0x05, 0x03, 0x01, 0xFC, 0x03, 0x03,
  0xFE, 0x01, 0xFB, 0xFF, 0xFE, 0xFC, 0xFA, 0xFF, 0xFB, 0x01,
  0xFC, 0x01, 0x02, 0xFC, 0x02, 0xFA, 0xF9, 0x01, 0x02, 0xFA,
  0x00, 0x00, 0x00, 0xFC, 0xFE, 0xFC, 0xFA, 0xFB, 0x00, 0x02,
  0xFC, 0x03, 0xFA, 0x02, 0xFE, 0x00, 0x01, 0x05, 0xFC, 0x03,
  0x01, 0xFF, 0xFB, 0xFF, 0x00, 0x02, 0xFD, 0xFF, 0x04, 0xFF,
  0x01, 0xFF, 0x02, 0x04, 0x00, 0x04, 0xFF, 0x03, 0xFB, 0x00,
  0xFB, 0x00, 0x04, 0x00, 0x00, 0xFF, 0x04, 0x04, 0xFC, 0x02,
  0x03, 0xFD, 0xFA, 0x00, 0x01, 0xFC, 0x02, 0x02, 0x02, 0xFC,
  0xFE, 0x05, 0xFD, 0xFE, 0xFB, 0xFE, 0xFD, 0x04, 0xFD, 0x03,
  0xFE, 0x00, 0xFC, 0x01, 0x01, 0x01, 0xFD, 0xFC, 0xFE, 0x03,
  0x03, 0x04, 0xFE, 0xFD, 0x01, 0xF9, 0x01, 0x00, 0x01, 0xFD,
  0xFA, 0x01, 0x03, 0x00, 0xFE, 0x02, 0xFD, 0xFB, 0xFB, 0xFE,
  0x04, 0xFE, 0x01, 0x02, 0x03, 0xFB, 0xFA, 0x01, 0xFE, 0x02,
  0xFB, 0x02, 0xFA, 0xFD, 0x04, 0x00, 0x02, 0x04, 0x03, 0xFE,
  0x02, 0x01, 0x00, 0xFF, 0x02, 0xFD, 0xFC, 0x03, 0xFA, 0xFE,
  0x02, 0xFB, 0x00, 0x00, 0xFE, 0x00, 0x03, 0xFB, 0xFF, 0x02,
  0x00, 0x02, 0xFB, 0x03, 0xFB, 0xFF, 0x02, 0x01, 0xFD, 0xFE,
  0xFC, 0x00, 0x01, 0x02, 0xF9, 0x01, 0x01, 0xFA, 0xFC, 0xFB,
  0xFC, 0xFB, 0xFC, 0x01, 0x04, 0xFB, 0x03, 0xFA, 0x02, 0xFD,
  0x04, 0xFD, 0xFE, 0x02, 0x01, 0x04, 0xFB, 0xFB, 0xFD, 0x01,
  0xFD, 0xFB, 0x04, 0xFE, 0xFE, 0xFB, 0x02, 0x02, 0xFF, 0x03,
  0xFD, 0x01, 0x00, 0xFD, 0xFF, 0x00, 0xFA, 0xFF, 0x01, 0x03,
  0xFB, 0xFA, 0xFB, 0xFD, 0xFE, 0xFD, 0xFC, 0x03, 0xFA, 0x04,
  0x03, 0xFE, 0xFC, 0xFA, 0xFE, 0xF9, 0x04, 0xFE, 0xFC, 0x02,
  0xFB, 0xFE, 0x04, 0xFB, 0xFB, 0x01, 0x00, 0x04, 0x00, 0xF8,
  0x02, 0xFC, 0xFA, 0x00, 0xFC, 0x01, 0x00, 0xF9, 0x00, 0x01,
  0x03, 0xFD, 0x00, 0x03, 0xFA, 0x03, 0x01, 0x00, 0x04, 0xFE,
  0xFD, 0x01, 0xFB, 0x02, 0x00, 0xFD, 0xFE, 0x02, 0x03, 0xFB,
  0xF9, 0x03, 0x03, 0x03, 0xFB, 0xF8, 0xFD, 0x02, 0x03, 0xFC,
  0x01, 0xFE, 0x03, 0x00, 0x00, 0xFB, 0x01, 0x01, 0xFD, 0xFC,
  0xFD, 0x01, 0x02, 0xFC, 0x03, 0xFC, 0xFF, 0xFF, 0xFF, 0x01,
  0xFA, 0xFA, 0x02, 0x03, 0xFD, 0x00, 0xFC, 0xFC, 0x04, 0x01,
  0xFC, 0xFF, 0xFD, 0xFD, 0x01, 0xFD, 0x00, 0xFB, 0xFE, 0xFE,
  0x02, 0xFF, 0xFB, 0xF9, 0x01, 0xFE, 0xFC, 0x00, 0xFD, 0x02,
  0xFF, 0xFF, 0xFB, 0x00, 0xFF, 0xFB, 0x01, 0x00, 0xFD, 0xFC,
  0x01, 0xFB, 0xFB, 0x04, 0xFD, 0x04, 0xFB, 0x02, 0x02, 0x00,
  0x00, 0xFD, 0xFB, 0xFE, 0xFE, 0x01, 0xF9, 0xFC, 0xFF, 0xFB,
  0x02, 0xFE, 0x00, 0x00, 0xFF, 0xFF, 0x02, 0x00, 0xF9, 0x01,
  0xFA, 0x00, 0xFE, 0x01, 0x02, 0x03, 0xFC, 0x02, 0x02, 0x02,
  0xFF, 0x03, 0x01, 0x03, 0xFA, 0xFA, 0x01, 0xFB, 0xFD, 0xF9,
  0xFC, 0xFD, 0xFE, 0x02, 0xFB, 0xFF, 0xFA, 0xFB, 0x04, 0xFA,
  0x00, 0x03, 0x03, 0x00, 0x04, 0xFE, 0x02, 0x03, 0x00, 0x00,
  0xFE, 0x03, 0x02, 0x03, 0xFC, 0xFD, 0xFF, 0xFE, 0xFE, 0x02,
  0xFD, 0x03, 0x01, 0x01, 0xFA, 0xFC, 0xF9, 0xF9, 0x00, 0x01,
  0x03, 0x02, 0x02, 0xFD, 0xFB, 0x01, 0x02, 0xFD, 0xFE, 0x02,
  0xFF, 0x00, 0xFC, 0xFB, 0x02, 0xFA, 0xFF, 0x02, 0xFD, 0x01,
  0xF9, 0xFD, 0x02, 0xFF, 0xFC, 0x00, 0x00, 0x01, 0x03, 0xF8,
  0xFF, 0x04, 0xFB, 0xFD, 0xFD, 0xFE, 0x00, 0x03, 0x04, 0x03,
  0x02, 0x03, 0xFE, 0xFF, 0xF9, 0xFE, 0x02, 0x03, 0x00, 0x04,
  0xFE, 0xFA, 0x01, 0xFF, 0xFE, 0xFC, 0x03, 0x03, 0xFE, 0xFB,
  0xFE, 0xFD, 0x05, 0x01, 0xFD, 0x02, 0x02, 0xFF, 0xFB, 0x01,
  0x02, 0xFF, 0xFB, 0xFF, 0x00, 0x02, 0xFD, 0x03, 0xFD, 0xFC,
  0xFE, 0x05, 0x04, 0xFA, 0xFF, 0x02, 0xFB, 0xFC, 0xFE, 0x00,
  0x01, 0x01, 0xFB, 0xFF, 0x01, 0xFF, 0xFB, 0xFD, 0x02, 0x03,
  0xFC, 0xFB, 0x03, 0xFC, 0xFB, 0x03, 0xFE, 0xFA, 0xFE, 0x03,
  0xFB, 0xFF, 0xFD, 0xFA, 0xFB, 0xFC, 0xFC, 0x04, 0x01, 0xFA,
  0x01, 0xFA, 0x05, 0xFA, 0xFD, 0xFE, 0xFA, 0x03, 0x03, 0xFF,
  0xFB, 0x03, 0xFF, 0xFE, 0xFF, 0x00, 0xFB, 0xFF, 0x02, 0xFB,
  0xFE, 0xFD, 0xFA, 0xFA, 0xFC, 0xFE, 0xFC, 0xFF, 0x03, 0x01,
  0x02, 0xFB, 0x02, 0x03, 0xFA, 0x00, 0xF9, 0xFD, 0xFE, 0xFB,
  0xFD, 0x01, 0xFC, 0xFB, 0x00, 0x04, 0xFC, 0xFC, 0xFF, 0xFC,
  0xFE, 0x01, 0xFE, 0xFC, 0xFE, 0xFA, 0xFA, 0xFB, 0xFF, 0x00,
  0x05, 0x02, 0x00, 0xFE, 0xFF, 0xFD, 0xFE, 0xFE, 0xFB, 0x00,
  0xFB, 0x02, 0x00, 0xFF, 0x01, 0xFC, 0xFD, 0x03, 0xFD, 0xFA,
  0x00, 0xFD, 0xFF, 0xFB, 0x05, 0x02, 0xFF, 0x02, 0xFD, 0x04,
  0x04, 0xFF, 0xFB, 0xFA, 0xFE, 0xFD, 0x00, 0xFF, 0x00, 0xFA,
  0xFC, 0x00, 0x00, 0x01, 0xFE, 0xFE, 0xFF, 0x02, 0xFA, 0xFB,
  0x03, 0xF8, 0x04, 0xFE, 0xFC, 0xFC, 0xFB, 0x01, 0xFE, 0x03,
  0xFB, 0x00, 0xFE, 0xFD, 0xFB, 0x02, 0xFE, 0x04, 0x01, 0x01,
  0xFE, 0xFE, 0xFB, 0x01, 0x00, 0x03, 0x03, 0x03, 0x00, 0x03,
  0xF9, 0x05, 0x00, 0x04, 0xFD, 0xFB, 0xFE, 0x01, 0xFB, 0xFF,
  0xFB, 0xFC, 0xFC, 0xFB, 0x00, 0xFB, 0x03, 0x00, 0xFE, 0xFB,
  0x09, 0xFB, 0x03, 0x06, 0x08, 0x05, 0x06, 0xF5, 0x00, 0xFB,
  0x00, 0x08, 0x0F, 0x01, 0x04, 0xFA, 0x03, 0x02, 0x04, 0x0A,
  0x05, 0x02, 0x06, 0x08, 0x0B, 0x05, 0x09, 0xEC, 0x02, 0x02,
  0x01, 0x01, 0xFE, 0x06, 0x00, 0x02, 0xFD, 0x03, 0x09, 0xE9,
  0x0E, 0x08, 0x11, 0x03, 0xF8, 0xFF, 0x04, 0xCF, 0xFF, 0x0B,
  0x02, 0x00, 0xFF, 0x01, 0x06, 0x00, 0xFD, 0xFE, 0x06, 0xD5,
  0x00, 0xFE, 0x04, 0xFC, 0x05, 0xFD, 0x01, 0xFF, 0x08, 0x00,
  0x06, 0xE9, 0x0E, 0x13, 0x0C, 0x06, 0x01, 0xFE, 0x01, 0xD5,
  0xFF, 0x04, 0x03, 0xFB, 0x08, 0x03, 0xFD, 0x00, 0x00, 0xFE,
  0x01, 0xCD, 0x01, 0x07, 0x06, 0x02, 0x01, 0x07, 0xFC, 0x07,
  0x06, 0xFD, 0x01, 0xF1, 0x0B, 0x13, 0x13, 0x04, 0xEC, 0xFF,
  0x02, 0xDD, 0x01, 0x0C, 0xFF, 0xFB, 0x05, 0x05, 0xFE, 0xFE,
  0xFD, 0x05, 0x02, 0xD9, 0xFF, 0x0B, 0x02, 0x05, 0x02, 0x00,
  0xF9, 0xFF, 0x04, 0x01, 0x03, 0x04, 0x13, 0x10, 0x18, 0x02,
  0xD9, 0x07, 0xFF, 0xC4, 0x02, 0x09, 0x04, 0xFA, 0x04, 0xFE,
  0x00, 0xFC, 0x03, 0x0A, 0x01, 0xCF, 0x00, 0x02, 0x04, 0x06,
  0x02, 0x16, 0xFE, 0xFF, 0xFF, 0x01, 0x02, 0x14, 0x07, 0x0A,
  0x0F, 0x03, 0xCA, 0x05, 0xFD, 0xCE, 0xFE, 0x09, 0x01, 0xFD,
  0x02, 0xFE, 0x0A, 0xFD, 0x02, 0x0D, 0xFC, 0xD4, 0xFD, 0xF7,
  0x06, 0xFF, 0x08, 0x06, 0x0F, 0x0A, 0x06, 0x04, 0x03, 0xEC,
  0x0B, 0x0E, 0x0B, 0x07, 0xE2, 0x07, 0x06, 0xF0, 0x0B, 0x05,
  0x00, 0x0C, 0x08, 0x06, 0x06, 0x0A, 0x02, 0x09, 0x06, 0x00,
  0x06, 0xF5, 0x07, 0x00, 0x01, 0xF3, 0x06, 0x07, 0x05, 0x08,
  0x05, 0xEA, 0x12, 0x0A, 0x0B, 0x08, 0x1A, 0x02, 0x0A, 0xF6,
  0x06, 0x14, 0x06, 0x0C, 0x0C, 0x0C, 0x0A, 0x0D, 0x01, 0x04,
  0x0C, 0xE6, 0x06, 0xF8, 0x07, 0x00, 0xFF, 0x02, 0x00, 0x01,
  0xFE, 0x08, 0x03, 0xED, 0x16, 0x0B, 0x14, 0x03, 0xFB, 0xFB,
  0x02, 0xC0, 0x00, 0x13, 0x07, 0x04, 0x02, 0xFE, 0x03, 0xFF,
  0x02, 0x03, 0x02, 0xBC, 0x03, 0xFB, 0x05, 0x00, 0x01, 0x06,
  0xFC, 0x05, 0x00, 0x00, 0x07, 0xF2, 0x12, 0x0F, 0x0F, 0x03,
  0x0F, 0x01, 0xFE, 0xC7, 0x00, 0x00, 0x06, 0xFD, 0x04, 0x05,
  0x01, 0xFC, 0x01, 0xF9, 0x02, 0xBE, 0xFF, 0x05, 0x08, 0x05,
  0xFE, 0x05, 0xFD, 0x02, 0x05, 0x00, 0x03, 0xEF, 0x05, 0x0F,
  0x0D, 0x05, 0xF6, 0x02, 0x05, 0xE4, 0x02, 0x07, 0x01, 0xFF,
  0x09, 0x06, 0x01, 0x00, 0x02, 0x04, 0x06, 0xDA, 0x03, 0x0C,
  0x02, 0x09, 0x03, 0x05, 0xFD, 0x01, 0x03, 0x06, 0x02, 0xFE,
  0x0A, 0x0A, 0x09, 0x01, 0xF4, 0x0A, 0x00, 0xDC, 0x00, 0x06,
  0x02, 0xFB, 0x06, 0x01, 0xFF, 0xFE, 0x04, 0x07, 0xFC, 0xDE,
  0x04, 0x05, 0x02, 0x08, 0xFE, 0x12, 0x00, 0xFF, 0xFF, 0x07,
  0x00, 0x02, 0x03, 0x01, 0xFF, 0xFF, 0xF1, 0x0A, 0x01, 0xE1,
  0x00, 0x02, 0x04, 0x05, 0x02, 0x02, 0x0D, 0xFF, 0x05, 0x0C,
  0x00, 0xE3, 0x01, 0xFC, 0x05, 0xFF, 0x05, 0xFE, 0x08, 0x07,
  0x0A, 0x09, 0x01, 0x0E, 0xFC, 0xF8, 0xFA, 0x07, 0xF6, 0x07,
  0x05, 0x04, 0x08, 0xFE, 0x05, 0x01, 0x07, 0x04, 0x04, 0x04,
  0x04, 0x03, 0x00, 0x04, 0x06, 0xFD, 0x07, 0x06, 0x08, 0xF6,
  0x05, 0x07, 0x05, 0x0B, 0x09, 0x02, 0xFF, 0xF4, 0xFA, 0x07,
  0x11, 0x06, 0x08, 0x01, 0x05, 0x05, 0x07, 0x08, 0x04, 0x05,
  0x06, 0x0A, 0x0A, 0x07, 0x04, 0xF6, 0x0B, 0x03, 0x05, 0x06,
  0x00, 0xFE, 0xFB, 0x00, 0x07, 0x06, 0x07, 0xFE, 0x07, 0x03,
  0x06, 0x02, 0xFE, 0x04, 0x04, 0xE3, 0x04, 0x0C, 0x04, 0x04,
  0x04, 0x00, 0x07, 0x03, 0x07, 0xFE, 0x01, 0xE9, 0x04, 0xFD,
  0x03, 0x02, 0x01, 0x03, 0x01, 0x05, 0x03, 0x01, 0x09, 0xF5,
  0x0E, 0x08, 0x0D, 0x03, 0x16, 0xFE, 0x02, 0xDE, 0x00, 0x08,
  0x08, 0xFA, 0x02, 0x01, 0x02, 0x02, 0x03, 0xFE, 0x00, 0xE6,
  0x03, 0x07, 0x04, 0x03, 0x02, 0x03, 0x01, 0x06, 0xFF, 0x01,
  0x01, 0xF7, 0x09, 0x11, 0x13, 0x07, 0xF2, 0xFE, 0x00, 0xE5,
  0xFD, 0x08, 0x02, 0xFE, 0x07, 0x07, 0x01, 0x00, 0x04, 0x05,
  0x05, 0xE3, 0x00, 0x08, 0x03, 0x05, 0x01, 0x10, 0xFC, 0x01,
  0x06, 0x03, 0x00, 0xFD, 0x09, 0x11, 0x14, 0x03, 0xE3, 0x05,
  0x03, 0xCA, 0x02, 0x10, 0x01, 0xFC, 0x05, 0x01, 0x02, 0xFF,
  0x02, 0x09, 0xFE, 0xCD, 0x03, 0x06, 0x02, 0x04, 0xFC, 0x19,
  0xFD, 0x01, 0xFA, 0x05, 0xFF, 0xF2, 0x07, 0x0E, 0x0E, 0x00,
  0xD4, 0x09, 0xFE, 0xC7, 0x00, 0x0A, 0x02, 0xFF, 0x03, 0xFE,
  0x0A, 0xF9, 0x04, 0x0B, 0x00, 0xBF, 0xFF, 0xF8, 0x07, 0xFF,
  0x03, 0x09, 0x0B, 0x02, 0x00, 0x02, 0x03, 0xF4, 0x06, 0x0E,
  0x0A, 0x07, 0xDE, 0x06, 0x07, 0xFA, 0x06, 0x01, 0x00, 0x0A,
  0x0A, 0x02, 0x09, 0x07, 0x04, 0x09, 0x03, 0xEE, 0xFD, 0xFA,
  0x08, 0x04, 0x09, 0xFC, 0x0C, 0x0A, 0x04, 0x02, 0x07, 0xE6,
  0x0F, 0x0D, 0x0C, 0x07, 0x11, 0x04, 0x08, 0xF4, 0x08, 0x06,
  0x05, 0x0A, 0x04, 0x07, 0x07, 0x08, 0x00, 0x07, 0x07, 0xE5,
  0x06, 0xFA, 0x09, 0x09, 0x01, 0x01, 0xFD, 0x04, 0x01, 0x00,
  0x06, 0xEA, 0x11, 0x0A, 0x11, 0x01, 0x13, 0xFD, 0x05, 0xDC,
  0x01, 0x11, 0x09, 0x03, 0xFD, 0x00, 0x00, 0x07, 0x00, 0x06,
  0x03, 0xBD, 0x06, 0x00, 0x07, 0xFF, 0x02, 0x01, 0x01, 0x01,
  0x04, 0x01, 0x08, 0xEC, 0x16, 0x0D, 0x11, 0x03, 0x0D, 0x01,
  0x03, 0xC4, 0x01, 0xFE, 0x0A, 0xFE, 0x01, 0x03, 0x01, 0xFD,
  0x01, 0xFA, 0x05, 0xC5, 0x05, 0x03, 0x05, 0x00, 0x06, 0xFE,
  0x02, 0x01, 0x01, 0xFE, 0x03, 0xED, 0x05, 0x18, 0x06, 0x06,
  0xF2, 0xFF, 0x02, 0xDD, 0x01, 0x09, 0x01, 0xFB, 0x06, 0x06,
  0x01, 0x03, 0xFE, 0x04, 0xFC, 0xD5, 0x02, 0x07, 0x06, 0x09,
  0xFE, 0x11, 0x01, 0x03, 0x06, 0x03, 0x00, 0xE1, 0x02, 0x17,
  0x06, 0x01, 0xEB, 0x06, 0x04, 0xDD, 0xFE, 0x10, 0x00, 0xFE,
  0x04, 0x03, 0x06, 0x00, 0x03, 0x0B, 0x01, 0xDC, 0xFE, 0x04,
  0x02, 0x07, 0xFF, 0x1C, 0x01, 0xFE, 0xF9, 0xFE, 0x00, 0xE4,
  0x09, 0x0E, 0x05, 0x03, 0xE6, 0x0A, 0xFF, 0xE7, 0x03, 0x01,
  0x02, 0xFE, 0xFE, 0x00, 0x03, 0xF8, 0x07, 0x0C, 0x01, 0xE5,
  0x04, 0x00, 0x07, 0x04, 0x00, 0xFE, 0xFC, 0xFF, 0x00, 0xFE,
  0x04, 0x04, 0x00, 0xFB, 0xF9, 0x01, 0xFD, 0x02, 0x02, 0x02,
  0x01, 0x04, 0xFC, 0xF9, 0xFE, 0xF6, 0xFD, 0x05, 0x04, 0x00,
  0x02, 0xFF, 0xFB, 0xFC, 0xFB, 0xFD, 0xFB, 0x00, 0xF8, 0x02,
  0xFD, 0xFC, 0x01, 0x04, 0xFB, 0x00, 0xFC, 0x00, 0x02, 0x02,
  0x05, 0xFC, 0x05, 0x03, 0x00, 0xFC, 0x01, 0xFC, 0x03, 0x04,
  0xFD, 0x03, 0x01, 0xF9, 0xFD, 0x03, 0x02, 0xFF, 0x02, 0xFD,
  0x01, 0x04, 0xFD, 0xFF, 0x00, 0x02, 0x05, 0xFE, 0x00, 0xFE,
  0xFC, 0xFC, 0x01, 0x01, 0x01, 0x00, 0x03, 0xFB, 0x03, 0x03,
  0xFF, 0x00, 0x04, 0x02, 0xFE, 0x03, 0x03, 0xF9, 0xF9, 0xFF,
  0x01, 0xFB, 0xFD, 0xFB, 0xFD, 0xFD, 0xFB, 0x02, 0x04, 0xFB,
  0xFF, 0xFE, 0xFC, 0xFE, 0xFE, 0xFA, 0xFB, 0xFA, 0xFF, 0x00,
  0xFD, 0xFC, 0xFA, 0x03, 0x00, 0x00, 0xFA, 0xFB, 0xFD, 0x00,
  0xFD, 0x04, 0xFD, 0xFD, 0x04, 0x02, 0xFB, 0x00, 0x04, 0xFD,
  0x03, 0xFA, 0x01, 0xF9, 0xFF, 0xFC, 0x02, 0xFC, 0x04, 0xFD,
  0x01, 0x01, 0xFC, 0x00, 0x01, 0x02, 0xFA, 0x01, 0xFD, 0xFF,
  0xFB, 0xFC, 0xFD, 0xFA, 0xFA, 0xFA, 0xFF, 0xFC, 0x00, 0x02,
  0x01, 0xFD, 0x01, 0x01, 0x03, 0xF8, 0x04, 0xFE, 0xFC, 0x02,
  0xFF, 0xFA, 0xFB, 0xFC, 0xFC, 0x03, 0x03, 0xFA, 0x05, 0xFA,
  0xFC, 0xFA, 0xFB, 0x01, 0xFD, 0xFB, 0x00, 0xFE, 0x03, 0xFA,
  0xFE, 0xFC, 0x01, 0xFF, 0xF9, 0xFF, 0x04, 0xFF, 0x01, 0xFC,
  0xFE, 0x03, 0xFE, 0x05, 0x00, 0xFF, 0x00, 0x06, 0xFB, 0xFB,
  0xF9, 0xFF, 0x05, 0xFF, 0x01, 0xFA, 0xFF, 0xFC, 0x01, 0xFB,
  0xFA, 0x01, 0x02, 0xFE, 0xFB, 0xFB, 0xFB, 0xFC, 0x00, 0xFC,
  0x00, 0xFC, 0xFB, 0xFA, 0xFD, 0x01, 0x05, 0x00, 0x00, 0x00,
  0x01, 0x01, 0x01, 0xFC, 0x02, 0xFB, 0x04, 0xFD, 0x01, 0x01,
  0x03, 0xFD, 0x01, 0x01, 0xFD, 0x01, 0xFD, 0xF9, 0x02, 0xFE,
  0x02, 0xFD, 0x03, 0xFA, 0x02, 0xFD, 0xFB, 0x02, 0xFF, 0xFD,
  0xFC, 0x04, 0xFB, 0xFB, 0xFA, 0xFC, 0xFF, 0xFB, 0x01, 0x05,
  0xFA, 0x00, 0xFE, 0x02, 0xFC, 0xFF, 0x00, 0xFA, 0xFE, 0x00,
  0x03, 0x01, 0xFD, 0x05, 0x02, 0x00, 0xF9, 0xFE, 0x02, 0x02,
  0x01, 0xFF, 0xFC, 0x05, 0xF9, 0xFD, 0xFA, 0xFF, 0xFB, 0xFC,
  0x01, 0xFA, 0xFC, 0xFB, 0xFF, 0x02, 0xFF, 0xFD, 0x02, 0xFC,
  0x01, 0xFE, 0xFE, 0xFF, 0xFC, 0x00, 0xFC, 0xFF, 0x04, 0xFC,
  0x00, 0xFA, 0xFA, 0xF9, 0x01, 0xFD, 0x01, 0x03, 0x01, 0xFF,
  0x03, 0xFC, 0x04, 0xFE, 0x02, 0xFC, 0xFD, 0xFF, 0x04, 0x01,
  0x04, 0xFC, 0x04, 0xFB, 0xFE, 0x03, 0xFE, 0xFF, 0xFC, 0xFB,
  0xFA, 0xFB, 0xFB, 0xFE, 0x04, 0x00, 0xF9, 0x03, 0x00, 0xF9,
  0xFF, 0xFB, 0xFE, 0xFA, 0xFA, 0xFA, 0x03, 0xFA, 0xF8, 0xFD,
  0xFA, 0xFB, 0xFA, 0x01, 0x03, 0x03, 0xFD, 0x01, 0xFA, 0x04,
  0xFE, 0x03, 0x03, 0xFF, 0xFD, 0x02, 0xFE, 0xFE, 0xFB, 0x02,
  0xFB, 0xFA, 0x03, 0xFB, 0xFF, 0x00, 0xFE, 0xFA, 0xFD, 0x00,
  0xFB, 0xF9, 0x03, 0x01, 0xFD, 0xFB, 0x02, 0xFD, 0xFE, 0xFD,
  0x01, 0xFB, 0x01, 0x03, 0xF9, 0xFF, 0x04, 0xFD, 0x01, 0xFA,
  0x04, 0xFE, 0xFE, 0xFE, 0x03, 0x00, 0xFF, 0xF9, 0x05, 0xFB,
  0xFB, 0x03, 0xFF, 0xFD, 0xFB, 0xFD, 0xFF, 0x04, 0x01, 0x02,
  0x02, 0x00, 0xFF, 0x04, 0x00, 0xFD, 0x06, 0xFE, 0xFF, 0xFB,
  0xFE, 0x01, 0xF9, 0x01, 0x04, 0xFD, 0xFA, 0xFB, 0xFD, 0x04,
  0x04, 0xFA, 0xFF, 0xFE, 0xFF, 0x01, 0xFA, 0xFE, 0xFB, 0x00,
  0xFE, 0x03, 0xFC, 0xFD, 0xFE, 0xFD, 0x01, 0x03, 0xFF, 0xF9,
  0x02, 0x02, 0x01, 0xF9, 0x03, 0xFC, 0xFF, 0xFD, 0xFD, 0xFE,
  0xFB, 0x03, 0xFB, 0xFB, 0xF9, 0xFB, 0xFA, 0xF9, 0x03, 0xFA,
  0xFB, 0x00, 0x02, 0x00, 0xFE, 0x03, 0xFE, 0xFC, 0x05, 0xFB,
  0xFD, 0xFF, 0xFA, 0xFD, 0xF8, 0xFC, 0xFE, 0xFD, 0x01, 0x01,
  0x00, 0xFB, 0xFE, 0x01, 0xFA, 0x04, 0x02, 0xFB, 0xFB, 0xFD,
  0xFA, 0xFD, 0xFE, 0x00, 0xFE, 0xFF, 0xFE, 0xFD, 0xFB, 0x03,
  0x03, 0x01, 0xFB, 0xFE, 0xFE, 0xFA, 0xFD, 0xFF, 0x03, 0x04,
  0x01, 0xFD, 0x02, 0xFE, 0x03, 0xFC, 0x01, 0xFF, 0x00, 0x01,
  0xFD, 0xFF, 0x00, 0x00, 0xFB, 0xF9, 0x02, 0xF8, 0xFD, 0xFB,
  0x02, 0xFF, 0xFC, 0x00, 0xFC, 0x04, 0x03, 0x00, 0xFE, 0x01,
  0xFD, 0xFF, 0x03, 0xFE, 0xFE, 0xFC, 0x02, 0xFE, 0x00, 0xFC,
  0xFD, 0x00, 0xFE, 0xF8, 0xFA, 0xFB, 0xFF, 0x00, 0xFE, 0xFB,
  0xFE, 0x03, 0xFE, 0xFB, 0xFD, 0x02, 0xFE, 0x03, 0x01, 0x00,
  0xFD, 0x03, 0x02, 0xFE, 0xF9, 0x00, 0x04, 0xFD, 0xFB, 0x01,
  0x01, 0xFC, 0xFF, 0x00, 0xFE, 0xFF, 0xFC, 0x00, 0x00, 0xFC,
  0x02, 0xFB, 0x01, 0x02, 0xF9, 0x02, 0xFE, 0xFC, 0xFB, 0xFF,
  0xFF, 0x00, 0xFB, 0xFB, 0x01, 0x00, 0x04, 0xFA, 0xFC, 0xFE,
  0x02, 0xFA, 0x01, 0x03, 0xFF, 0xFC, 0xF7, 0xFC, 0x00, 0xFF,
  0xFB, 0xFD, 0x00, 0xFC, 0x00, 0x00, 0x03, 0x04, 0xFF, 0xFF,
  0x00, 0x04, 0x02, 0x00, 0x02, 0xFD, 0x05, 0xFE, 0xFB, 0x03,
  0xFD, 0xFC, 0xFD, 0xFB, 0xFF, 0xFD, 0x01, 0x04, 0xFB, 0xFC,
  0xFC, 0xFF, 0xFB, 0xFE, 0xFD, 0xF8, 0xFD, 0x01, 0xFB, 0x02,
  0x04, 0x03, 0x04, 0xFB, 0xFE, 0x01, 0x00, 0x02, 0xF9, 0x05,
  0xFE, 0x02, 0x01, 0x01, 0xFC, 0xFB, 0x01, 0x03, 0xF9, 0xFF,
  0xFE, 0xFB, 0xFA, 0x01, 0xFF, 0xFB, 0x03, 0xFD, 0x03, 0xFD,
  0xFB, 0xF8, 0x04, 0xF9, 0xFD, 0xFC, 0xFD, 0xFA, 0xFD, 0x03,
  0xFB, 0xFB, 0xFD, 0xFB, 0x00, 0xFB, 0xFE, 0xF8, 0xFF, 0xFD,
  0xFA, 0x00, 0xFC, 0x01, 0xFC, 0xFA, 0xFE, 0xFC, 0xFB, 0x00,
  0xFB, 0xFA, 0xF9, 0xFB, 0xFB, 0x01, 0x03, 0x02, 0xFA, 0xFC,
  0xFE, 0x04, 0x00, 0xFB, 0xFC, 0xFC, 0xFD, 0xFD, 0x02, 0xFE,
  0xFB, 0xFF, 0xFE, 0xFD, 0x03, 0x00, 0x02, 0xFD, 0xFF, 0x02,
  0xF8, 0x00, 0xFC, 0x04, 0xFF, 0xFB, 0x04, 0xFB, 0x02, 0x00,
  0x02, 0x04, 0xFA, 0x03, 0xFF, 0x03, 0xFB, 0x00, 0xFA, 0x01,
  0xFC, 0xFC, 0xFA, 0x00, 0x00, 0xFF, 0xFB, 0xFD, 0x04, 0xFC,
  0x00, 0x01, 0xFB, 0x05, 0xFD, 0x00, 0xFC, 0xFC, 0xFF, 0xFF,
  0xFD, 0xFE, 0xFE, 0xFD, 0xFD, 0xFD, 0x02, 0xFE, 0x01, 0xFB,
  0x03, 0xFB, 0xFD, 0x01, 0xFF, 0xFE, 0x04, 0x04, 0xF9, 0x00,
  0xFD, 0x07, 0xFC, 0x08, 0xFF, 0x04, 0x05, 0x04, 0xFF, 0x02,
  0x10, 0x03, 0xFF, 0xFE, 0x04, 0xFE, 0xFE, 0xFF, 0xFE, 0xFE,
  0x0C, 0xFD, 0xF3, 0x08, 0x06, 0x02, 0x0A, 0x04, 0x02, 0xF6,
  0xFB, 0x03, 0x01, 0xFD, 0x00, 0x0B, 0x04, 0xF8, 0x04, 0x01,
  0x01, 0xFD, 0x0C, 0xFE, 0xFD, 0xFD, 0xF7, 0x02, 0xFE, 0x0A,
  0x04, 0x03, 0xFD, 0x01, 0x0A, 0xFF, 0x06, 0xFB, 0x09, 0xF9,
  0xFB, 0x00, 0xF9, 0x06, 0x01, 0xF8, 0x04, 0x00, 0xF7, 0xF6,
  0x00, 0x04, 0xFE, 0xFE, 0x09, 0x02, 0x03, 0x07, 0xF7, 0x00,
  0x06, 0xFA, 0x08, 0x08, 0xFF, 0x06, 0x1C, 0xF9, 0x03, 0x05,
  0x17, 0x02, 0xF4, 0x04, 0xFA, 0x0B, 0x05, 0xFB, 0x0C, 0x00,
  0xF9, 0x06, 0x00, 0x00, 0x00, 0xF8, 0x0C, 0x00, 0x09, 0x00,
  0xFA, 0xFD, 0x01, 0xFD, 0x01, 0x03, 0x02, 0x08, 0x0E, 0xFF,
  0x06, 0xFF, 0x10, 0x01, 0xF7, 0x05, 0xFE, 0x07, 0x02, 0xFF,
  0x0B, 0x07, 0x00, 0xF6, 0x04, 0x07, 0x03, 0x02, 0x06, 0x04,
  0x06, 0x06, 0xF9, 0x0A, 0xFF, 0xFD, 0x08, 0x0A, 0xFC, 0x03,
  0x0A, 0x0A, 0x04, 0x00, 0x14, 0xFE, 0xF9, 0x0F, 0x03, 0xFB,
  0xFE, 0xFE, 0x07, 0x08, 0x03, 0xF8, 0x02, 0xFD, 0x00, 0xFB,
  0x02, 0x06, 0x02, 0x00, 0xFB, 0xFC, 0xF8, 0xFE, 0x07, 0xFD,
  0x0C, 0x04, 0x09, 0x00, 0x01, 0x01, 0x04, 0xFF, 0xFC, 0x08,
  0x07, 0xFB, 0x00, 0xF9, 0x06, 0x06, 0xFD, 0x03, 0x01, 0x01,
  0x01, 0x01, 0x09, 0x07, 0xFF, 0x02, 0xFD, 0x03, 0x02, 0x01,
  0xFC, 0x06, 0xFD, 0x02, 0x10, 0x00, 0x06, 0xFB, 0xEA, 0x0A,
  0x0D, 0xFB, 0xFA, 0x07, 0xF6, 0x05, 0xFE, 0xFC, 0x04, 0x03,
  0x05, 0x02, 0x01, 0xFE, 0x04, 0x0A, 0xFF, 0xFB, 0x02, 0x03,
  0x04, 0xFE, 0xFB, 0x02, 0x05, 0xFE, 0xFB, 0x08, 0x08, 0xFC,
  0x04, 0x01, 0x0A, 0x00, 0xF8, 0x04, 0xF8, 0x06, 0xFD, 0xFF,
  0x05, 0xF9, 0x04, 0xFF, 0x04, 0xFA, 0x04, 0xFF, 0x05, 0xFD,
  0xFA, 0x06, 0x01, 0x06, 0x00, 0x06, 0x04, 0xFF, 0x0A, 0xFA,
  0x0A, 0xF8, 0x13, 0xFC, 0xF6, 0x0B, 0xF7, 0x09, 0x04, 0xF9,
  0x08, 0x04, 0x01, 0xF8, 0x00, 0x09, 0x06, 0xFD, 0x0A, 0xFE,
  0x01, 0x05, 0xF7, 0xFB, 0x03, 0xFE, 0x06, 0x04, 0xFA, 0x0B,
  0x12, 0xF9, 0x0A, 0x02, 0x16, 0xFE, 0xF9, 0x08, 0xF8, 0x05,
  0x07, 0x00, 0x08, 0x04, 0xFD, 0x08, 0xFD, 0x04, 0x06, 0xFD,
  0x0B, 0xFF, 0x04, 0x04, 0x02, 0x00, 0x03, 0xFE, 0x01, 0x05,
  0xFB, 0x03, 0x12, 0xFD, 0x03, 0x01, 0x10, 0x07, 0xFB, 0x07,
  0xFA, 0x04, 0x02, 0xF9, 0x07, 0x00, 0xFD, 0xF8, 0x04, 0x05,
  0x04, 0x00, 0x03, 0x03, 0xFF, 0x09, 0xFB, 0x07, 0x05, 0xFC,
  0x0C, 0x06, 0x00, 0x00, 0x0A, 0x01, 0x01, 0x08, 0x0B, 0xF7,
  0xF2, 0x08, 0xFA, 0x00, 0x05, 0xFE, 0x05, 0x00, 0x00, 0x00,
  0xFD, 0x01, 0x00, 0xFD, 0x00, 0x06, 0x01, 0x02, 0xFD, 0xFD,
  0xFE, 0x04, 0x05, 0x02, 0x06, 0x02, 0x09, 0xF9, 0x00, 0x03,
  0x0C, 0x00, 0x03, 0x05, 0x03, 0xF9, 0xFF, 0x04, 0xFB, 0x06,
  0x06, 0x08, 0xFC, 0x00, 0xFD, 0x07, 0x06, 0x07, 0xFB, 0xFF,
  0x06, 0x00, 0x06, 0x05, 0x04, 0x04, 0x02, 0xFF, 0xFE, 0x00,
  0x01, 0xFF, 0x04, 0x08, 0x05, 0xFD, 0x0B, 0x02, 0xF8, 0xFD,
  0x04, 0xFB, 0x06, 0x00, 0xFE, 0x03, 0xFC, 0x03, 0x0A, 0x0A,
  0x06, 0x01, 0x06, 0x06, 0x02, 0xFB, 0xF7, 0x0F, 0x0A, 0xFB,
  0x02, 0x03, 0x07, 0xFE, 0xF4, 0x03, 0x08, 0x01, 0xF9, 0x09,
  0xF9, 0x04, 0xFF, 0x01, 0x03, 0xFF, 0xFD, 0xFD, 0x01, 0x03,
  0x12, 0x02, 0x02, 0xFD, 0xF7, 0xFF, 0xFD, 0x05, 0xFE, 0x00,
  0xFC, 0xFE, 0x0B, 0xF8, 0x03, 0xF9, 0x0B, 0x01, 0xFA, 0x01,
  0xFD, 0x03, 0x00, 0x00, 0x08, 0x08, 0xFF, 0xFC, 0x05, 0x00,
  0x02, 0xFE, 0x08, 0x00, 0x02, 0x05, 0xFA, 0xFA, 0xFF, 0xFB,
  0x09, 0x08, 0xF8, 0x01, 0x10, 0xF8, 0x03, 0x05, 0x14, 0xFF,
  0xFE, 0x08, 0xF8, 0x0C, 0x05, 0xFF, 0x09, 0x06, 0x02, 0x05,
  0x02, 0x05, 0x02, 0xFD, 0x0A, 0x00, 0x05, 0x03, 0xF9, 0xFB,
  0x00, 0x01, 0x03, 0x08, 0xF8, 0x06, 0x11, 0xFB, 0x05, 0x04,
  0x10, 0x05, 0xFC, 0x08, 0xF4, 0x0A, 0x03, 0xF8, 0x0C, 0xFC,
  0xFD, 0xFD, 0x01, 0x06, 0xFF, 0xFE, 0x07, 0x08, 0x05, 0x08,
  0xFA, 0x0E, 0x06, 0xFE, 0x04, 0x02, 0x03, 0x09, 0x0F, 0x04,
  0x07, 0x06, 0x0A, 0xFA, 0xF4, 0x0E, 0xF7, 0x08, 0x00, 0xFD,
  0x03, 0x01, 0x03, 0xFC, 0x02, 0x03, 0x00, 0xFD, 0xFE, 0x03,
  0x02, 0xFB, 0xFE, 0x01, 0xFE, 0x06, 0x01, 0x04, 0x04, 0xFE,
  0x06, 0xFE, 0x08, 0x01, 0x0E, 0xFC, 0xFE, 0x07, 0xFC, 0x07,
  0xF9, 0x07, 0xFD, 0x00, 0x06, 0x0D, 0x06, 0x04, 0x01, 0xFD,
  0x07, 0x04, 0x00, 0xFC, 0xFE, 0x01, 0x01, 0x03, 0x0B, 0xF6,
  0xFF, 0xFA, 0xFE, 0x06, 0x03, 0xFF, 0x06, 0x08, 0x0A, 0x00,
  0x09, 0x03, 0xFC, 0xFA, 0xFF, 0x08, 0x05, 0x06, 0x09, 0x00,
  0x01, 0x00, 0x09, 0x02, 0x02, 0xFA, 0x03, 0x05, 0xFE, 0x02,
  0xFA, 0x0B, 0x04, 0x01, 0x0C, 0x05, 0x02, 0xFF, 0xF0, 0x07,
  0x04, 0xFE, 0xFE, 0x05, 0xF7, 0xFC, 0xFE, 0x04, 0x02, 0x03,
  0xFC, 0x04, 0xFF, 0xFC, 0x07, 0xFF, 0x08, 0xFE, 0xF5, 0x06,
  0x01, 0xFD, 0x04, 0x07, 0x05, 0x07, 0x0B, 0xFB, 0x0E, 0xFE,
  0x09, 0xFC, 0xFE, 0x07, 0xF8, 0x04, 0xFC, 0x01, 0x09, 0x07,
  0x02, 0xFC, 0x04, 0x02, 0x04, 0x01, 0x0B, 0xFB, 0xFE, 0x00,
  0xF8, 0xFC, 0x04, 0x04, 0x06, 0x07, 0xFB, 0x07, 0x11, 0xFA,
  0x0B, 0x07, 0x12, 0xF7, 0xF8, 0x0C, 0xF6, 0x06, 0x04, 0x04,
  0x07, 0x09, 0xFE, 0x0A, 0x00, 0x03, 0x00, 0x01, 0x07, 0x01,
  0x05, 0xFE, 0xF5, 0x00, 0x04, 0xFD, 0x06, 0x05, 0xF7, 0x04,
  0x0A, 0xF9, 0x05, 0x02, 0x14, 0x01, 0xF4, 0x0A, 0x02, 0x04,
  0x07, 0xFA, 0x0C, 0x09, 0xF9, 0xF3, 0xFE, 0x00, 0x02, 0xFD,
  0x09, 0x02, 0xFC, 0x06, 0xFC, 0x0B, 0x05, 0xF9, 0xFB, 0xFD,
  0xFF, 0x0A, 0x18, 0xFD, 0x02, 0x05, 0x10, 0xFD, 0xF0, 0x02,
  0xFB, 0x0B, 0x04, 0xFA, 0x03, 0x01, 0x03, 0xFD, 0xFE, 0x02,
  0xFF, 0xFE, 0x01, 0x00, 0x05, 0xFA, 0xF7, 0x02, 0x00, 0x06,
  0xFE, 0x00, 0xFA, 0x06, 0x12, 0x04, 0xFF, 0xFF, 0x01, 0xFD,
  0xFE, 0x03, 0x0A, 0x18, 0x02, 0x09, 0x05, 0x0A, 0x08, 0x0D,
  0x08, 0xF9, 0x0E, 0x07, 0x0F, 0x07, 0x0D, 0x15, 0x04, 0x0C,
  0x04, 0xFF, 0x08, 0x05, 0x09, 0x05, 0x0A, 0xFE, 0x0D, 0x05,
  0x07, 0x06, 0x04, 0x02, 0x00, 0x19, 0x00, 0x07, 0xFE, 0x06,
  0x0A, 0xF5, 0x0D, 0x1F, 0x0A, 0x00, 0xF6, 0x00, 0x00, 0xE1,
  0x04, 0x15, 0x08, 0xFB, 0x01, 0x06, 0x06, 0x01, 0xFC, 0x04,
  0x06, 0xF2, 0xFD, 0xFE, 0x07, 0x00, 0x01, 0x14, 0xFE, 0x03,
  0xFB, 0x03, 0x06, 0x06, 0xFB, 0x26, 0xF2, 0xFD, 0x17, 0x06,
  0xFD, 0xF0, 0xFA, 0x13, 0x05, 0xFE, 0x05, 0xFE, 0x01, 0xFD,
  0xFE, 0xFE, 0xFF, 0xEC, 0xFC, 0xFE, 0x01, 0xFD, 0x02, 0x12,
  0x05, 0x08, 0xFE, 0x07, 0x01, 0xF7, 0xF3, 0x2D, 0xFB, 0x02,
  0x0B, 0x03, 0xFF, 0xED, 0xFE, 0x1E, 0xFE, 0xFF, 0x02, 0x01,
  0x01, 0xFF, 0xFE, 0x06, 0x01, 0xEE, 0xFE, 0x07, 0x08, 0xFF,
  0x00, 0xF9, 0x02, 0x00, 0x01, 0x07, 0x04, 0xFA, 0x06, 0x2D,
  0x0F, 0x00, 0x01, 0x05, 0xFF, 0xE5, 0x01, 0x14, 0x04, 0xFD,
  0x04, 0x01, 0x05, 0x00, 0x01, 0x01, 0xFC, 0xEC, 0x01, 0xFC,
  0x0B, 0x02, 0x01, 0xFE, 0x05, 0x02, 0x09, 0xFF, 0x08, 0x00,
  0x11, 0x2C, 0x15, 0x04, 0x04, 0x0B, 0x00, 0xDC, 0x04, 0x1F,
  0x08, 0xFE, 0x00, 0x08, 0x03, 0x03, 0x03, 0x05, 0x04, 0xD8,
  0x06, 0xFA, 0x07, 0x06, 0x04, 0xF4, 0x0B, 0x0E, 0x08, 0x0A,
  0x05, 0x1F, 0x11, 0xDD, 0x0C, 0x08, 0x10, 0x0A, 0x05, 0xE5,
  0x0A, 0xF4, 0x09, 0x03, 0x0A, 0x0B, 0x03, 0x09, 0x03, 0xF7,
  0x0A, 0xED, 0x0E, 0x1E, 0xFB, 0xFF, 0x0E, 0x12, 0x00, 0x08,
  0x02, 0x08, 0x03, 0x20, 0x19, 0xEF, 0x16, 0x0A, 0xF3, 0x06,
  0x0B, 0xE7, 0x03, 0x0A, 0x06, 0x06, 0x0A, 0x05, 0x04, 0x06,
  0x08, 0xF8, 0x0A, 0xF6, 0x08, 0x0F, 0xFE, 0x01, 0x02, 0x16,
  0x05, 0x02, 0xFE, 0xFF, 0x05, 0xF4, 0x19, 0x2D, 0x09, 0x04,
  0xEB, 0x07, 0x00, 0xDA, 0x04, 0x29, 0x02, 0x06, 0x05, 0x02,
  0x06, 0x00, 0xFA, 0x08, 0x04, 0xE6, 0xFD, 0xF9, 0x09, 0xFE,
  0xFD, 0x11, 0xFD, 0x03, 0xFA, 0x02, 0x04, 0xFB, 0x00, 0x2A,
  0xF8, 0x01, 0x2C, 0x0A, 0xFD, 0xEA, 0xFE, 0x01, 0x02, 0xF5,
  0x03, 0x00, 0x03, 0x01, 0xF9, 0xFD, 0xFE, 0xE2, 0xFD, 0xFA,
  0x01, 0xFB, 0xFE, 0x07, 0xFC, 0xFF, 0xFA, 0xFE, 0x01, 0xF0,
  0xF4, 0x2B, 0xF4, 0x03, 0x11, 0x00, 0xFE, 0xEF, 0x02, 0x18,
  0xFF, 0xFC, 0x04, 0x04, 0xFC, 0x01, 0xFC, 0x05, 0x04, 0xED,
  0xFD, 0x00, 0x03, 0xFD, 0x00, 0xF5, 0x00, 0x01, 0x04, 0x02,
  0x04, 0x01, 0x03, 0x13, 0xFE, 0xFF, 0x02, 0x01, 0x00, 0xED,
  0x01, 0x0C, 0x02, 0xF8, 0xFE, 0xFF, 0x03, 0xFB, 0xFA, 0xFD,
  0xFD, 0xFB, 0xFA, 0x02, 0x02, 0xFD, 0x01, 0x14, 0x01, 0xFC,
  0xFF, 0x05, 0x08, 0x03, 0x02, 0x12, 0xFA, 0xFE, 0x03, 0x0D,
  0xFF, 0xEB, 0x03, 0x08, 0x00, 0xFE, 0xFF, 0xFF, 0x0A, 0xFB,
  0x04, 0x09, 0xF9, 0xF9, 0xFC, 0xFF, 0x00, 0xFA, 0x04, 0xEF,
  0x03, 0x08, 0x04, 0x04, 0xFD, 0x08, 0x05, 0xF0, 0xF8, 0x02,
  0x15, 0x07, 0x0A, 0x16, 0xFF, 0xF5, 0x01, 0x07, 0x03, 0x01,
  0x04, 0x06, 0x02, 0x00, 0x02, 0x12, 0x05, 0x0A, 0x00, 0xFE,
  0x08, 0x06, 0x01, 0x09, 0x00, 0x03, 0xFE, 0x19, 0xFF, 0xE3,
  0x04, 0x05, 0x0D, 0xFE, 0x09, 0x15, 0x02, 0xF4, 0x03, 0x01,
  0x06, 0x02, 0x06, 0xFF, 0x06, 0xF8, 0x0E, 0x13, 0x09, 0x03,
  0xFD, 0x03, 0x02, 0x03, 0xFC, 0x01, 0xFC, 0x03, 0x07, 0xFF,
  0x00, 0x0F, 0x04, 0xF9, 0x04, 0x01, 0xFC, 0xF7, 0xF9, 0x12,
  0x04, 0xFA, 0xFC, 0xFF, 0x04, 0xFF, 0xFC, 0xFB, 0xFD, 0xF2,
  0x03, 0xFF, 0x03, 0xFE, 0xFE, 0x09, 0xFC, 0x01, 0x01, 0x00,
  0x07, 0xFC, 0xFF, 0x14, 0x0C, 0x02, 0x31, 0x05, 0x02, 0xF3,
  0xFB, 0x02, 0x02, 0xFD, 0xFF, 0xFC, 0xFF, 0xFE, 0xFB, 0xFC,
  0xFA, 0xED, 0xFA, 0xFF, 0x03, 0x00, 0xFF, 0xFB, 0xFF, 0x04,
  0x00, 0x00, 0x02, 0xEF, 0xF2, 0x24, 0xF3, 0x01, 0x0C, 0x01,
  0x04, 0xF4, 0x02, 0x16, 0xFD, 0x02, 0x05, 0x02, 0xFD, 0x03,
  0xFF, 0x04, 0xFF, 0xEE, 0xFC, 0x05, 0x00, 0x03, 0x00, 0x03,
  0x04, 0x07, 0x03, 0x02, 0x05, 0xF4, 0x01, 0x28, 0x02, 0x00,
  0xFF, 0x01, 0x00, 0xEE, 0x00, 0x0D, 0x01, 0xF7, 0x00, 0x03,
  0x03, 0xFA, 0x00, 0x06, 0x02, 0xF3, 0xFE, 0xFF, 0x0C, 0xFE,
  0x0A, 0x27, 0x06, 0xFF, 0xFE, 0x06, 0x08, 0xEE, 0x0D, 0x2E,
  0x11, 0x03, 0x06, 0x06, 0xFE, 0xD9, 0x01, 0x18, 0x01, 0x00,
  0xFD, 0x08, 0x09, 0x02, 0x04, 0x08, 0x00, 0xD6, 0x01, 0xFA,
  0x06, 0x02, 0x08, 0x01, 0x08, 0x04, 0x06, 0x07, 0x03, 0x19,
  0x14, 0xEC, 0x11, 0x03, 0x0A, 0x08, 0x08, 0xF4, 0x07, 0xFB,
  0x0D, 0x00, 0x04, 0x07, 0x00, 0x06, 0x0B, 0x04, 0x05, 0xE4,
  0x01, 0x13, 0x07, 0x05, 0xFF, 0x0E, 0x06, 0x0D, 0x05, 0x08,
  0x03, 0x26, 0x10, 0xDB, 0x15, 0x06, 0xF1, 0x0C, 0x07, 0xF3,
  0x06, 0xF8, 0x09, 0x06, 0x0C, 0x08, 0x03, 0x08, 0xFB, 0xFC,
  0x0D, 0xEE, 0x0C, 0x14, 0x02, 0x05, 0x05, 0x17, 0x05, 0x05,
  0x01, 0x07, 0x03, 0xF6, 0x1B, 0x21, 0x10, 0x05, 0xE4, 0x04,
  0x02, 0xED, 0xFB, 0x29, 0x06, 0xFE, 0x08, 0x06, 0x03, 0x09,
  0xFD, 0x0C, 0xFF, 0xE5, 0x00, 0xFA, 0x06, 0x03, 0xFE, 0x0E,
  0x01, 0x00, 0x01, 0x03, 0x0C, 0xF0, 0x09, 0x2A, 0x15, 0x02,
  0x0A, 0x04, 0xFF, 0xE7, 0x02, 0x01, 0x06, 0xFE, 0x01, 0xFE,
  0x04, 0x01, 0xFD, 0x00, 0xFF, 0xE8, 0xFF, 0xFE, 0x03, 0x02,
  0xFF, 0xFB, 0x04, 0x03, 0xFC, 0x02, 0x04, 0xF5, 0xF6, 0x30,
  0xEF, 0x05, 0x02, 0x02, 0x03, 0xF9, 0x03, 0x1C, 0x02, 0xFC,
  0x02, 0x09, 0x03, 0x01, 0xFC, 0x0C, 0x06, 0xED, 0xFF, 0x01,
  0x0A, 0x02, 0xFE, 0x0D, 0x04, 0x03, 0x02, 0x02, 0x09, 0xF8,
  0xF8, 0x29, 0xF4, 0x06, 0x02, 0x02, 0x04, 0xFD, 0x03, 0x0E,
  0x03, 0x03, 0x08, 0x02, 0x03, 0xFE, 0x01, 0x06, 0x02, 0xF6,
  0xFE, 0x04, 0x07, 0xFF, 0x09, 0x21, 0x04, 0xFF, 0xFE, 0x01,
  0x09, 0xE6, 0x04, 0x23, 0xFD, 0xFF, 0x03, 0x0D, 0xFE, 0xE9,
  0xFE, 0x0F, 0x06, 0xFD, 0x03, 0xFF, 0x0E, 0xFD, 0x01, 0x08,
  0x04, 0xDD, 0x04, 0xFC, 0x0C, 0x01, 0x0C, 0x03, 0x04, 0xF8,
  0x05, 0xDE, 0xE2, 0xFA, 0xFF, 0x01, 0xFF, 0xFE, 0x0F, 0x2D,
  0x04, 0x06, 0x00, 0x13, 0x1C, 0x01, 0x02, 0x01, 0x02, 0x01,
  0x04, 0xF0, 0xFF, 0x01, 0x04, 0x03, 0x04, 0xFF, 0x04, 0x06,
  0xFC, 0xF5, 0x01, 0xED, 0xDF, 0x00, 0x00, 0xFC, 0x01, 0xFB,
  0x05, 0x17, 0xFD, 0xFC, 0xFF, 0x0D, 0x0E, 0x00, 0x00, 0xFE,
  0xFC, 0x00, 0x05, 0xF6, 0x02, 0xFC, 0xF4, 0xFC, 0x02, 0x00,
  0xFF, 0x05, 0xFF, 0xFF, 0xFC, 0xFB, 0x05, 0xFC, 0xFF, 0xFD,
  0xFA, 0x03, 0xF7, 0x0B, 0x02, 0xFD, 0xFC, 0x0D, 0x0F, 0xFF,
  0x00, 0xFE, 0xFF, 0x00, 0x02, 0xFE, 0x00, 0xFD, 0xFB, 0x04,
  0xE2, 0xFB, 0x02, 0x01, 0x01, 0xFD, 0xFF, 0xF4, 0x08, 0x06,
  0xFF, 0xFF, 0xFB, 0x03, 0x05, 0x12, 0xFF, 0xFF, 0xFF, 0x0A,
  0x08, 0x01, 0x04, 0x04, 0x04, 0x02, 0xF7, 0xD5, 0x05, 0xFF,
  0x03, 0xF8, 0x02, 0x02, 0x00, 0x00, 0x02, 0x01, 0x00, 0xDA,
  0x01, 0x06, 0x00, 0x04, 0xFD, 0xFF, 0x03, 0x0F, 0xFD, 0x00,
  0x05, 0x04, 0x1B, 0x00, 0x00, 0xFE, 0xF6, 0x03, 0x00, 0xD6,
  0xFC, 0xFE, 0x02, 0xFE, 0x03, 0x00, 0x04, 0x04, 0x03, 0xFB,
  0x03, 0xE1, 0x0A, 0x02, 0x00, 0xFD, 0x03, 0xFD, 0xFF, 0xED,
  0x01, 0xFF, 0x01, 0x0B, 0x20, 0x01, 0x01, 0x01, 0x03, 0xFE,
  0x04, 0xD2, 0xFF, 0xFE, 0x00, 0xFF, 0xFD, 0x02, 0x04, 0x05,
  0xFD, 0xFE, 0xFD, 0xEA, 0x15, 0x09, 0x04, 0x00, 0xFC, 0xFE,
  0x07, 0xE3, 0x02, 0xFF, 0x01, 0x0D, 0x1E, 0x02, 0xFD, 0x03,
  0x03, 0xFE, 0x04, 0xD8, 0xFD, 0xFE, 0xFE, 0x02, 0xFE, 0x02,
  0x01, 0x08, 0xFA, 0x01, 0x01, 0xE8, 0x17, 0x0D, 0x06, 0xFE,
  0xFF, 0xF9, 0x03, 0xDB, 0x07, 0xFC, 0x03, 0x09, 0x1A, 0x06,
  0x00, 0x04, 0x01, 0xFC, 0x05, 0xD9, 0x04, 0xFD, 0xFF, 0xFD,
  0xF8, 0x04, 0x01, 0x05, 0x04, 0x05, 0xFE, 0xFB, 0x29, 0x09,
  0xFF, 0x01, 0x01, 0x01, 0x00, 0xCF, 0x04, 0xFF, 0xFE, 0x01,
  0x0B, 0x04, 0xFD, 0x02, 0xFC, 0x01, 0xFB, 0xE2, 0xFD, 0x01,
  0x03, 0xFA, 0x00, 0x00, 0xF8, 0x0A, 0x01, 0xFB, 0xFF, 0xFC,
  0x23, 0x07, 0x00, 0xFB, 0xFA, 0x00, 0x01, 0xF8, 0x03, 0xFB,
  0x03, 0xF6, 0x06, 0xF6, 0x03, 0xF5, 0x04, 0x00, 0x06, 0xFE,
  0x07, 0xFC, 0xF0, 0xFE, 0xFC, 0xFE, 0x01, 0x0A, 0xFD, 0x04,
  0xFE, 0x04, 0x14, 0x09, 0x01, 0xFC, 0xFC, 0xFA, 0x0A, 0xDB,
  0xF1, 0xFD, 0x05, 0xDF, 0x04, 0x02, 0xEC, 0x03, 0x00, 0x01,
  0x01, 0xFE, 0xF5, 0xFC, 0xF5, 0xFF, 0x00, 0xFF, 0xF9, 0x04,
  0x00, 0xFF, 0x01, 0x02, 0x13, 0x03, 0x01, 0x03, 0xFA, 0xFC,
  0x06, 0xCB, 0x02, 0xFF, 0xFF, 0xEE, 0x01, 0xF7, 0x06, 0x01,
  0x02, 0x00, 0xEC, 0x0A, 0xFF, 0xF7, 0xFF, 0xF8, 0xF2, 0xFD,
  0xFD, 0x04, 0xFB, 0x03, 0xFB, 0x02, 0x1D, 0xFE, 0xFD, 0xFF,
  0x03, 0xFF, 0x02, 0xDB, 0xFB, 0x02, 0xF9, 0x00, 0x02, 0x02,
  0x00, 0xFC, 0x08, 0xFA, 0x07, 0xFF, 0x04, 0xFA, 0xFF, 0x03,
  0xF1, 0xFF, 0xFA, 0x05, 0xFE, 0x04, 0xFF, 0x01, 0x18, 0xFF,
  0x01, 0xFD, 0xFF, 0x05, 0x00, 0xE9, 0xFD, 0x02, 0xFF, 0x09,
  0xFC, 0x03, 0x07, 0xFC, 0x02, 0x00, 0x06, 0xF5, 0xFE, 0x02,
  0xF9, 0x02, 0xF1, 0xF7, 0xF9, 0x06, 0xF9, 0x09, 0xFF, 0x01,
  0x0D, 0x01, 0x06, 0xFB, 0xFF, 0xFE, 0x01, 0xE8, 0xFD, 0xFE,
  0xFE, 0x0F, 0x00, 0x04, 0x06, 0xFE, 0xFE, 0x01, 0x03, 0xE6,
  0x03, 0xFF, 0xFC, 0xFC, 0xF6, 0x01, 0xFE, 0x05, 0xFE, 0x08,
  0xFD, 0x08, 0x15, 0x03, 0x01, 0x01, 0x01, 0x05, 0x00, 0xDD,
  0x03, 0xF8, 0x01, 0x06, 0x04, 0x07, 0xFE, 0x02, 0xFA, 0xFF,
  0xF8, 0xE8, 0x00, 0x00, 0x01, 0xF8, 0xF5, 0x02, 0xFA, 0x04,
  0x01, 0xFA, 0x03, 0x06, 0x18, 0x07, 0x01, 0xFD, 0xFA, 0x00,
  0xF3, 0xF3, 0x00, 0xF9, 0x05, 0xF9, 0x05, 0xF8, 0x02, 0xE7,
  0x00, 0x00, 0x02, 0xFA, 0x05, 0xFC, 0xF5, 0xFF, 0xFE, 0x03,
  0xFD, 0x01, 0xFF, 0x09, 0xFE, 0x0B, 0x13, 0x07, 0xFF, 0xFE,
  0xFD, 0xF7, 0x0D, 0xE6, 0xFA, 0xF8, 0x03, 0xE6, 0x02, 0x02,
  0xF6, 0x06, 0x00, 0xFF, 0x02, 0xF8, 0xF2, 0xFC, 0xF1, 0xFF,
  0x01, 0x03, 0xFC, 0x08, 0xFE, 0x01, 0x00, 0x02, 0x12, 0x0A,
  0x00, 0x07, 0xFB, 0xFE, 0x08, 0xDA, 0x05, 0xFC, 0x00, 0xE8,
  0xF8, 0x00, 0x02, 0x02, 0x03, 0xFD, 0xF2, 0x04, 0x03, 0xFA,
  0xFF, 0xFC, 0xF5, 0xFC, 0xF9, 0x03, 0xF5, 0x07, 0xFF, 0x14,
  0x27, 0xFC, 0xFF, 0xFF, 0x03, 0x03, 0x07, 0xD5, 0xFD, 0x04,
  0xFB, 0xFB, 0xF3, 0x02, 0xFE, 0x02, 0x04, 0xFB, 0x05, 0xFE,
  0x00, 0xFE, 0x00, 0x04, 0xFF, 0x01, 0xFB, 0x0C, 0x01, 0x0B,
  0x00, 0x1B, 0x26, 0x04, 0x04, 0x02, 0x00, 0x07, 0x08, 0xD6,
  0x01, 0xFE, 0x02, 0xF5, 0xE4, 0xFE, 0x03, 0x04, 0x07, 0x00,
  0x00, 0x0C, 0x02, 0xFD, 0x01, 0x05, 0xF7, 0xFF, 0xF6, 0x07,
  0x00, 0x0E, 0x01, 0x1F, 0x18, 0xFF, 0x05, 0xFF, 0x01, 0x03,
  0x08, 0xDD, 0xFD, 0xFE, 0x02, 0xF6, 0xDD, 0xFE, 0xFE, 0x03,
  0x06, 0xFB, 0xFE, 0x11, 0x02, 0xFF, 0x05, 0x01, 0xF8, 0xFD,
  0xF8, 0x05, 0xFE, 0x07, 0xFF, 0x15, 0x15, 0xFF, 0xFD, 0x02,
  0xFF, 0xFF, 0x06, 0xE8, 0x01, 0x00, 0x02, 0xF3, 0xD4, 0xFA,
  0x01, 0x01, 0x02, 0xFE, 0x00, 0x0B, 0x03, 0x01, 0x03, 0x00,
  0x05, 0x00, 0xFD, 0x05, 0xFE, 0x05, 0xFD, 0x0E, 0x0D, 0xFF,
  0xFF, 0xFB, 0xFC, 0x01, 0x0F, 0x12, 0xFF, 0x00, 0x00, 0xEE,
  0xE7, 0xFD, 0xFA, 0x03, 0x06, 0xFE, 0xFB, 0x03, 0xFB, 0xFE,
  0x00, 0x01, 0x04, 0x00, 0xFF, 0x03, 0xFF, 0x02, 0xFD, 0x09,
  0x01, 0xFB, 0xFD, 0xFB, 0xFF, 0x06, 0x0C, 0x0E, 0x02, 0xFF,
  0xF8, 0xF5, 0x00, 0xFD, 0x01, 0x00, 0xF0, 0xFF, 0xFF, 0x0D,
  0xFF, 0xFD, 0xFE, 0x04, 0xFA, 0x00, 0xFF, 0xFF, 0x02, 0xFD,
  0x02, 0x09, 0x0A, 0xF8, 0xFD, 0xFD, 0xFF, 0x06, 0x07, 0x1B,
  0xFC, 0x03, 0xFB, 0xF5, 0xED, 0xF9, 0xFC, 0x00, 0x06, 0xFF,
  0x03, 0x2F, 0x00, 0xFD, 0xFD, 0xFB, 0xF7, 0x00, 0x01, 0xFE,
  0x02, 0xFE, 0x01, 0x05, 0x00, 0xFE, 0xFD, 0x02, 0x02, 0x04,
  0x07, 0x3B, 0xFD, 0x01, 0xFD, 0x02, 0xF5, 0x00, 0x05, 0xFA,
  0x07, 0x02, 0x08, 0x0D, 0xFA, 0xFD, 0x01, 0x03, 0x01, 0xFE,
  0x01, 0x02, 0x01, 0xFA, 0x00, 0x01, 0xFF, 0x02, 0x02, 0x02,
  0xFD, 0xFD, 0x0B, 0xFF, 0xFC, 0x09, 0xF9, 0x01, 0x00, 0xFA,
  0xFF, 0xFE, 0x0C, 0xF6, 0x12, 0x04, 0x03, 0x02, 0xF5, 0x01,
  0x02, 0x07, 0x00, 0x02, 0x0A, 0x01, 0x04, 0xFA, 0x08, 0xF8,
  0x07, 0xFF, 0x01, 0x06, 0x0B, 0xFE, 0x0C, 0xFF, 0x0D, 0xFD,
  0x02, 0x0B, 0x01, 0x0A, 0xFB, 0x0C, 0xF5, 0xFC, 0x12, 0xFA,
  0xFA, 0xFB, 0xF3, 0x02, 0xFE, 0xFC, 0x0B, 0x02, 0xFF, 0xFA,
  0xF9, 0xF6, 0x02, 0x05, 0xFD, 0x08, 0x0D, 0xF9, 0x03, 0x05,
  0x0C, 0xFB, 0xF9, 0xFE, 0xFE, 0x00, 0x03, 0x0B, 0xF5, 0xF2,
  0x04, 0x00, 0xF9, 0xF5, 0xED, 0xFD, 0x01, 0x0B, 0x0B, 0x01,
  0x00, 0x00, 0xF4, 0x00, 0x01, 0xFC, 0x01, 0x08, 0x0B, 0xF6,
  0xFF, 0x06, 0x06, 0x00, 0xF6, 0x02, 0x08, 0xFF, 0x05, 0x06,
  0xF9, 0xF7, 0x04, 0x07, 0xF5, 0x00, 0xF4, 0xFB, 0xFD, 0x0D,
  0x10, 0xFF, 0xFF, 0xFB, 0xF9, 0xF6, 0x06, 0x04, 0x03, 0x09,
  0x05, 0x06, 0x0C, 0x08, 0x09, 0x06, 0x00, 0x05, 0xFD, 0xFF,
  0x07, 0x0F, 0x04, 0x09, 0x09, 0x03, 0xF2, 0xF2, 0xF7, 0xFF,
  0xF9, 0x17, 0x01, 0xFE, 0x08, 0xFE, 0xFE, 0xF9, 0x01, 0x00,
  0x02, 0x05, 0x07, 0x03, 0x0C, 0x00, 0x03, 0x04, 0x05, 0x02,
  0x01, 0x05, 0x0A, 0x10, 0xFC, 0xF7, 0x0A, 0xF9, 0xF9, 0xF8,
  0xF3, 0x07, 0xFB, 0xFD, 0xE3, 0x05, 0xF9, 0xFD, 0xFC, 0x08,
  0x04, 0x04, 0xFB, 0xF3, 0x0B, 0x01, 0x03, 0x03, 0xEC, 0x05,
  0xFF, 0x01, 0xFF, 0x02, 0xFF, 0xEA, 0xF4, 0xFB, 0x04, 0xFF,
  0x11, 0x15, 0x01, 0xF9, 0xFC, 0xF1, 0xF2, 0x00, 0x03, 0x03,
  0x04, 0x0D, 0x02, 0x09, 0x07, 0xEE, 0x09, 0x05, 0x08, 0xFB,
  0xF5, 0x05, 0xFF, 0x03, 0x0B, 0xF8, 0x02, 0xE4, 0x00, 0x04,
  0x08, 0xFD, 0x03, 0x09, 0x06, 0xFF, 0xFD, 0xFB, 0x11, 0xFC,
  0x07, 0x06, 0x01, 0xF8, 0x00, 0x08, 0x07, 0x03, 0x0B, 0x05,
  0x0C, 0xFB, 0x09, 0x08, 0xF7, 0x0D, 0x01, 0x03, 0x04, 0x10,
  0xFE, 0xF8, 0x07, 0xFE, 0xF1, 0xFD, 0xED, 0x05, 0xFF, 0x08,
  0x14, 0xFF, 0xFF, 0xFA, 0xFA, 0xFD, 0xFD, 0xFE, 0xFA, 0x06,
  0x0B, 0xFB, 0x08, 0x01, 0x04, 0xF3, 0xF8, 0x03, 0x00, 0x08,
  0x03, 0x11, 0xFB, 0xF6, 0x0A, 0x07, 0xF1, 0xF7, 0xF6, 0x02,
  0x02, 0x0F, 0x0C, 0x04, 0xFC, 0xFE, 0xFA, 0x05, 0x04, 0x06,
  0x06, 0x0E, 0x09, 0x01, 0x00, 0x02, 0x08, 0xF9, 0xF8, 0x03,
  0x05, 0x05, 0x07, 0x04, 0xF6, 0xFB, 0x06, 0xFF, 0xFC, 0xFF,
  0xF7, 0xFD, 0xFD, 0x09, 0x12, 0x01, 0x00, 0x01, 0xF7, 0xFE,
  0x04, 0xFF, 0x04, 0x15, 0x00, 0x07, 0x02, 0x05, 0x0B, 0x0C,
  0xF8, 0x01, 0x01, 0xFD, 0x06, 0x0C, 0xF6, 0x09, 0x06, 0x04,
  0xF6, 0xF9, 0xF1, 0x01, 0xFC, 0x0F, 0x08, 0x01, 0x09, 0x05,
  0xFA, 0x02, 0xFD, 0xFD, 0x05, 0x02, 0x01, 0x05, 0x07, 0x04,
  0x09, 0x01, 0xFC, 0x06, 0x02, 0xFC, 0x04, 0x14, 0x07, 0x06,
  0x06, 0xFF, 0xF8, 0x00, 0xFE, 0x04, 0xF7, 0x04, 0xF6, 0x09,
  0xFE, 0x02, 0x04, 0x00, 0x06, 0x02, 0xFC, 0x02, 0x01, 0x09,
  0x03, 0x08, 0x00, 0xFA, 0xFE, 0x01, 0x05, 0x0A, 0x05, 0xF7,
  0xF9, 0x05, 0x01, 0x05, 0x04, 0x05, 0x0A, 0x04, 0x03, 0x0A,
  0xF6, 0x05, 0x07, 0x0A, 0x06, 0x04, 0x02, 0x02, 0x04, 0xFF,
  0x0A, 0x01, 0xF9, 0x02, 0xF8, 0x02, 0x08, 0x04, 0x07, 0x04,
  0x07, 0xF8, 0xFF, 0x05, 0x03, 0xFD, 0x0D, 0x02, 0x0C, 0xFC,
  0xFF, 0xFF, 0x0C, 0x04, 0x09, 0x06, 0x02, 0xFB, 0x07, 0x00,
  0xFE, 0x06, 0x10, 0xFF, 0x07, 0xF9, 0x08, 0xFF, 0xFB, 0x07,
  0x00, 0x03, 0xFF, 0x07, 0xF7, 0xF8, 0x0A, 0xFB, 0xFA, 0x00,
  0xF0, 0x04, 0xFF, 0x0D, 0x13, 0x04, 0xFE, 0xFD, 0xF9, 0x02,
  0xFE, 0xFF, 0xFB, 0x0D, 0x00, 0xF7, 0x0F, 0x03, 0x0A, 0xF2,
  0xF7, 0x01, 0xFF, 0x01, 0xFD, 0x0F, 0xFA, 0xFA, 0x15, 0x02,
  0xF4, 0xFA, 0xFA, 0x08, 0x00, 0x12, 0x13, 0x07, 0xF7, 0xFD,
  0xFB, 0x09, 0x03, 0x02, 0x02, 0x0E, 0x0D, 0x01, 0x03, 0x01,
  0x10, 0xF9, 0xF7, 0xFF, 0x06, 0x0B, 0x05, 0x05, 0xF5, 0xFA,
  0x06, 0x02, 0xFA, 0xFE, 0xF5, 0xFC, 0xFE, 0x0B, 0x14, 0x02,
  0xFC, 0x02, 0xF7, 0xF3, 0x00, 0x00, 0xFE, 0x08, 0x08, 0x09,
  0x00, 0x0B, 0x06, 0x17, 0xF6, 0x07, 0x00, 0x00, 0x05, 0x11,
  0xF4, 0xFE, 0x00, 0x0A, 0xFB, 0xF9, 0xEB, 0xFE, 0xF8, 0x0F,
  0x0B, 0xFC, 0x09, 0x0C, 0xFF, 0xF7, 0x01, 0x06, 0x02, 0x05,
  0x0A, 0x02, 0x07, 0xF6, 0x0C, 0xFF, 0xFA, 0x06, 0x02, 0x04,
  0x09, 0x13, 0x05, 0x04, 0x06, 0xFC, 0xF2, 0xFB, 0xF9, 0x03,
  0xFE, 0x05, 0xF7, 0xFC, 0x04, 0x01, 0x05, 0x0F, 0x01, 0x03,
  0xFD, 0xF8, 0x08, 0x03, 0x04, 0xFB, 0xF0, 0xFE, 0x03, 0xFF,
  0x02, 0xFE, 0xFE, 0xF6, 0x08, 0x01, 0x09, 0xFE, 0xF7, 0x0F,
  0x02, 0x04, 0xF9, 0x01, 0xEA, 0x09, 0xFD, 0x01, 0x08, 0x05,
  0x06, 0x02, 0x02, 0xF0, 0x06, 0x0B, 0xFF, 0xFE, 0xF4, 0x08,
  0x09, 0x04, 0xFE, 0x09, 0xFE, 0xD3, 0xF3, 0x02, 0x03, 0x01,
  0x03, 0x12, 0x01, 0x07, 0xFD, 0x07, 0x0E, 0x00, 0x07, 0xFB,
  0xFF, 0x01, 0xFF, 0x08, 0xFF, 0x02, 0xFA, 0x04, 0x0A, 0xFB,
  0x05, 0x08, 0xFA, 0x03, 0x09, 0xFF, 0x07, 0x01, 0xF3, 0xF6,
  0x0D, 0x00, 0x01, 0xFC, 0xEF, 0x01, 0xFD, 0x08, 0x0E, 0xFE,
  0x02, 0xF9, 0xFF, 0xFD, 0x03, 0x03, 0x00, 0x05, 0x01, 0xFA,
  0x07, 0xFD, 0x0E, 0xF8, 0xF6, 0x08, 0x00, 0xFF, 0x01, 0x13,
  0xF9, 0xF9, 0x14, 0x01, 0xF2, 0xF5, 0xF5, 0x02, 0x05, 0x04,
  0x09, 0xF9, 0xF8, 0xF7, 0xF9, 0x05, 0x00, 0x03, 0x07, 0x0E,
  0x06, 0xFC, 0x01, 0x02, 0x11, 0xFB, 0xF9, 0xFE, 0x00, 0x06,
  0xFE, 0x04, 0xFE, 0xF6, 0x07, 0x04, 0xF6, 0xFD, 0xF2, 0xF7,
  0xFA, 0x05, 0x09, 0x01, 0xFD, 0xF6, 0xF1, 0xF7, 0xFF, 0xFE,
  0xFD, 0x0D, 0x07, 0x03, 0x04, 0x0E, 0x0B, 0x08, 0xFD, 0x03,
  0x02, 0xFC, 0x04, 0x07, 0xF6, 0xFE, 0x01, 0x0C, 0xFA, 0x00,
  0xF4, 0x00, 0xFD, 0x0E, 0x0A, 0x06, 0x02, 0xFD, 0xFE, 0xF9,
  0x03, 0xFF, 0xFB, 0x00, 0x03, 0x06, 0xFF, 0xF9, 0x0C, 0xFF,
  0x04, 0x09, 0xFF, 0xFF, 0x08, 0x0D, 0xF8, 0x04, 0x07, 0x02,
  0x01, 0xFE, 0xF9, 0x01, 0x04, 0xFA, 0xF3, 0x07, 0xF7, 0x02,
  0x02, 0xFC, 0x03, 0x03, 0x00, 0xFE, 0x11, 0x04, 0x03, 0x02,
  0xFB, 0x07, 0xFC, 0x06, 0xFF, 0xFF, 0x06, 0xFA, 0x01, 0x02,
  0x07, 0xFD, 0xFD, 0x03, 0x05, 0xFC, 0xFF, 0xF8, 0xFF, 0x02,
  0x1E, 0xFF, 0x02, 0xF9, 0x02, 0x03, 0x05, 0x02, 0x05, 0x00,
  0x01, 0xFD, 0x00, 0x04, 0x07, 0xFF, 0xFC, 0xFB, 0xFE, 0xFE,
  0xFD, 0xFC, 0x06, 0xFC, 0xFC, 0x01, 0x04, 0x19, 0xF6, 0x16,
  0x11, 0xF8, 0x1A, 0xFF, 0xFF, 0xFE, 0xFE, 0x05, 0x03, 0xF7,
  0x12, 0xFE, 0x00, 0xFD, 0xFA, 0x01, 0x01, 0xFD, 0xFD, 0x00,
  0x00, 0x0A, 0xFF, 0xFD, 0x02, 0xF8, 0x02, 0x01, 0xFF, 0x21,
  0x02, 0x1B, 0x0D, 0x03, 0x17, 0xFD, 0xFB, 0xF8, 0x01, 0xFD,
  0x04, 0xEF, 0x0A, 0x00, 0x00, 0xFC, 0xED, 0x01, 0xFB, 0x00,
  0x00, 0xF8, 0x02, 0x0E, 0x05, 0xFF, 0x04, 0xF5, 0x03, 0x00,
  0xFF, 0x21, 0xF9, 0x17, 0x06, 0xF7, 0x2B, 0x00, 0xFC, 0xFB,
  0xFD, 0x02, 0x03, 0x01, 0x05, 0x00, 0x02, 0xFF, 0xFD, 0xFE,
  0xFF, 0xFF, 0xFA, 0xFA, 0xFC, 0x06, 0x01, 0x01, 0xFF, 0xF1,
  0xFF, 0x00, 0x01, 0x2C, 0xFD, 0xFB, 0xF6, 0xFC, 0x13, 0x06,
  0xFF, 0xF7, 0xFE, 0x01, 0xFB, 0xFF, 0x06, 0x00, 0x01, 0x01,
  0x04, 0x01, 0x03, 0xFF, 0x00, 0x05, 0x07, 0xF8, 0x02, 0x05,
  0x06, 0xF9, 0xFF, 0xFF, 0xFC, 0x27, 0x08, 0x00, 0xF7, 0x07,
  0xFE, 0x06, 0x01, 0xFA, 0xFF, 0x07, 0xFE, 0xFA, 0x0C, 0x09,
  0x01, 0x0A, 0x02, 0x01, 0x03, 0x08, 0x06, 0x0B, 0x06, 0xF7,
  0x07, 0x04, 0x02, 0x01, 0x05, 0x02, 0x01, 0xFB, 0x04, 0x04,
  0xF6, 0x07, 0xFB, 0x03, 0xFE, 0xFA, 0x02, 0x09, 0x04, 0xF8,
  0x0E, 0x03, 0x00, 0x07, 0xFC, 0x03, 0x00, 0x01, 0x06, 0x02,
  0x07, 0xF4, 0x04, 0x00, 0x00, 0x02, 0x08, 0x03, 0x02, 0x02,
  0xFF, 0x11, 0xF3, 0xFD, 0x1C, 0x04, 0x04, 0xFD, 0xFE, 0x01,
  0x02, 0x07, 0x07, 0x03, 0x01, 0x02, 0xFF, 0x01, 0x02, 0x03,
  0x00, 0x02, 0x02, 0xF0, 0x00, 0xFE, 0x02, 0xFA, 0xFD, 0xFF,
  0x00, 0x27, 0xFB, 0x17, 0x0A, 0xF9, 0x18, 0x04, 0xFB, 0xFF,
  0xFF, 0xFD, 0x00, 0xFB, 0x15, 0xFF, 0x01, 0xFE, 0xFB, 0x01,
  0x03, 0xFD, 0xFD, 0xFC, 0xFD, 0x02, 0x05, 0xFE, 0x03, 0xFA,
  0x00, 0x00, 0x00, 0x2D, 0x06, 0x13, 0x13, 0x06, 0x1F, 0xFE,
  0xFE, 0xFA, 0x04, 0x01, 0x05, 0xEF, 0x02, 0x00, 0x00, 0xFA,
  0xEE, 0xFF, 0xFE, 0xFD, 0xFD, 0xFD, 0x01, 0x09, 0x00, 0xFF,
  0x05, 0xF5, 0x01, 0x03, 0x00, 0x26, 0xF9, 0x19, 0x0F, 0xFC,
  0x22, 0xFF, 0xFD, 0xFF, 0x00, 0x00, 0x03, 0x02, 0xFF, 0x06,
  0xFE, 0x04, 0x03, 0x01, 0xFE, 0xFF, 0xFD, 0xFF, 0xFF, 0x0E,
  0xFF, 0x04, 0xFE, 0xF6, 0x00, 0x04, 0x00, 0x27, 0x00, 0xFF,
  0x04, 0xFF, 0x0B, 0x07, 0xFF, 0x03, 0xFC, 0xFE, 0xFD, 0x02,
  0xFF, 0xFF, 0x03, 0xFE, 0xFD, 0x01, 0x02, 0x00, 0x00, 0xFE,
  0x06, 0x07, 0x04, 0x02, 0x04, 0xF9, 0x00, 0xFE, 0x00, 0x16,
  0x05, 0xF6, 0xFA, 0x08, 0xF0, 0x04, 0x05, 0x07, 0x06, 0x08,
  0x05, 0x00, 0x06, 0x00, 0x03, 0x01, 0xFE, 0x03, 0xFE, 0x05,
  0x07, 0x03, 0x02, 0xFA, 0x0A, 0x02, 0x05, 0x01, 0x03, 0x03,
  0x02, 0xF3, 0x07, 0x06, 0x00, 0x0C, 0xF5, 0x03, 0xFF, 0x05,
  0x03, 0x03, 0x02, 0xFB, 0x07, 0xFD, 0x07, 0x04, 0xFC, 0x08,
  0xFD, 0x09, 0x03, 0x0B, 0x01, 0x07, 0x03, 0x00, 0x06, 0x09,
  0x07, 0x06, 0x02, 0xEE, 0xFC, 0x07, 0xFA, 0x03, 0x11, 0x04,
  0x02, 0x05, 0xFF, 0x02, 0xFC, 0x01, 0x09, 0x00, 0xFF, 0xFA,
  0xFD, 0x02, 0x01, 0x02, 0x00, 0xFF, 0x02, 0xFB, 0xFF, 0x00,
  0x08, 0xFE, 0xFE, 0xFF, 0x01, 0x12, 0xFA, 0x03, 0x0D, 0xF5,
  0x1A, 0x04, 0x05, 0x04, 0x00, 0xFD, 0x03, 0x03, 0x18, 0xFA,
  0xFE, 0xFA, 0x02, 0x01, 0x04, 0xFD, 0xF9, 0xFE, 0x02, 0x0F,
  0x01, 0xFE, 0xFE, 0xFB, 0x01, 0x02, 0xFE, 0x1C, 0x07, 0x0A,
  0x0B, 0x04, 0x1F, 0x00, 0xFD, 0x00, 0x01, 0x01, 0xF9, 0xEF,
  0xFD, 0xFC, 0x00, 0xF9, 0xF5, 0x00, 0x02, 0xFF, 0xFA, 0xFD,
  0x01, 0x10, 0xFF, 0xFD, 0x02, 0xFD, 0x02, 0xFF, 0xFC, 0x23,
  0xF5, 0x18, 0x0B, 0xFD, 0x21, 0x06, 0xFE, 0x00, 0x00, 0x03,
  0xFF, 0xFF, 0xFE, 0x03, 0x01, 0xF6, 0xF8, 0x04, 0xFF, 0xFF,
  0xFC, 0xFF, 0x02, 0x10, 0xFF, 0xFE, 0x07, 0xFE, 0x02, 0x02,
  0xFF, 0x2C, 0xFD, 0x03, 0xF5, 0x00, 0x24, 0x05, 0x01, 0x06,
  0xFE, 0x02, 0xFE, 0x03, 0x03, 0xFF, 0x02, 0xFB, 0x06, 0x01,
  0x01, 0xFF, 0x03, 0xFE, 0x02, 0xFC, 0x03, 0x06, 0x01, 0xFD,
  0xFF, 0x00, 0x01, 0x22, 0x06, 0xFB, 0xF4, 0x0C, 0xF9, 0x03,
  0xFD, 0x09, 0x02, 0x05, 0xFF, 0x00, 0x08, 0x06, 0x03, 0x07,
  0xF8, 0x07, 0x00, 0x05, 0x02, 0x03, 0x06, 0xF0, 0x07, 0x00,
  0x02, 0x02, 0x06, 0x05, 0x04, 0x0B, 0x04, 0xF5, 0xF5, 0x09,
  0x0A, 0x00, 0xFF, 0x09, 0x08, 0x05, 0x02, 0x04, 0x0B, 0x03,
  0x04, 0x02, 0xFE, 0x03, 0x01, 0x01, 0x0C, 0x11, 0x04, 0xFA,
  0x03, 0xFD, 0x05, 0x05, 0x0C, 0x00, 0x00, 0x02, 0x01, 0xF6,
  0xF1, 0xFE, 0x14, 0x03, 0x03, 0x06, 0xFE, 0x04, 0xFB, 0x05,
  0x0A, 0x00, 0xFF, 0xFC, 0xFA, 0x01, 0x03, 0x02, 0x01, 0xFD,
  0xFF, 0xEE, 0xFF, 0xFE, 0xFF, 0xFF, 0x02, 0x01, 0xFF, 0x16,
  0xF7, 0xEC, 0x0C, 0xFC, 0x26, 0xFD, 0x00, 0x02, 0xFE, 0x05,
  0x03, 0x04, 0x15, 0x00, 0x00, 0xF5, 0x02, 0x01, 0x00, 0x02,
  0xFA, 0xF9, 0x00, 0x07, 0xFF, 0xFA, 0x00, 0xFC, 0xFF, 0x01,
  0xFF, 0x21, 0x03, 0x0F, 0x14, 0x06, 0x1C, 0xFE, 0xFF, 0x08,
  0x02, 0x03, 0xF9, 0xF1, 0x03, 0x02, 0x01, 0xF5, 0xF0, 0x02,
  0x01, 0x00, 0xFE, 0xFC, 0x01, 0x14, 0xFE, 0xFF, 0x01, 0x00,
  0xFC, 0x02, 0xFC, 0x1F, 0xFA, 0x1A, 0x18, 0x00, 0x13, 0x04,
  0xFA, 0x09, 0xFF, 0x01, 0xF7, 0xF9, 0x04, 0x03, 0xFF, 0xF6,
  0xF1, 0x04, 0xFC, 0xFE, 0xFE, 0x02, 0x03, 0x19, 0x05, 0xFF,
  0x05, 0x02, 0xFE, 0x02, 0x00, 0x26, 0x01, 0x17, 0xFD, 0x03,
  0x29, 0x00, 0xFF, 0xFF, 0x00, 0x02, 0xFF, 0xFE, 0x06, 0x02,
  0x00, 0x01, 0xFC, 0xFD, 0x03, 0xFF, 0xFE, 0xFD, 0xFE, 0x01,
  0x03, 0x00, 0xFE, 0x01, 0x02, 0x02, 0x02, 0x26, 0x08, 0x0D,
  0x09, 0x0B, 0x02, 0x03, 0x03, 0xFD, 0x03, 0x09, 0x01, 0x05,
  0x11, 0x01, 0x03, 0x01, 0xFD, 0x05, 0x04, 0xFE, 0x00, 0x09,
  0x01, 0xF8, 0x03, 0x04, 0x00, 0xFD, 0x08, 0x00, 0x00, 0xFD,
  0x04, 0xF4, 0x07, 0xFE, 0x03, 0x02, 0x04, 0xFC, 0x00, 0xF9,
  0x00, 0x02, 0x10, 0xFF, 0xFC, 0xF9, 0x04, 0x01, 0x04, 0xFF,
  0xF9, 0xF7, 0x08, 0x0B, 0x03, 0x03, 0x04, 0xFA, 0x07, 0x04,
  0x01, 0x02, 0xFE, 0xFE, 0x08, 0xFC, 0x00, 0xFC, 0x09, 0x0A,
  0x04, 0xF7, 0x02, 0x04, 0x12, 0x01, 0x04, 0xF7, 0x05, 0x0B,
  0x02, 0x04, 0xF8, 0xF6, 0x02, 0x0B, 0x01, 0x05, 0x06, 0xF6,
  0xFF, 0x0A, 0x08, 0xFD, 0xFE, 0x03, 0x11, 0x02, 0x04, 0x02,
  0x07, 0x02, 0x02, 0xF9, 0x0E, 0x08, 0x02, 0x05, 0x00, 0xF3,
  0x03, 0x02, 0xFF, 0x00, 0xFB, 0xFF, 0x06, 0x0D, 0x03, 0x03,
  0xFE, 0xFA, 0x03, 0x0C, 0x07, 0xFF, 0xFC, 0x05, 0x0C, 0x02,
  0x02, 0xFD, 0x02, 0x03, 0x03, 0xF5, 0x06, 0x06, 0xF9, 0x04,
  0x00, 0xFA, 0x07, 0xFF, 0xFE, 0x06, 0xFA, 0xF6, 0x01, 0x0E,
  0x02, 0x01, 0x04, 0xFD, 0x01, 0x09, 0x05, 0x02, 0x00, 0x0A,
  0x0C, 0x00, 0x00, 0x07, 0x06, 0x03, 0x01, 0xFB, 0xFB, 0xFE,
  0xFA, 0x03, 0xFC, 0xFD, 0xFD, 0xFF, 0x00, 0x01, 0xFA, 0xFC,
  0x03, 0x0A, 0x0C, 0xFF, 0xFD, 0xF7, 0x06, 0x05, 0x06, 0xFF,
  0x09, 0xFF, 0xF1, 0x04, 0xF6, 0x03, 0x04, 0xF7, 0x05, 0x13,
  0x03, 0xFD, 0x0A, 0xFF, 0x00, 0x0C, 0x00, 0x0B, 0x01, 0x00,
  0x19, 0x0B, 0x06, 0xFA, 0x09, 0x05, 0x04, 0x09, 0x01, 0xF8,
  0x0A, 0xFC, 0x09, 0x02, 0xF1, 0x08, 0xFB, 0x02, 0x06, 0xF7,
  0xFC, 0x0D, 0x04, 0x00, 0x14, 0x01, 0x04, 0x0E, 0xFC, 0x0D,
  0x03, 0xFD, 0x0C, 0x10, 0x06, 0xED, 0x08, 0x01, 0x02, 0x05,
  0x05, 0xFC, 0x02, 0xF8, 0x02, 0xFA, 0x0A, 0xFF, 0x01, 0xFF,
  0x03, 0xFD, 0xFD, 0xFD, 0x02, 0x01, 0x09, 0x02, 0xFA, 0xFA,
  0x01, 0x00, 0x03, 0xFD, 0xF5, 0xF8, 0x05, 0x13, 0x07, 0xFE,
  0x00, 0xF6, 0x0B, 0x07, 0x00, 0x00, 0xFF, 0x06, 0x0F, 0x02,
  0x02, 0x04, 0x04, 0x0A, 0x0B, 0xFA, 0x06, 0x00, 0x15, 0x01,
  0x00, 0xF7, 0x00, 0x0E, 0x04, 0x02, 0xF9, 0xF7, 0xFF, 0x12,
  0xFC, 0x03, 0x01, 0xF9, 0x03, 0x0D, 0xFF, 0xFE, 0xFD, 0x0B,
  0x0E, 0x02, 0x01, 0xFE, 0x05, 0xFA, 0x05, 0xF1, 0x0A, 0x07,
  0xFE, 0x05, 0xFF, 0xF8, 0x07, 0xF8, 0xFE, 0x01, 0xFC, 0xF9,
  0x04, 0x06, 0xFF, 0x00, 0xFD, 0xF3, 0xFF, 0x0A, 0x01, 0xFD,
  0xFB, 0x18, 0x0A, 0xFD, 0x08, 0xFF, 0x00, 0x01, 0x00, 0xF9,
  0x04, 0x03, 0xFD, 0x03, 0x03, 0xF4, 0x05, 0x01, 0x01, 0x03,
  0xFA, 0xFA, 0xFE, 0x08, 0xF6, 0xFF, 0xFE, 0xFA, 0xFF, 0x01,
  0x04, 0x02, 0xFE, 0x0A, 0x06, 0x00, 0x00, 0x02, 0x03, 0xF9,
  0xFA, 0xFE, 0xFB, 0x03, 0xFC, 0x05, 0x00, 0xFC, 0x00, 0x02,
  0x04, 0x02, 0xFB, 0xFA, 0x08, 0x05, 0x04, 0xFA, 0xFC, 0xFB,
  0x01, 0x05, 0xFA, 0xFF, 0x14, 0x06, 0xFB, 0x04, 0xFA, 0x06,
  0x04, 0xFF, 0x02, 0x06, 0x04, 0x01, 0x03, 0x06, 0xFC, 0x00,
  0x03, 0x05, 0x02, 0x00, 0xFE, 0x06, 0xFB, 0xF8, 0x08, 0xFF,
  0xFE, 0xFB, 0xFF, 0x03, 0x05, 0xFA, 0x08, 0x05, 0xF7, 0x0A,
  0xFA, 0x01, 0x04, 0xFD, 0x05, 0x08, 0x04, 0x01, 0x07, 0x06,
  0x02, 0xFB, 0x01, 0x07, 0x02, 0xFF, 0x0B, 0x01, 0xF7, 0xFA,
  0x02, 0x00, 0x01, 0xFD, 0x01, 0x01, 0x00, 0xFA, 0x00, 0x06,
  0xFF, 0x04, 0x02, 0x01, 0x05, 0xFB, 0x00, 0xFF, 0xFC, 0xFF,
  0x0A, 0x01, 0xFF, 0xFD, 0xFF, 0x02, 0x03, 0xFE, 0xFA, 0x02,
  0xFF, 0x05, 0x03, 0xFF, 0x03, 0xF9, 0x06, 0x06, 0x06, 0xFF,
  0xFA, 0x01, 0x0C, 0xFC, 0x06, 0x01, 0x06, 0x02, 0x03, 0xF8,
  0x03, 0x08, 0x22, 0x03, 0x04, 0xF5, 0x06, 0x0F, 0x05, 0x04,
  0xFB, 0xF9, 0x03, 0x11, 0xFC, 0x00, 0x03, 0xF5, 0xFD, 0x07,
  0x06, 0xFC, 0xFC, 0x0A, 0x0A, 0x04, 0x03, 0xFE, 0x05, 0xFF,
  0x05, 0xF7, 0x08, 0x08, 0xFD, 0x07, 0x00, 0xF6, 0x05, 0x04,
  0xFE, 0x02, 0xFC, 0xF9, 0x02, 0x0A, 0xFE, 0x00, 0xFB, 0xF8,
  0x00, 0x06, 0x01, 0xFF, 0x00, 0x16, 0x10, 0x01, 0x00, 0x01,
  0x02, 0x0D, 0x04, 0xF1, 0x05, 0x02, 0xFF, 0x04, 0xFE, 0xF2,
  0xFE, 0x02, 0xFF, 0x02, 0xF8, 0xF6, 0x01, 0x0C, 0x02, 0x00,
  0x04, 0xF9, 0x07, 0x0B, 0x03, 0x05, 0xFC, 0x01, 0x0C, 0xFF,
  0x01, 0x05, 0x03, 0x00, 0x02, 0xF8, 0x00, 0x03, 0x00, 0x04,
  0x01, 0xF6, 0x02, 0x00, 0x04, 0x04, 0xF9, 0xF3, 0x02, 0x0C,
  0x03, 0x02, 0x01, 0xF5, 0x06, 0x05, 0x02, 0xFE, 0x0E, 0x12,
  0xF6, 0x0A, 0xFE, 0x08, 0x00, 0xFB, 0x00, 0x10, 0xFF, 0xFD,
  0x08, 0x00, 0x02, 0x08, 0xFB, 0x08, 0xFD, 0x01, 0x02, 0x0C,
  0x03, 0xF3, 0x06, 0x00, 0x04, 0x07, 0x03, 0xFE, 0x05, 0xF8,
  0x0A, 0xFC, 0xF6, 0x08, 0xF2, 0x04, 0x05, 0xFD, 0x01, 0x12,
  0x04, 0xFC, 0x17, 0x01, 0x02, 0x05, 0xFE, 0x0A, 0x04, 0xFF,
  0x18, 0x0F, 0x02, 0xED, 0x09, 0x01, 0xFF, 0x0B, 0x00, 0xFD,
  0x08, 0xF5, 0x03, 0x09, 0x08, 0x07, 0x02, 0x05, 0x06, 0xFF,
  0xFC, 0xFE, 0x04, 0xFB, 0x11, 0x06, 0x03, 0xFE, 0xFD, 0xFF,
  0x03, 0xFE, 0xFA, 0xF6, 0x02, 0x02, 0x07, 0xFE, 0x05, 0xFF,
  0x05, 0x07, 0x06, 0xFD, 0xFF, 0x01, 0x11, 0x01, 0x02, 0x04,
  0x06, 0x03, 0x08, 0xF6, 0x03, 0x03, 0x1E, 0x01, 0x02, 0xF8,
  0xFF, 0x11, 0x03, 0x02, 0xF7, 0xF9, 0x00, 0x0F, 0xFD, 0x03,
  0x08, 0xFA, 0x03, 0x0C, 0x08, 0x03, 0xFB, 0x15, 0x0D, 0x03,
  0x00, 0x02, 0x0B, 0x02, 0x07, 0xF7, 0x04, 0x0A, 0x05, 0x03,
  0xFE, 0xF6, 0x08, 0x02, 0xFE, 0x03, 0x02, 0xFB, 0x06, 0x09,
  0xFF, 0x03, 0x03, 0xF8, 0x02, 0x09, 0x04, 0x05, 0x01, 0x0E,
  0x0F, 0x04, 0x01, 0x02, 0x05, 0x09, 0x00, 0xFB, 0x06, 0x07,
  0xFC, 0x07, 0xFD, 0xEF, 0x0F, 0xFD, 0x00, 0x02, 0xFD, 0xF6,
  0x02, 0x0A, 0x07, 0xFB, 0x00, 0xF6, 0x03, 0x0A, 0x07, 0xFF,
  0x04, 0x00, 0x04, 0xFC, 0x04, 0x04, 0x01, 0x03, 0xFE, 0xFA,
  0xFD, 0x02, 0xFE, 0x02, 0x04, 0xFB, 0x07, 0x01, 0x03, 0x02,
  0xFA, 0xFD, 0x08, 0x0C, 0xFD, 0xFE, 0xFC, 0x02, 0x00, 0x04,
  0x05, 0xFD, 0xF6, 0x0A, 0xFB, 0x08, 0x05, 0x05, 0xF4, 0x00,
  0x02, 0x05, 0x0B, 0x02, 0x21, 0x01, 0x02, 0x02, 0x08, 0x00,
  0x07, 0x1A, 0x0C, 0xFE, 0x07, 0x08, 0x09, 0x04, 0x03, 0xED,
  0x00, 0xF5, 0x22, 0xFD, 0x01, 0xFE, 0x01, 0x0E, 0xF8, 0x04,
  0x04, 0x01, 0x00, 0x05, 0xFA, 0x01, 0x00, 0x02, 0x02, 0xFF,
  0xFC, 0xFB, 0xEF, 0xFD, 0xFD, 0xFE, 0xF6, 0xFE, 0xF0, 0xFD,
  0x03, 0x02, 0x04, 0x06, 0xF1, 0x02, 0x03, 0x0E, 0x01, 0xEC,
  0x04, 0x06, 0x06, 0xFE, 0x03, 0x03, 0x08, 0xFE, 0x0F, 0xEE,
  0xF9, 0x01, 0x06, 0xE2, 0xF1, 0x03, 0xFF, 0xF7, 0x0C, 0xFF,
  0x02, 0x01, 0x00, 0x06, 0x03, 0xE8, 0x06, 0x04, 0x03, 0x00,
  0xFF, 0x0A, 0xFF, 0x04, 0x03, 0xF7, 0x02, 0xFF, 0x03, 0xF4,
  0xF8, 0x03, 0xF9, 0xFD, 0xFE, 0x05, 0xE8, 0x05, 0x01, 0x01,
  0xFE, 0xFE, 0x01, 0xF9, 0xEE, 0x03, 0xE9, 0x0E, 0xF5, 0x00,
  0x00, 0x12, 0xFE, 0xF7, 0x02, 0xFD, 0xFF, 0xF8, 0x02, 0xF5,
  0xFD, 0xFF, 0x02, 0x02, 0x06, 0xF8, 0xFD, 0xF6, 0x08, 0xF9,
  0xFF, 0xFB, 0x08, 0xFC, 0xFD, 0x0F, 0xFE, 0xF5, 0x07, 0xF3,
  0x07, 0xFE, 0xF4, 0xF9, 0xF6, 0x07, 0xF9, 0x02, 0x04, 0x06,
  0xFC, 0x05, 0x07, 0xFE, 0x02, 0x0D, 0xFA, 0xF8, 0x00, 0x03,
  0x00, 0x15, 0xFF, 0xF8, 0xAD, 0xFD, 0xF6, 0xEF, 0x01, 0x04,
  0x04, 0x02, 0xF2, 0xFD, 0x0B, 0x0C, 0x04, 0x0A, 0x02, 0xFF,
  0xFE, 0x05, 0x05, 0xF9, 0xFB, 0x08, 0x07, 0xFE, 0x02, 0x01,
  0xFF, 0xFD, 0xF7, 0xC7, 0xFC, 0x0A, 0x46, 0x06, 0x05, 0x00,
  0x03, 0xFC, 0x01, 0xFA, 0xF8, 0xFE, 0x02, 0xF8, 0x04, 0xFC,
  0xFD, 0x0D, 0x04, 0x08, 0xF9, 0x09, 0x0C, 0xFE, 0x0D, 0x05,
  0x03, 0x04, 0x09, 0x0F, 0x00, 0x38, 0x06, 0x02, 0xC0, 0xFE,
  0x00, 0xFD, 0xFC, 0xF8, 0x05, 0x0F, 0x13, 0xF8, 0xFF, 0xFD,
  0x02, 0x03, 0xFD, 0xE9, 0x03, 0xFC, 0x02, 0xF8, 0xF9, 0xFE,
  0xFF, 0x04, 0xFA, 0xFF, 0x00, 0xF7, 0x05, 0xD9, 0x01, 0x00,
  0x10, 0xF9, 0x08, 0xFA, 0x00, 0x01, 0xFB, 0x00, 0xF4, 0x02,
  0x04, 0x05, 0xF7, 0x02, 0x00, 0xFF, 0x03, 0xF5, 0xF6, 0x06,
  0x04, 0xFE, 0x1F, 0xFF, 0x03, 0x08, 0xFE, 0x0B, 0x03, 0x11,
  0xF3, 0xFE, 0x02, 0xFD, 0xF0, 0xFF, 0xEA, 0xFC, 0x01, 0x02,
  0x07, 0xFE, 0xF3, 0x00, 0x02, 0x02, 0xF8, 0x02, 0xEF, 0xF5,
  0x05, 0xFF, 0xF4, 0x02, 0xFA, 0x02, 0x08, 0xFC, 0xF5, 0x07,
  0xFA, 0xF1, 0x04, 0xD4, 0x09, 0xFF, 0xFF, 0xF9, 0x07, 0x08,
