const unsigned char model_tflite[] = {
  0x1C, 0x00, 0x00, 0x00, 0x54, 0x46, 0x4C, 0x33, 0x14, 0x00,
  0x20, 0x00, 0x1C, 0x00, 0x18, 0x00, 0x14, 0x00, 0x10, 0x00,
  0x0C, 0x00, 0x00, 0x00, 0x08, 0x00, 0x04, 0x00, 0x14, 0x00,
  0x00, 0x00, 0x1C, 0x00, 0x00, 0x00, 0x80, 0x00, 0x00, 0x00,
  0xD0, 0x00, 0x00, 0x00, 0xF4, 0x27, 0x00, 0x00, 0x04, 0x28,
  0x00, 0x00, 0x5C, 0x4A, 0x00, 0x00, 0x03, 0x00, 0x00, 0x00,
  0x01, 0x00, 0x00, 0x00, 0x04, 0x00, 0x00, 0x00, 0x62, 0xD3,
  0xFF, 0xFF, 0x0C, 0x00, 0x00, 0x00, 0x1C, 0x00, 0x00, 0x00,
  0x34, 0x00, 0x00, 0x00, 0x0F, 0x00, 0x00, 0x00, 0x73, 0x65,
  0x72, 0x76, 0x69, 0x6E, 0x67, 0x5F, 0x64, 0x65, 0x66, 0x61,
  0x75, 0x6C, 0x74, 0x00, 0x01, 0x00, 0x00, 0x00, 0x04, 0x00,
  0x00, 0x00, 0x68, 0xD2, 0xFF, 0xFF, 0x2D, 0x00, 0x00, 0x00,
  0x04, 0x00, 0x00, 0x00, 0x02, 0x00, 0x00, 0x00, 0x46, 0x32,
  0x00, 0x00, 0x01, 0x00, 0x00, 0x00, 0x04, 0x00, 0x00, 0x00,
  0x62, 0xD3, 0xFF, 0xFF, 0x04, 0x00, 0x00, 0x00, 0x0B, 0x00,
  0x00, 0x00, 0x69, 0x6E, 0x70, 0x75, 0x74, 0x5F, 0x6C, 0x61,
  0x79, 0x65, 0x72, 0x00, 0x02, 0x00, 0x00, 0x00, 0x2C, 0x00,
  0x00, 0x00, 0x04, 0x00, 0x00, 0x00, 0xA8, 0xD2, 0xFF, 0xFF,
  0x30, 0x00, 0x00, 0x00, 0x04, 0x00, 0x00, 0x00, 0x13, 0x00,
  0x00, 0x00, 0x43, 0x4F, 0x4E, 0x56, 0x45, 0x52, 0x53, 0x49,
  0x4F, 0x4E, 0x5F, 0x4D, 0x45, 0x54, 0x41, 0x44, 0x41, 0x54,
  0x41, 0x00, 0xCC, 0xD2, 0xFF, 0xFF, 0x2F, 0x00, 0x00, 0x00,
  0x04, 0x00, 0x00, 0x00, 0x13, 0x00, 0x00, 0x00, 0x6D, 0x69,
  0x6E, 0x5F, 0x72, 0x75, 0x6E, 0x74, 0x69, 0x6D, 0x65, 0x5F,
  0x76, 0x65, 0x72, 0x73, 0x69, 0x6F, 0x6E, 0x00, 0x31, 0x00,
  0x00, 0x00, 0x20, 0x27, 0x00, 0x00, 0x18, 0x27, 0x00, 0x00,
  0xFC, 0x26, 0x00, 0x00, 0xE0, 0x26, 0x00, 0x00, 0xC4, 0x26,
  0x00, 0x00, 0xB0, 0x26, 0x00, 0x00, 0x9C, 0x26, 0x00, 0x00,
  0x94, 0x26, 0x00, 0x00, 0x80, 0x26, 0x00, 0x00, 0x6C, 0x26,
  0x00, 0x00, 0x50, 0x26, 0x00, 0x00, 0x38, 0x26, 0x00, 0x00,
  0x18, 0x26, 0x00, 0x00, 0x08, 0x25, 0x00, 0x00, 0xF8, 0x23,
  0x00, 0x00, 0xE8, 0x07, 0x00, 0x00, 0x98, 0x07, 0x00, 0x00,
  0x08, 0x05, 0x00, 0x00, 0xD8, 0x04, 0x00, 0x00, 0x98, 0x04,
  0x00, 0x00, 0x48, 0x04, 0x00, 0x00, 0xB8, 0x01, 0x00, 0x00,
  0x88, 0x01, 0x00, 0x00, 0x48, 0x01, 0x00, 0x00, 0x40, 0x01,
  0x00, 0x00, 0x38, 0x01, 0x00, 0x00, 0x30, 0x01, 0x00, 0x00,
  0x28, 0x01, 0x00, 0x00, 0x20, 0x01, 0x00, 0x00, 0x18, 0x01,
  0x00, 0x00, 0x10, 0x01, 0x00, 0x00, 0x08, 0x01, 0x00, 0x00,
  0x00, 0x01, 0x00, 0x00, 0xF8, 0x00, 0x00, 0x00, 0xF0, 0x00,
  0x00, 0x00, 0xE8, 0x00, 0x00, 0x00, 0xE0, 0x00, 0x00, 0x00,
  0xD8, 0x00, 0x00, 0x00, 0xD0, 0x00, 0x00, 0x00, 0xC8, 0x00,
  0x00, 0x00, 0xC0, 0x00, 0x00, 0x00, 0xB8, 0x00, 0x00, 0x00,
  0xB0, 0x00, 0x00, 0x00, 0xA8, 0x00, 0x00, 0x00, 0xA0, 0x00,
  0x00, 0x00, 0x98, 0x00, 0x00, 0x00, 0x90, 0x00, 0x00, 0x00,
  0x70, 0x00, 0x00, 0x00, 0x04, 0x00, 0x00, 0x00, 0x96, 0xD4,
  0xFF, 0xFF, 0x04, 0x00, 0x00, 0x00, 0x5C, 0x00, 0x00, 0x00,
  0x0C, 0x00, 0x00, 0x00, 0x08, 0x00, 0x0E, 0x00, 0x08, 0x00,
  0x04, 0x00, 0x08, 0x00, 0x00, 0x00, 0x10, 0x00, 0x00, 0x00,
  0x2C, 0x00, 0x00, 0x00, 0x00, 0x00, 0x06, 0x00, 0x08, 0x00,
  0x04, 0x00, 0x06, 0x00, 0x00, 0x00, 0x04, 0x00, 0x00, 0x00,
  0x02, 0x00, 0x00, 0x00, 0xEB, 0x03, 0x00, 0x00, 0xD0, 0x07,
  0x00, 0x00, 0x00, 0x00, 0x0A, 0x00, 0x10, 0x00, 0x0C, 0x00,
  0x08, 0x00, 0x04, 0x00, 0x0A, 0x00, 0x00, 0x00, 0x02, 0x00,
  0x00, 0x00, 0x02, 0x00, 0x00, 0x00, 0x04, 0x00, 0x00, 0x00,
  0x06, 0x00, 0x00, 0x00, 0x32, 0x2E, 0x31, 0x34, 0x2E, 0x31,
  0x00, 0x00, 0xFE, 0xD4, 0xFF, 0xFF, 0x04, 0x00, 0x00, 0x00,
  0x10, 0x00, 0x00, 0x00, 0x31, 0x2E, 0x31, 0x34, 0x2E, 0x30,
  0x00, 0x00, 0x00, 0x00, 0x00, 0x00, 0x00, 0x00, 0x00, 0x00,
  0x9C, 0xB8, 0xFF, 0xFF, 0xA0, 0xB8, 0xFF, 0xFF, 0xA4, 0xB8,
  0xFF, 0xFF, 0xA8, 0xB8, 0xFF, 0xFF, 0xAC, 0xB8, 0xFF, 0xFF,
  0xB0, 0xB8, 0xFF, 0xFF, 0xB4, 0xB8, 0xFF, 0xFF, 0xB8, 0xB8,
  0xFF, 0xFF, 0xBC, 0xB8, 0xFF, 0xFF, 0xC0, 0xB8, 0xFF, 0xFF,
  0xC4, 0xB8, 0xFF, 0xFF, 0xC8, 0xB8, 0xFF, 0xFF, 0xCC, 0xB8,
  0xFF, 0xFF, 0xD0, 0xB8, 0xFF, 0xFF, 0xD4, 0xB8, 0xFF, 0xFF,
  0xD8, 0xB8, 0xFF, 0xFF, 0xDC, 0xB8, 0xFF, 0xFF, 0xE0, 0xB8,
  0xFF, 0xFF, 0xE4, 0xB8, 0xFF, 0xFF, 0xE8, 0xB8, 0xFF, 0xFF,
  0xEC, 0xB8, 0xFF, 0xFF, 0xF0, 0xB8, 0xFF, 0xFF, 0xF4, 0xB8,
  0xFF, 0xFF, 0x76, 0xD5, 0xFF, 0xFF, 0x04, 0x00, 0x00, 0x00,
  0x30, 0x00, 0x00, 0x00, 0xB6, 0xA3, 0x79, 0x7F, 0xB3, 0xB0,
  0x5F, 0xAF, 0x81, 0x74, 0x4D, 0xAF, 0xC7, 0x78, 0xC7, 0x7F,
  0xE0, 0x55, 0x81, 0xDD, 0xDC, 0x0C, 0xF8, 0x56, 0x9E, 0x24,
  0x72, 0x81, 0xE5, 0x5F, 0x57, 0x45, 0x7F, 0x34, 0x4D, 0x40,
  0x4E, 0x60, 0x86, 0x81, 0x5A, 0x51, 0xAC, 0x62, 0x7F, 0x8D,
  0x9A, 0x45, 0xB2, 0xD5, 0xFF, 0xFF, 0x04, 0x00, 0x00, 0x00,
  0x20, 0x00, 0x00, 0x00, 0x4C, 0x00, 0x00, 0x00, 0x4C, 0x00,
  0x00, 0x00, 0x66, 0x01, 0x00, 0x00, 0xB8, 0xFF, 0xFF, 0xFF,
  0x2B, 0x00, 0x00, 0x00, 0xF3, 0x00, 0x00, 0x00, 0x57, 0x00,
  0x00, 0x00, 0x3F, 0x00, 0x00, 0x00, 0xDE, 0xD5, 0xFF, 0xFF,
  0x04, 0x00, 0x00, 0x00, 0x80, 0x02, 0x00, 0x00, 0x3B, 0x17,
  0x05, 0xDA, 0x21, 0x16, 0xD5, 0x04, 0x1C, 0xAC, 0xE9, 0xEC,
  0x7F, 0xEF, 0xF6, 0x2E, 0xB7, 0xDB, 0x03, 0x11, 0x52, 0xF5,
  0x6C, 0x09, 0xCC, 0x4F, 0xF3, 0xEE, 0x39, 0xF0, 0x5B, 0xB4,
  0x2F, 0x3A, 0x13, 0x2F, 0x1E, 0xDD, 0xF2, 0xDC, 0x30, 0x0C,
  0x29, 0xFE, 0x98, 0x03, 0xBA, 0x40, 0x49, 0x76, 0x1B, 0xF0,
  0xBB, 0xCB, 0xD7, 0xB2, 0xA4, 0x3A, 0xEE, 0xE2, 0xD7, 0x1B,
  0x52, 0xCF, 0xE4, 0x9F, 0x1D, 0xEE, 0xEF, 0xE6, 0x30, 0x7F,
  0x27, 0xCD, 0xD8, 0xF3, 0x36, 0xF3, 0xD3, 0x1E, 0x0F, 0x34,
  0xF4, 0x1F, 0xCE, 0xC4, 0x05, 0xDE, 0x81, 0x27, 0xD0, 0x0D,
  0xF1, 0x0F, 0x73, 0xD1, 0xC3, 0x94, 0x06, 0x0C, 0x37, 0x00,
  0x2F, 0x53, 0x5D, 0xD1, 0xF7, 0x0A, 0x00, 0xF2, 0x84, 0x2F,
  0x2E, 0x22, 0xEA, 0x01, 0x04, 0x3A, 0xD0, 0xC4, 0x30, 0xA4,
  0xC7, 0xDD, 0x14, 0xED, 0xC4, 0x54, 0xA4, 0x93, 0x08, 0x00,
  0x51, 0xF5, 0x4C, 0x5B, 0xA1, 0x3F, 0x09, 0xF8, 0x9E, 0xED,
  0x4C, 0xE6, 0x5F, 0x79, 0x0E, 0xEB, 0x87, 0x03, 0x8F, 0xB0,
  0x73, 0xFA, 0x2E, 0x2F, 0xF0, 0x28, 0x81, 0x0A, 0x13, 0xFD,
  0xC0, 0xE8, 0x4B, 0xFF, 0xE0, 0xDD, 0x0F, 0xF1, 0x81, 0xF1,
  0x57, 0xE9, 0xE7, 0xBF, 0x0E, 0x1B, 0xC1, 0xC0, 0xD3, 0xF6,
  0xF8, 0xD9, 0x1A, 0x30, 0x05, 0xFA, 0xA6, 0x21, 0xF1, 0xF1,
  0x16, 0x36, 0xE8, 0x31, 0xCC, 0x1B, 0xE1, 0xE8, 0x0F, 0xBB,
  0x5C, 0xC6, 0x0C, 0x05, 0xB6, 0x1E, 0x1B, 0xFC, 0x41, 0x21,
  0xF0, 0x12, 0xAC, 0xCE, 0xCA, 0x0B, 0x03, 0xF9, 0xB4, 0x12,
  0xC3, 0xCC, 0x81, 0xD1, 0x30, 0xA1, 0xD7, 0xD0, 0x2C, 0xE6,
  0xCD, 0xAE, 0x43, 0xE8, 0x04, 0xF6, 0xDB, 0xF3, 0x0C, 0x04,
  0x1A, 0x0E, 0x01, 0x3B, 0xF8, 0xF8, 0x11, 0x07, 0x81, 0xC7,
  0xF5, 0xFB, 0xEA, 0x02, 0xF9, 0x0E, 0xD2, 0x1C, 0xFB, 0x82,
  0xF7, 0xF6, 0x06, 0x04, 0x57, 0x64, 0xF4, 0xD3, 0xED, 0x02,
  0xFB, 0x06, 0x1E, 0x0D, 0xF6, 0x2B, 0xF8, 0xF6, 0xFA, 0xF9,
  0x44, 0x0E, 0xD7, 0xC7, 0x03, 0x25, 0x00, 0x09, 0x8E, 0x1E,
  0x1C, 0xF6, 0xF5, 0xE8, 0xFE, 0x0B, 0xE6, 0x05, 0xED, 0x7F,
  0xEC, 0xE7, 0x08, 0x08, 0x68, 0x0A, 0xC3, 0x01, 0xFD, 0x18,
  0x01, 0x07, 0xDC, 0xFF, 0x04, 0xB3, 0x02, 0xF7, 0xFB, 0x0A,
  0x13, 0x53, 0xFC, 0x01, 0x0C, 0xF7, 0xED, 0xFB, 0x09, 0x68,
  0x38, 0x12, 0x27, 0x1D, 0x33, 0xED, 0x37, 0x69, 0x15, 0x0E,
  0xF7, 0x1A, 0x1E, 0x26, 0x1D, 0x7F, 0xE8, 0x12, 0xEC, 0x27,
  0x12, 0x08, 0x0A, 0x34, 0x12, 0x14, 0x0C, 0x07, 0xF7, 0x0C,
  0x1E, 0xED, 0xE6, 0x18, 0x06, 0x06, 0xF4, 0xFD, 0x29, 0x06,
  0xEE, 0x94, 0x0A, 0x18, 0xFD, 0xFE, 0x81, 0xF5, 0x28, 0xF7,
  0xF8, 0xE7, 0x02, 0xFD, 0x02, 0xDF, 0xFB, 0x5C, 0x01, 0x03,
  0x07, 0xF2, 0x1C, 0xED, 0xF6, 0xF7, 0xFB, 0x1C, 0x0B, 0x19,
  0x14, 0xED, 0x4E, 0x02, 0x04, 0xE1, 0xFE, 0x00, 0x08, 0xF6,
  0x7F, 0xED, 0x23, 0xD4, 0xFF, 0xF4, 0xF5, 0x03, 0x74, 0x06,
  0x1B, 0xF8, 0x2B, 0xE9, 0x10, 0x00, 0x67, 0xF8, 0x0A, 0x06,
  0x2C, 0x0F, 0x00, 0xFC, 0x54, 0xF5, 0xEB, 0xDB, 0xE6, 0x25,
  0xD5, 0x0E, 0xE0, 0xD3, 0x5A, 0xF7, 0xCE, 0x25, 0xE5, 0xFD,
  0xF3, 0xFA, 0x7E, 0x69, 0x32, 0xDE, 0xFE, 0xFB, 0xD2, 0xE2,
  0x30, 0x7F, 0x16, 0x2B, 0xE4, 0xEE, 0xC8, 0x05, 0xF8, 0x31,
  0x10, 0x3C, 0x08, 0xF2, 0xC7, 0x13, 0x22, 0x1A, 0xFA, 0x01,
  0x0F, 0x1A, 0xFF, 0xE9, 0xFD, 0xF9, 0x06, 0xFA, 0x40, 0x0E,
  0xE7, 0x49, 0xFE, 0x0F, 0xFD, 0x05, 0xA4, 0x81, 0xED, 0x23,
  0x01, 0x12, 0xF0, 0x07, 0xE6, 0x02, 0xF7, 0xC0, 0x08, 0x02,
  0x0C, 0x01, 0x1A, 0x1A, 0x00, 0xE6, 0xF6, 0xFE, 0xF3, 0xEB,
  0x2C, 0x12, 0xF7, 0x39, 0x04, 0x1B, 0xF5, 0x02, 0xCC, 0x81,
  0xF6, 0x2D, 0x0B, 0x0E, 0xFC, 0xF8, 0xD5, 0xE3, 0xE9, 0x00,
  0x11, 0x05, 0xF3, 0x01, 0x2E, 0xFC, 0xFB, 0xE4, 0x0D, 0x01,
  0xF8, 0x0D, 0xF2, 0xEC, 0x09, 0x37, 0x00, 0xEE, 0xB5, 0xDE,
  0xF1, 0x0E, 0x31, 0xD2, 0x46, 0x04, 0x81, 0x2D, 0x19, 0x23,
  0xE3, 0xFC, 0x7C, 0xD2, 0x16, 0x53, 0xEA, 0xF6, 0xD8, 0xF7,
  0xE0, 0x98, 0x66, 0xCA, 0x11, 0x25, 0x1D, 0xFE, 0xA0, 0x27,
  0xEF, 0xBD, 0xFD, 0xDE, 0x3F, 0x19, 0x0E, 0x21, 0xF8, 0x44,
  0x27, 0x38, 0x9F, 0x25, 0x31, 0xE2, 0xCE, 0x2B, 0x18, 0x0F,
  0xFE, 0x7B, 0x41, 0xBF, 0xE5, 0xD8, 0x20, 0xD5, 0xE3, 0x7F,
  0x19, 0x5A, 0x1D, 0xD9, 0xE6, 0xE5, 0xCC, 0x1B, 0xE6, 0x1B,
  0xEE, 0x2C, 0x44, 0x29, 0x05, 0x5B, 0xFB, 0xD4, 0x6A, 0xD8,
  0xFF, 0xFF, 0x04, 0x00, 0x00, 0x00, 0x40, 0x00, 0x00, 0x00,
  0x80, 0xFC, 0xFF, 0xFF, 0x35, 0xFF, 0xFF, 0xFF, 0xD5, 0x01,
  0x00, 0x00, 0xE3, 0x01, 0x00, 0x00, 0xB8, 0x05, 0x00, 0x00,
  0xEA, 0x0A, 0x00, 0x00, 0xA2, 0x01, 0x00, 0x00, 0xB8, 0xFF,
  0xFF, 0xFF, 0x8D, 0xF9, 0xFF, 0xFF, 0xB0, 0xFF, 0xFF, 0xFF,
  0xE3, 0xFB, 0xFF, 0xFF, 0x2C, 0xFD, 0xFF, 0xFF, 0x09, 0x00,
  0x00, 0x00, 0xDD, 0xFF, 0xFF, 0xFF, 0xCA, 0x01, 0x00, 0x00,
  0x98, 0xFA, 0xFF, 0xFF, 0xB6, 0xD8, 0xFF, 0xFF, 0x04, 0x00,
  0x00, 0x00, 0x30, 0x00, 0x00, 0x00, 0x1D, 0xAF, 0xE6, 0x7F,
  0x0E, 0xA9, 0xD7, 0xCC, 0x81, 0xED, 0xE2, 0x30, 0xEE, 0x66,
  0xE1, 0x7F, 0x01, 0x6E, 0xBA, 0xAF, 0x7F, 0x1C, 0x9E, 0x28,
  0xDF, 0x50, 0x1F, 0x81, 0xF1, 0x58, 0x23, 0xED, 0x7F, 0x0A,
  0x25, 0x31, 0x60, 0x1A, 0x81, 0xE3, 0x5B, 0x11, 0xA5, 0xEA,
  0x7F, 0x1E, 0xA9, 0xEF, 0xF2, 0xD8, 0xFF, 0xFF, 0x04, 0x00,
  0x00, 0x00, 0x20, 0x00, 0x00, 0x00, 0x33, 0x00, 0x00, 0x00,
  0x52, 0x00, 0x00, 0x00, 0x55, 0x01, 0x00, 0x00, 0xA6, 0xFF,
  0xFF, 0xFF, 0x3C, 0x00, 0x00, 0x00, 0xB5, 0x00, 0x00, 0x00,
  0x43, 0x00, 0x00, 0x00, 0x39, 0x00, 0x00, 0x00, 0x1E, 0xD9,
  0xFF, 0xFF, 0x04, 0x00, 0x00, 0x00, 0x80, 0x02, 0x00, 0x00,
  0x5D, 0xF1, 0x10, 0xEF, 0xC4, 0x0C, 0x10, 0x18, 0x3A, 0xE0,
  0xE9, 0x1C, 0xE5, 0x26, 0xB0, 0x5E, 0xAD, 0x07, 0xFA, 0x17,
  0x6A, 0xF9, 0xE7, 0x37, 0xB2, 0xF4, 0xF6, 0x09, 0x6A, 0xF3,
  0x7F, 0xA1, 0x41, 0x2B, 0xD8, 0x35, 0xEB, 0xE1, 0x56, 0xB7,
  0x38, 0x03, 0x11, 0xC4, 0xDE, 0xE7, 0xE7, 0x3A, 0x6B, 0x16,
  0x02, 0xDD, 0xAA, 0xC0, 0x24, 0xED, 0xFD, 0x00, 0xFE, 0xD1,
  0x01, 0x11, 0x7F, 0xA0, 0xA2, 0xFD, 0x1B, 0xE2, 0x65, 0xDD,
  0x03, 0x15, 0xE9, 0x05, 0xD8, 0xF6, 0x18, 0x06, 0xB9, 0x46,
  0x2F, 0x20, 0xEF, 0xE4, 0xBB, 0xAE, 0x09, 0xFA, 0xFB, 0x06,
  0x01, 0xE3, 0x00, 0x31, 0x7F, 0x85, 0xA3, 0x00, 0x13, 0x0A,
  0x51, 0xFF, 0xE8, 0xFA, 0x17, 0xFF, 0xEC, 0x04, 0xEA, 0xF6,
  0x83, 0x71, 0x4C, 0xF3, 0xFC, 0x1C, 0xBF, 0x37, 0xF3, 0xF7,
  0xDF, 0xFD, 0xDB, 0xF7, 0x1D, 0x0F, 0xC2, 0x2D, 0x9F, 0x04,
  0x0B, 0xFA, 0x63, 0xEF, 0x07, 0xF1, 0xFA, 0x12, 0x00, 0xCC,
  0xE6, 0xF3, 0x3B, 0xB4, 0x69, 0x0A, 0x03, 0x0D, 0x81, 0xE8,
  0xF7, 0xFB, 0x28, 0x0A, 0x24, 0xF8, 0xD9, 0x1D, 0xAE, 0x3D,
  0x01, 0x0B, 0xCA, 0x0E, 0x07, 0x0D, 0xF4, 0xFC, 0xFD, 0x26,
  0x81, 0xF9, 0x04, 0x20, 0xE7, 0x02, 0x16, 0xCF, 0x9C, 0x27,
  0xEA, 0x26, 0x17, 0xD1, 0x13, 0x1E, 0xFE, 0xC2, 0xCC, 0xFA,
  0x15, 0xF7, 0x2C, 0xEF, 0xEE, 0x0B, 0xDC, 0x10, 0x05, 0xED,
  0x19, 0xDB, 0x52, 0xA0, 0xC7, 0xB7, 0xBE, 0x3B, 0x2D, 0x0E,
  0x06, 0xD9, 0xB2, 0x2C, 0xDE, 0xEA, 0xE6, 0x07, 0x31, 0xCC,
  0xC3, 0x00, 0x29, 0xAF, 0x81, 0x08, 0x1A, 0xDF, 0x20, 0xD6,
  0xF1, 0xE3, 0xC7, 0xFE, 0x14, 0x24, 0xF6, 0x28, 0x91, 0x19,
  0x0D, 0x05, 0x18, 0x01, 0xEF, 0x11, 0xFF, 0x00, 0xFD, 0xAA,
  0x81, 0xD7, 0xF5, 0x20, 0x1E, 0x0E, 0xEB, 0x6E, 0xAF, 0x5D,
  0x0D, 0x8D, 0xE3, 0xCE, 0x0B, 0x58, 0x5F, 0x2B, 0xE7, 0xC7,
  0xE2, 0x06, 0xF7, 0xD0, 0x2C, 0x0E, 0xF2, 0x0A, 0x0E, 0xFB,
  0xFA, 0x13, 0x32, 0xF3, 0xF7, 0x0E, 0x08, 0x01, 0x04, 0x0C,
  0xB7, 0xFA, 0xFB, 0xBA, 0x04, 0x08, 0xF9, 0xF5, 0xD7, 0x0A,
  0xFE, 0x7F, 0xFC, 0xE0, 0x0E, 0xEB, 0x4C, 0xF0, 0xEA, 0x2D,
  0xF9, 0x07, 0xFE, 0x10, 0xFF, 0xE5, 0x02, 0x8B, 0xF4, 0x1C,
  0x0F, 0x3B, 0xFD, 0x29, 0x12, 0x04, 0x22, 0xE0, 0xD1, 0x7F,
  0x37, 0x1C, 0x30, 0x25, 0x20, 0x10, 0x06, 0x17, 0x4F, 0x4C,
  0x23, 0xF3, 0xE9, 0x30, 0x26, 0x78, 0x39, 0x31, 0x07, 0x43,
  0x02, 0x20, 0x42, 0x48, 0x2F, 0x5A, 0xE6, 0x17, 0x10, 0xDB,
  0x0D, 0xF0, 0x0D, 0xF5, 0xFC, 0x4C, 0xFE, 0xF9, 0xFF, 0xF6,
  0x33, 0x09, 0x01, 0x91, 0xEF, 0x1C, 0xF1, 0x0D, 0xB9, 0xF1,
  0x11, 0xD8, 0xF8, 0x15, 0x03, 0xE7, 0xD5, 0xF2, 0xF4, 0x7F,
  0x05, 0xF9, 0xF9, 0xDC, 0x3D, 0xF6, 0xFD, 0xE5, 0xFC, 0x12,
  0xE8, 0xE1, 0xFD, 0x61, 0x5B, 0x3D, 0x0B, 0xDD, 0xCD, 0xDB,
  0xE7, 0x5E, 0x7F, 0x24, 0xB0, 0x46, 0xFD, 0xD8, 0xDB, 0x6B,
  0x35, 0x45, 0xA7, 0x6A, 0x18, 0xDB, 0xF5, 0x62, 0x1A, 0x28,
  0xD8, 0x3F, 0x19, 0xED, 0xF4, 0x3B, 0x1B, 0x13, 0x00, 0x08,
  0x16, 0xEF, 0xE2, 0xE4, 0x1F, 0xEC, 0x3A, 0xEF, 0xE7, 0xF5,
  0xF6, 0x0B, 0x7F, 0xF0, 0x58, 0x06, 0xED, 0xEA, 0xFB, 0x18,
  0x52, 0xD6, 0x15, 0x48, 0x49, 0xED, 0xF0, 0xD2, 0xD3, 0xFA,
  0x0C, 0x4C, 0x34, 0xEC, 0x1C, 0xFF, 0x02, 0xFE, 0x27, 0x07,
  0x07, 0x31, 0x2B, 0x1A, 0xFF, 0xCB, 0xEC, 0xF9, 0x20, 0xBE,
  0x63, 0xCA, 0xDD, 0x4D, 0x0C, 0x13, 0x0C, 0x81, 0x8C, 0xA8,
  0xF1, 0x51, 0x10, 0x1B, 0x03, 0x5E, 0xBF, 0x35, 0xF9, 0xB1,
  0xE9, 0xDF, 0x10, 0x25, 0x22, 0x0F, 0xE7, 0xEE, 0xFC, 0xFD,
  0xF9, 0xBC, 0x61, 0xD7, 0x10, 0x0E, 0xED, 0x1B, 0xFC, 0x81,
  0xC9, 0x9D, 0x17, 0x43, 0x2D, 0x09, 0xF6, 0xFD, 0xEA, 0xE8,
  0x0E, 0xF3, 0xFD, 0xFD, 0xFD, 0x19, 0x24, 0x07, 0xFF, 0xD3,
  0x13, 0xF4, 0x10, 0xB6, 0x05, 0xD6, 0xE8, 0x33, 0x24, 0xF1,
  0xC2, 0x1E, 0x0D, 0x59, 0x39, 0xD8, 0x32, 0xBB, 0x21, 0x03,
  0x09, 0xE6, 0xCF, 0xF1, 0x6B, 0x9F, 0x56, 0xEA, 0xFD, 0x21,
  0x85, 0x01, 0xD0, 0x21, 0xD0, 0xF1, 0x0F, 0x3B, 0x37, 0x1B,
  0x81, 0x7B, 0xB1, 0xCF, 0xEB, 0xD7, 0x4C, 0x19, 0x01, 0x07,
  0x00, 0xDC, 0x27, 0x85, 0x0E, 0xC7, 0x5A, 0xCB, 0xFC, 0x99,
  0x2A, 0xC4, 0x0C, 0x45, 0x28, 0xC9, 0xEE, 0xC4, 0x34, 0xAB,
  0xEB, 0x06, 0xD1, 0x4D, 0x05, 0xDE, 0x0B, 0xCB, 0xC7, 0xEF,
  0xF6, 0xEF, 0xE8, 0x17, 0x6B, 0xAE, 0x1F, 0x7F, 0x42, 0xB5,
  0xAA, 0xDB, 0xFF, 0xFF, 0x04, 0x00, 0x00, 0x00, 0x40, 0x00,
  0x00, 0x00, 0xB2, 0xFE, 0xFF, 0xFF, 0x0E, 0xFF, 0xFF, 0xFF,
  0x92, 0x00, 0x00, 0x00, 0xAB, 0x01, 0x00, 0x00, 0xD5, 0x05,
  0x00, 0x00, 0x3C, 0x0E, 0x00, 0x00, 0x8E, 0x02, 0x00, 0x00,
  0xA8, 0xFF, 0xFF, 0xFF, 0xB3, 0xF4, 0xFF, 0xFF, 0x17, 0xFF,
  0xFF, 0xFF, 0xDC, 0xFB, 0xFF, 0xFF, 0x54, 0xFD, 0xFF, 0xFF,
  0x91, 0xFF, 0xFF, 0xFF, 0xF3, 0xFF, 0xFF, 0xFF, 0x95, 0x01,
  0x00, 0x00, 0xB5, 0xFD, 0xFF, 0xFF, 0xF6, 0xDB, 0xFF, 0xFF,
  0x04, 0x00, 0x00, 0x00, 0x00, 0x1C, 0x00, 0x00, 0x0C, 0x0D,
  0x0C, 0x12, 0xDA, 0x01, 0xFB, 0xDF, 0xF2, 0xC7, 0xF5, 0x09,
  0xE7, 0xF8, 0x11, 0x10, 0x02, 0x13, 0x09, 0x1C, 0xCE, 0x02,
  0xF0, 0xCF, 0xF6, 0xC9, 0xF1, 0x01, 0xDF, 0xF5, 0x14, 0x09,
  0xFB, 0x0A, 0xFD, 0x1C, 0xD4, 0x06, 0xF4, 0xC6, 0xFA, 0xAE,
  0xE6, 0x0A, 0xCC, 0xFB, 0x14, 0x03, 0x06, 0x18, 0x04, 0x11,
  0xC9, 0x07, 0xF2, 0xDB, 0xF1, 0xAA, 0xE6, 0x0E, 0xEA, 0xF2,
  0x25, 0x12, 0xF7, 0x08, 0x07, 0x22, 0xC9, 0x08, 0xEE, 0xC1,
  0xF4, 0xC2, 0xE3, 0x08, 0xD7, 0xF4, 0x1B, 0x02, 0xFA, 0x12,
  0x0F, 0x14, 0xE4, 0x06, 0xF1, 0xD1, 0xFC, 0xA6, 0xE4, 0x02,
  0xED, 0xF6, 0x23, 0x0D, 0xED, 0x15, 0x04, 0x18, 0xC2, 0x08,
  0xF8, 0xD4, 0xF1, 0xB3, 0xD8, 0x0B, 0xDE, 0xE6, 0x21, 0x15,
  0x00, 0x02, 0xFA, 0x01, 0xFA, 0x02, 0xFF, 0xFD, 0x00, 0xFD,
  0x01, 0xFD, 0x03, 0x00, 0xFA, 0x05, 0x03, 0xFA, 0xFB, 0xFC,
  0xFB, 0x04, 0xF9, 0xFE, 0xFB, 0xFE, 0x04, 0xFB, 0xFE, 0xFC,
  0x01, 0xF8, 0x00, 0xFA, 0x01, 0x01, 0x06, 0xFA, 0xFE, 0xFB,
  0x03, 0xFC, 0xF9, 0xFC, 0x04, 0xF9, 0xF8, 0x01, 0xFE, 0xFE,
  0xFC, 0xFB, 0x00, 0xF7, 0xFA, 0xFF, 0x02, 0x01, 0xFA, 0xF9,
  0x04, 0x00, 0xFF, 0xF8, 0xFC, 0xF8, 0x06, 0x03, 0x00, 0x00,
  0xF9, 0x05, 0x01, 0xFC, 0xFE, 0xFC, 0xFE, 0xFF, 0xFE, 0xFC,
  0x01, 0xF9, 0x05, 0xF8, 0xFB, 0xF8, 0x01, 0x00, 0xFE, 0xFF,
  0xFD, 0xF8, 0x02, 0xFA, 0xFA, 0x01, 0xF8, 0x05, 0xFC, 0xFA,
  0x06, 0x01, 0xFC, 0xFE, 0xFA, 0x00, 0xFA, 0x01, 0x02, 0xFE,
  0x00, 0x01, 0x1A, 0xF4, 0xFF, 0x14, 0xFE, 0x06, 0xF4, 0xE3,
  0xE2, 0xE6, 0xF5, 0xFC, 0xF7, 0x15, 0x1A, 0x1B, 0x0A, 0xF0,
  0x0C, 0x1E, 0x06, 0x0F, 0xF7, 0xE2, 0xED, 0xD8, 0xF1, 0x03,
  0xFF, 0x23, 0x19, 0x20, 0x0D, 0x01, 0x08, 0x11, 0x01, 0x17,
  0xEC, 0xE6, 0xE8, 0xD3, 0xF2, 0xFC, 0xF3, 0x1B, 0x1A, 0x19,
  0x0E, 0xF7, 0x05, 0x12, 0x02, 0x11, 0xEA, 0xEA, 0xE6, 0xE1,
  0xF1, 0xFC, 0xEC, 0x17, 0x10, 0x14, 0x01, 0x00, 0xF8, 0x0C,
  0x04, 0x14, 0xEB, 0xE3, 0xE3, 0xE8, 0xF6, 0x04, 0xFD, 0x24,
  0x0F, 0x1A, 0x0B, 0xF6, 0x03, 0x12, 0x01, 0x14, 0xE3, 0xEB,
  0xE4, 0xE0, 0xEC, 0x02, 0xEC, 0x18, 0x05, 0x0F, 0x15, 0xF2,
  0xF6, 0x14, 0xFD, 0x14, 0xE4, 0xE5, 0xDE, 0xE4, 0xF4, 0xFE,
  0xE0, 0x28, 0x20, 0x27, 0xF9, 0x06, 0x13, 0x15, 0xFB, 0x1B,
  0x1E, 0xFA, 0x25, 0xFA, 0xF7, 0x02, 0x28, 0x16, 0xEC, 0xF1,
  0xF4, 0x20, 0x12, 0xF7, 0xD1, 0x23, 0x19, 0xF5, 0x1D, 0xF4,
  0xE8, 0xF7, 0x2E, 0x04, 0xE9, 0xF3, 0xF0, 0x19, 0x0F, 0x0C,
  0xF0, 0x05, 0x18, 0x06, 0x17, 0xF5, 0xF0, 0xF6, 0x07, 0x1F,
  0xF9, 0xF9, 0xFC, 0x19, 0xFA, 0xEF, 0xF3, 0x31, 0x05, 0x00,
  0x1D, 0x01, 0xF3, 0xF2, 0x35, 0xFD, 0xEE, 0xF7, 0xF0, 0x01,
  0xF8, 0x04, 0xDB, 0x16, 0x08, 0xF4, 0x0C, 0xEE, 0xFE, 0xF5,
  0x2B, 0x18, 0xE0, 0xF4, 0xF7, 0x06, 0xFA, 0x06, 0xED, 0x1A,
  0x19, 0xF7, 0x12, 0xFB, 0xF4, 0xF5, 0x20, 0x03, 0xE6, 0xF9,
  0xDA, 0xED, 0x02, 0x06, 0xEE, 0x0B, 0x15, 0xFB, 0x17, 0x09,
  0xD6, 0xE1, 0x17, 0x05, 0xD8, 0xF5, 0xF7, 0x01, 0xFF, 0xFD,
  0xF9, 0xF4, 0x06, 0x08, 0xF7, 0x05, 0x04, 0x01, 0x05, 0xFA,
  0xFC, 0x01, 0x04, 0x06, 0xFC, 0xFB, 0x06, 0x03, 0xFA, 0x03,
  0xFB, 0xFE, 0x04, 0x01, 0xFB, 0xFD, 0x04, 0x03, 0xFB, 0xFE,
  0xF9, 0xF1, 0xF8, 0xFD, 0xF7, 0xFA, 0xF8, 0x09, 0xFC, 0xFD,
  0x06, 0xFC, 0xF5, 0x03, 0x02, 0x06, 0x06, 0xF8, 0xFC, 0xF8,
  0x00, 0xFA, 0xF8, 0xFF, 0xFF, 0xF7, 0x00, 0x03, 0xFA, 0x05,
  0x01, 0xFD, 0xFE, 0xFE, 0xFE, 0x00, 0x09, 0x03, 0xF7, 0x02,
  0x01, 0xFF, 0x00, 0x00, 0xF9, 0x05, 0xFE, 0x01, 0xFF, 0xF8,
  0x06, 0xFE, 0xFE, 0x08, 0xFD, 0xFB, 0xFE, 0x03, 0xF8, 0xF9,
  0xFD, 0xFA, 0x00, 0xFA, 0xFF, 0xF6, 0xFE, 0xFE, 0x03, 0x02,
  0xF8, 0x01, 0xFA, 0xFF, 0xFD, 0x06, 0xFF, 0x08, 0x12, 0xFD,
  0xF4, 0x10, 0xFD, 0xFF, 0xFE, 0xFB, 0xF3, 0xFC, 0x10, 0xFF,
  0x01, 0x00, 0x21, 0x03, 0x11, 0xFE, 0xF4, 0x14, 0x02, 0xFD,
  0xFD, 0xFC, 0xF7, 0xFB, 0x06, 0x05, 0xFE, 0x04, 0x26, 0x00,
  0x0F, 0xF8, 0xF3, 0x10, 0xFB, 0xFE, 0xFD, 0xFB, 0xF5, 0xFD,
  0x0B, 0x04, 0x01, 0x04, 0x20, 0xFE, 0x14, 0xF9, 0xF8, 0x0B,
  0xFE, 0x05, 0xFD, 0xFC, 0xF7, 0xFC, 0x05, 0x02, 0x00, 0x01,
  0x26, 0x03, 0x14, 0xFC, 0xFC, 0x12, 0x04, 0xFD, 0x02, 0xF9,
  0xF6, 0xFD, 0x03, 0x03, 0x00, 0x00, 0x23, 0x01, 0x11, 0xFB,
  0xF6, 0x0F, 0x01, 0xFA, 0xFE, 0xF9, 0xF3, 0xFC, 0x08, 0x02,
  0xFF, 0x00, 0x2B, 0x02, 0x13, 0xFB, 0xF9, 0x0C, 0xFF, 0xFF,
  0xFC, 0xFC, 0xF2, 0xFE, 0x06, 0x02, 0xFF, 0xFE, 0x28, 0x00,
  0x03, 0xEB, 0xF9, 0xFA, 0x07, 0x0D, 0x04, 0xFF, 0xF6, 0xFE,
  0x28, 0xFF, 0x04, 0xFC, 0xF5, 0x00, 0xFD, 0xED, 0xF5, 0xF4,
  0x05, 0x0F, 0x03, 0xFF, 0xFD, 0xFD, 0x22, 0xFB, 0x06, 0xFD,
  0xF3, 0xFE, 0xFB, 0xE5, 0xF8, 0xF8, 0x04, 0x10, 0x03, 0xFC,
  0xF9, 0xFF, 0x2A, 0xFE, 0x01, 0xFE, 0xF4, 0xFF, 0xFF, 0xE8,
  0xF0, 0xF8, 0x04, 0x11, 0x03, 0xFF, 0xF4, 0xFD, 0x23, 0xFF,
  0x01, 0xFD, 0xF3, 0x00, 0xFB, 0xEB, 0xF2, 0xF8, 0x04, 0x0B,
  0x03, 0x00, 0xF3, 0x00, 0x24, 0x01, 0x01, 0x00, 0xF4, 0xFF,
  0xF8, 0xE7, 0xF6, 0xF9, 0x03, 0x0F, 0x04, 0x00, 0xF6, 0xFD,
  0x20, 0xFF, 0x02, 0xFB, 0xF7, 0x01, 0xFA, 0xE4, 0xF9, 0xF9,
  0x04, 0x0D, 0x02, 0xFF, 0xF3, 0xFD, 0x2A, 0xFB, 0x01, 0xFE,
  0xF9, 0x01, 0xF6, 0x19, 0x18, 0xEE, 0xFD, 0x07, 0xFF, 0xFA,
  0xF8, 0xFF, 0x23, 0x02, 0x01, 0x04, 0xFB, 0xFF, 0xF6, 0x21,
  0x1D, 0xF3, 0xFB, 0xFC, 0x01, 0xFA, 0xF5, 0xFC, 0x18, 0x06,
  0x01, 0x00, 0xF2, 0x06, 0xF9, 0x23, 0x12, 0xF6, 0x01, 0x07,
  0x01, 0xFA, 0xF9, 0xFC, 0x1F, 0x06, 0x01, 0x00, 0xF3, 0x05,
  0xF3, 0x20, 0x19, 0xF4, 0x00, 0x01, 0xFD, 0xFA, 0xF3, 0xFE,
  0x1E, 0x02, 0xFF, 0x02, 0xF5, 0x06, 0xFA, 0x1A, 0x1D, 0xF0,
  0xFD, 0x03, 0x00, 0xFA, 0xF6, 0xFE, 0x21, 0x06, 0xFB, 0xFF,
  0xF3, 0x05, 0xF9, 0x17, 0x1F, 0xF6, 0xFF, 0x00, 0x00, 0xFC,
  0xF0, 0xFB, 0x1C, 0x05, 0xFD, 0xFC, 0xED, 0x03, 0xF9, 0x20,
  0x16, 0xF3, 0xFC, 0xFF, 0x00, 0xFC, 0xF3, 0x02, 0x23, 0x09,
  0xFD, 0xFD, 0xF0, 0x04, 0xFC, 0x08, 0x08, 0xF9, 0x12, 0x0C,
  0x00, 0xF4, 0xF6, 0xEC, 0x06, 0x13, 0xFE, 0x03, 0xF0, 0x0E,
  0xF4, 0x11, 0x15, 0xFC, 0x07, 0x0C, 0xF7, 0xF2, 0xEF, 0xE1,
  0x02, 0x16, 0xFA, 0xFF, 0xE2, 0x08, 0x05, 0x0C, 0x1B, 0xFA,
  0x05, 0x0D, 0xF4, 0xE3, 0xEB, 0xE4, 0x04, 0x1A, 0xF6, 0x0C,
  0xEE, 0x16, 0x04, 0x04, 0x09, 0xFC, 0x0C, 0x05, 0xF9, 0xF4,
  0xF4, 0xE2, 0xF6, 0x11, 0x03, 0x06, 0xF9, 0xFC, 0xF6, 0x0B,
  0x10, 0xFE, 0xFD, 0x06, 0x03, 0xF7, 0xF8, 0xE5, 0xED, 0x12,
  0x06, 0x04, 0xEA, 0x0A, 0xFB, 0x14, 0x1D, 0xF4, 0x04, 0x0C,
  0xFA, 0xF3, 0xF1, 0xEE, 0x02, 0x19, 0x03, 0x09, 0xEF, 0x0D,
  0x13, 0x0C, 0x0B, 0xFB, 0xF5, 0x05, 0xF2, 0xF0, 0xF1, 0xE3,
  0x08, 0x1B, 0x04, 0x04, 0xF7, 0x08, 0xEE, 0xF8, 0xE8, 0x02,
  0xF6, 0x09, 0x07, 0xF0, 0x0E, 0xF3, 0xCE, 0xF5, 0x18, 0x11,
  0xD3, 0x09, 0xED, 0xF3, 0xEF, 0xF9, 0xFD, 0x0E, 0x19, 0xF4,
  0x0E, 0xFA, 0xEE, 0xFB, 0x1F, 0x06, 0xED, 0x09, 0xEC, 0xE7,
  0x00, 0xFF, 0x03, 0x05, 0x0E, 0xEE, 0x0B, 0xF7, 0xD1, 0xFB,
  0x17, 0xFC, 0xF1, 0x07, 0xEA, 0xE5, 0xEB, 0xFE, 0xF0, 0x0C,
  0x09, 0xED, 0x08, 0xED, 0xD1, 0xFC, 0x1C, 0x08, 0xD5, 0x07,
  0xE3, 0xE9, 0xE7, 0xF7, 0x04, 0x0C, 0x0E, 0xEC, 0x12, 0xF2,
  0xD1, 0xF8, 0x15, 0x0C, 0xF2, 0x09, 0xF1, 0xEC, 0xF0, 0xF8,
  0xF8, 0x0E, 0x0D, 0xEE, 0x0A, 0xF3, 0xD7, 0xFB, 0x0B, 0x01,
  0xF6, 0x0B, 0xDD, 0xE4, 0x00, 0xFE, 0x07, 0x0A, 0x14, 0xF8,
  0x19, 0xF1, 0xE0, 0xF0, 0x0F, 0x03, 0xED, 0x0E, 0x05, 0x00,
  0x06, 0x07, 0xFC, 0xFB, 0x1D, 0xF8, 0xED, 0x00, 0x02, 0xFE,
  0x18, 0x18, 0x08, 0x00, 0x02, 0xFD, 0x07, 0x06, 0x02, 0xFA,
  0x1E, 0xF3, 0xED, 0xFA, 0x0A, 0xFD, 0x19, 0x17, 0xFD, 0x0E,
  0x01, 0xFF, 0xFD, 0x0A, 0x08, 0x00, 0x1E, 0xFF, 0xEE, 0xFB,
  0x06, 0x00, 0x20, 0x0F, 0x05, 0x12, 0x05, 0x01, 0x04, 0xFF,
  0xFE, 0x00, 0x1E, 0xF9, 0xE1, 0xFF, 0x0C, 0x03, 0x15, 0x1F,
  0x05, 0x0A, 0xFB, 0x05, 0xFF, 0x0F, 0xF5, 0x00, 0x11, 0x05,
  0xE5, 0xF8, 0xFE, 0xFD, 0x13, 0x1D, 0x06, 0x0D, 0xF9, 0x04,
  0xF7, 0xFB, 0xFB, 0x02, 0x1B, 0x01, 0xE6, 0x07, 0x01, 0x05,
  0x2A, 0x10, 0xFB, 0x0E, 0x08, 0xFB, 0x04, 0x05, 0xFC, 0xFD,
  0x0C, 0xF0, 0xDE, 0x04, 0xFE, 0xFB, 0x16, 0x1E, 0x02, 0x02,
  0x04, 0xF2, 0x08, 0x02, 0x06, 0xEE, 0x0D, 0xF9, 0xF0, 0xF3,
  0xC9, 0x08, 0x17, 0x06, 0x0B, 0x07, 0x08, 0xF7, 0x08, 0xFF,
  0x06, 0xF6, 0x13, 0xF4, 0xFB, 0xF9, 0xD6, 0x0F, 0x1B, 0x0D,
  0xEC, 0x13, 0x0B, 0xF6, 0x05, 0x01, 0x0F, 0xF2, 0x0E, 0xEF,
  0xFC, 0xF5, 0xE2, 0x0B, 0x16, 0x08, 0xF7, 0x0F, 0xFC, 0xFB,
  0x14, 0xF5, 0x06, 0xFA, 0x12, 0xF0, 0xF9, 0xEE, 0xD5, 0x06,
  0x15, 0x10, 0xFD, 0x16, 0x01, 0x04, 0xF6, 0x02, 0xFE, 0xF7,
  0x14, 0xFD, 0xF8, 0xF9, 0xE5, 0x0A, 0x13, 0x07, 0x04, 0x0E,
  0x01, 0xF0, 0x0B, 0x01, 0xF1, 0xF9, 0x18, 0xF8, 0xF7, 0xF7,
  0xD8, 0x05, 0x11, 0x00, 0x0C, 0x1A, 0xFE, 0xEE, 0x13, 0xFA,
  0x16, 0xFA, 0x10, 0xF5, 0xF6, 0xEA, 0xE2, 0x0A, 0x04, 0x0A,
  0xF7, 0x13, 0x0E, 0xFC, 0xEE, 0x16, 0x22, 0xFB, 0xF1, 0x02,
  0x0F, 0x18, 0x21, 0x01, 0xED, 0xF8, 0xDE, 0xFC, 0x00, 0x06,
  0xF6, 0x13, 0x10, 0xFE, 0xF1, 0x01, 0x04, 0x0B, 0x1C, 0x01,
  0xEA, 0x00, 0xF2, 0xFD, 0x07, 0x0D, 0xF9, 0x16, 0x19, 0xFA,
  0xF2, 0x10, 0xFF, 0x11, 0x1F, 0xFF, 0xF6, 0xF4, 0xF9, 0xFB,
  0x0A, 0xF7, 0xF9, 0x17, 0x1D, 0x04, 0xF1, 0x05, 0x08, 0x1A,
  0x0F, 0x02, 0xEF, 0xF7, 0xE7, 0xFD, 0xFE, 0xF9, 0xFF, 0x1B,
  0x1E, 0x0A, 0xF9, 0x01, 0x0F, 0x13, 0x14, 0x00, 0xEE, 0xF8,
  0xF9, 0x06, 0x0E, 0xFF, 0x09, 0x1A, 0x16, 0x02, 0xFC, 0x0A,
  0x00, 0x1F, 0x0B, 0xFE, 0xF4, 0xFA, 0xFD, 0x05, 0x08, 0xFA,
  0x09, 0x1A, 0x17, 0x04, 0xF5, 0x0E, 0x0C, 0x15, 0xF7, 0xF5,
  0xF0, 0xF8, 0xF3, 0xF7, 0x0F, 0x02, 0x07, 0x0F, 0x00, 0xFB,
  0x03, 0x04, 0xE8, 0x00, 0xFE, 0x13, 0x03, 0xFD, 0x16, 0xFB,
  0x0B, 0x02, 0x06, 0x0E, 0xFD, 0xFE, 0xFF, 0x01, 0xE5, 0x04,
  0x00, 0x10, 0x02, 0x01, 0x0D, 0xF7, 0x0D, 0x05, 0x09, 0x12,
  0x01, 0xFD, 0x03, 0x03, 0xE5, 0x03, 0xFA, 0x11, 0x01, 0xFF,
  0x12, 0xFC, 0x0D, 0x09, 0x03, 0x12, 0x03, 0xFB, 0x01, 0x02,
  0xE7, 0x03, 0xFE, 0x10, 0xFF, 0x00, 0x0A, 0xFB, 0x0B, 0x0D,
  0x03, 0x11, 0x03, 0xFE, 0xFE, 0x03, 0xEC, 0x02, 0xFD, 0x10,
  0x01, 0xFF, 0x0A, 0xFB, 0x0E, 0x03, 0x05, 0x0D, 0xFE, 0xFB,
  0x00, 0x04, 0xE6, 0x02, 0x02, 0x12, 0x02, 0xFE, 0x0F, 0xF9,
  0x0E, 0x06, 0x03, 0x16, 0x05, 0xFC, 0x02, 0x00, 0xE3, 0xFF,
  0x0B, 0x14, 0x00, 0x00, 0x09, 0xFC, 0xF6, 0x01, 0x13, 0xEB,
  0xCF, 0x0D, 0x0F, 0xF0, 0xF6, 0xE8, 0xE7, 0x12, 0x1E, 0x22,
  0xF6, 0x12, 0xF7, 0xF0, 0x03, 0xED, 0xCC, 0x08, 0x0F, 0xF3,
  0xF0, 0xE7, 0xF8, 0x17, 0x22, 0x31, 0xEF, 0x0D, 0xFF, 0x07,
  0xFE, 0xF1, 0xD6, 0x0B, 0xF8, 0xF5, 0xF6, 0xE7, 0xF6, 0x0F,
  0x2A, 0x17, 0xF0, 0x1A, 0xF4, 0xF5, 0x09, 0xED, 0xD4, 0x08,
  0x09, 0xF2, 0xF7, 0xE6, 0xE7, 0x16, 0x24, 0x2E, 0xF1, 0x16,
  0x01, 0xFA, 0xFD, 0xF2, 0xD7, 0x0B, 0x05, 0xF8, 0xF8, 0xEE,
  0xF3, 0x14, 0x2A, 0x1C, 0xF7, 0x17, 0x0B, 0xF8, 0xF4, 0xEB,
  0xC2, 0x0B, 0x0A, 0xFA, 0xEF, 0xEE, 0xF3, 0x11, 0x24, 0x1A,
  0xF5, 0x12, 0xFC, 0xF7, 0xFD, 0xEA, 0xDD, 0x05, 0x17, 0xF4,
  0xF3, 0xF5, 0xF3, 0x0B, 0x14, 0x29, 0xEF, 0x13, 0x1C, 0x0B,
  0x0D, 0xD2, 0xEA, 0xEF, 0xF8, 0xFE, 0x00, 0xEF, 0x0B, 0x02,
  0xE6, 0xEC, 0xDF, 0xF6, 0x05, 0x0E, 0x02, 0xE0, 0xED, 0xC9,
  0xF1, 0xF8, 0xFB, 0x01, 0x0E, 0xFC, 0x01, 0xED, 0xE9, 0xF2,
  0x00, 0x1A, 0x00, 0xCF, 0xE1, 0xCE, 0xF9, 0xF0, 0x01, 0xFB,
  0x0B, 0x01, 0xED, 0xF3, 0xE7, 0xFA, 0x08, 0x0B, 0x09, 0xD2,
  0xDF, 0xC7, 0xE5, 0xF0, 0xFF, 0xE6, 0x1A, 0x03, 0xF2, 0xF0,
  0xE6, 0x01, 0x06, 0x11, 0xF9, 0xD9, 0xE8, 0xAE, 0xF7, 0xF2,
  0x06, 0xEF, 0x15, 0x0D, 0xF0, 0xF8, 0xE2, 0xFE, 0x02, 0x0A,
  0xFC, 0xDD, 0xE8, 0x98, 0xF1, 0xFF, 0x05, 0xF2, 0x0F, 0x10,
  0xF8, 0xF6, 0xDA, 0x01, 0x0E, 0x06, 0x01, 0xD1, 0xF5, 0x8B,
  0xF0, 0xFA, 0x0C, 0xF7, 0x0E, 0x08, 0xF5, 0xE4, 0xE1, 0xF7,
  0x05, 0x0C, 0x0D, 0xEC, 0x00, 0x00, 0x10, 0xF9, 0xFF, 0xF3,
  0xF4, 0x14, 0x04, 0x04, 0xEE, 0x03, 0xF9, 0x10, 0x09, 0xE1,
  0xFE, 0x09, 0x15, 0xF7, 0xFA, 0xF0, 0xFB, 0x09, 0x17, 0x06,
  0xDE, 0xFB, 0x08, 0xFB, 0x08, 0xEE, 0x05, 0x04, 0x1A, 0xF5,
  0xFE, 0xF7, 0xF9, 0x02, 0x0A, 0x0F, 0xE5, 0x0B, 0x06, 0x09,
  0x0E, 0xEF, 0xFF, 0x03, 0x15, 0xEF, 0xFD, 0xF9, 0xF8, 0x0F,
  0x03, 0x07, 0xE8, 0x07, 0xFE, 0x0E, 0x09, 0xF0, 0x06, 0x06,
  0x18, 0xF6, 0xFA, 0xF5, 0xF8, 0x08, 0x11, 0x06, 0xE0, 0x08,
  0x01, 0x03, 0x0B, 0xEE, 0x07, 0x06, 0x13, 0xFB, 0xF9, 0xF5,
  0x00, 0x0A, 0x17, 0x09, 0xE5, 0x0B, 0xFC, 0x0E, 0xFF, 0xF0,
  0xFF, 0x03, 0x14, 0x00, 0xFE, 0xFF, 0xF7, 0x05, 0x15, 0x05,
  0xDE, 0x00, 0xF6, 0x1E, 0xF9, 0xF8, 0x1D, 0xFF, 0xFF, 0x34,
  0x24, 0x3A, 0xF3, 0xFC, 0xEA, 0x13, 0xF4, 0x18, 0xFD, 0x1F,
  0x0F, 0xFC, 0x0F, 0xFF, 0xFE, 0x2A, 0x21, 0x32, 0xEB, 0xEF,
  0xF4, 0xFE, 0xF2, 0x17, 0xF0, 0x16, 0x06, 0xFA, 0x1D, 0x07,
  0x04, 0x22, 0x19, 0x1D, 0xF1, 0xEC, 0xEC, 0x06, 0xFC, 0x19,
  0xF5, 0xFF, 0x0C, 0xFF, 0x1E, 0x02, 0xF3, 0x16, 0x12, 0x29,
  0x00, 0xFC, 0xF5, 0x06, 0xEE, 0x04, 0xFA, 0x15, 0x07, 0xF1,
  0x14, 0x03, 0xFE, 0x2C, 0x14, 0x25, 0xF7, 0xF5, 0xE9, 0x06,
  0xF6, 0x02, 0x0A, 0x11, 0x08, 0xFC, 0x15, 0x08, 0x04, 0x19,
  0x15, 0x19, 0x0D, 0xE8, 0xEA, 0x08, 0x04, 0x09, 0xF7, 0x09,
  0x32, 0x06, 0x13, 0x0B, 0xF9, 0x12, 0x04, 0x2B, 0xF8, 0xF1,
  0xF1, 0x01, 0xFB, 0x03, 0x0A, 0xF2, 0xFB, 0x07, 0x04, 0xFE,
  0xFE, 0x00, 0x09, 0x03, 0x01, 0xFB, 0xFE, 0xFF, 0x2D, 0xFE,
  0x0C, 0xF0, 0xF1, 0x0A, 0x04, 0x00, 0xFE, 0xFE, 0x07, 0x01,
  0xF9, 0xFB, 0xFC, 0x00, 0x2F, 0xFF, 0x0B, 0xEF, 0xF7, 0x0B,
  0x07, 0xFE, 0xFB, 0xFD, 0x00, 0xFF, 0x06, 0xFA, 0xFC, 0x00,
  0x30, 0xFE, 0x0C, 0xEA, 0xF3, 0x06, 0xFF, 0xF8, 0xFA, 0xFF,
  0x08, 0xFF, 0x04, 0xFB, 0xFE, 0xFE, 0x30, 0xFC, 0x0B, 0xEC,
  0xF1, 0x07, 0x02, 0xF9, 0xFB, 0xFE, 0x03, 0xFD, 0x01, 0xFD,
  0xFB, 0x00, 0x33, 0xFB, 0x0D, 0xED, 0xF5, 0x0B, 0x00, 0xFA,
  0xFD, 0x00, 0x05, 0x00, 0x05, 0xFA, 0xFB, 0xFE, 0x2F, 0xFE,
  0x0C, 0xF1, 0xFD, 0x03, 0xFC, 0xF9, 0xFF, 0xFF, 0x00, 0xFE,
  0x05, 0xF7, 0xFF, 0xFE, 0x31, 0xFF, 0x02, 0x0A, 0x03, 0xE4,
  0xF4, 0x10, 0xF9, 0xF8, 0x04, 0x01, 0x09, 0x03, 0xFD, 0x04,
  0xDB, 0xFD, 0x02, 0x0B, 0xFD, 0xE4, 0xF6, 0x0F, 0xFA, 0xFA,
  0x00, 0x05, 0x00, 0x06, 0xFC, 0x02, 0xDE, 0xFE, 0x03, 0x09,
  0x01, 0xE7, 0xF7, 0x10, 0xFD, 0xFB, 0xFD, 0xFE, 0x03, 0x04,
  0xFA, 0x00, 0xDD, 0xF8, 0x04, 0x0A, 0xF8, 0xE7, 0xFD, 0x0C,
  0x02, 0xFD, 0xFB, 0x06, 0x05, 0x0A, 0x01, 0xFB, 0xDC, 0xF9,
  0xFE, 0x0D, 0xFC, 0xE7, 0x01, 0x06, 0x03, 0x00, 0xFB, 0x05,
  0x02, 0x09, 0x02, 0x01, 0xDE, 0xFB, 0x06, 0x08, 0xFB, 0xEB,
  0xFD, 0x0C, 0xFD, 0xFE, 0xF9, 0x02, 0x04, 0x01, 0x02, 0xFC,
  0xDB, 0xFA, 0x0D, 0x07, 0xFD, 0xEF, 0xFB, 0x11, 0x00, 0xFB,
  0xFD, 0x02, 0x0B, 0x05, 0x00, 0xFC, 0xE7, 0xFF, 0x0F, 0x10,
  0x00, 0x0F, 0x06, 0xFA, 0x09, 0x05, 0xE2, 0x00, 0xEA, 0x17,
  0x05, 0x05, 0x13, 0xFE, 0x12, 0x09, 0xF5, 0x12, 0x03, 0xFC,
  0x09, 0x05, 0xE4, 0x03, 0xF2, 0x12, 0x0A, 0xFE, 0x10, 0xFD,
  0x10, 0x0C, 0xF2, 0x1B, 0x07, 0xFF, 0x06, 0x05, 0xE7, 0x01,
  0xF7, 0x11, 0x09, 0x04, 0x12, 0xFE, 0x14, 0x0F, 0xF8, 0x20,
  0x00, 0x02, 0x0A, 0x04, 0xEF, 0x01, 0xE6, 0x0F, 0x06, 0x04,
  0x06, 0xFF, 0x12, 0x0C, 0xF0, 0x16, 0x03, 0xFB, 0x03, 0x03,
  0xEB, 0x02, 0xF1, 0x14, 0x05, 0x01, 0x08, 0xFF, 0x0E, 0x08,
  0xF1, 0x1B, 0xFE, 0x01, 0x03, 0x04, 0xED, 0x01, 0xF5, 0x0C,
  0x05, 0x02, 0x0C, 0x02, 0x10, 0x09, 0xED, 0x17, 0x03, 0xF8,
  0x05, 0x05, 0xF2, 0x05, 0xEB, 0x15, 0x02, 0x04, 0x0D, 0x04,
  0x03, 0xFB, 0xFD, 0x03, 0x04, 0xF9, 0xFD, 0xF8, 0xFB, 0xFF,
  0xFF, 0xFF, 0x01, 0xFD, 0xF9, 0xF9, 0xFE, 0xFD, 0x05, 0xFD,
  0xFB, 0xFA, 0x01, 0xFF, 0xFD, 0x04, 0xFA, 0xFF, 0x02, 0x00,
  0x05, 0xF9, 0x02, 0x04, 0x05, 0x05, 0xFF, 0xFA, 0x02, 0x04,
  0xFE, 0x02, 0x01, 0xFB, 0x01, 0x04, 0xFD, 0x00, 0xFB, 0xFA,
  0xF9, 0x03, 0x00, 0x04, 0x04, 0x04, 0x00, 0xF8, 0xFC, 0x02,
  0xF9, 0xFB, 0xFD, 0xFE, 0x05, 0xFA, 0x01, 0xFB, 0xFF, 0xF9,
  0x04, 0x01, 0xFC, 0xFE, 0xFD, 0xF9, 0xFB, 0xFE, 0x04, 0x01,
  0xF8, 0x00, 0x01, 0x03, 0xFB, 0xFA, 0x00, 0xFE, 0xFA, 0xFF,
  0xFF, 0xFF, 0xFC, 0xF7, 0xFA, 0xFF, 0xF8, 0xFD, 0xF9, 0xFA,
  0x02, 0xFC, 0x03, 0x01, 0x05, 0xFB, 0x04, 0xFE, 0xFE, 0xFA,
  0xF9, 0x01, 0x0C, 0x5F, 0x12, 0x04, 0x11, 0xE5, 0xFE, 0x07,
  0xF2, 0x04, 0xD7, 0x20, 0x0D, 0xFC, 0x05, 0x10, 0x0A, 0x4C,
  0x19, 0x06, 0x05, 0xEB, 0xFD, 0x0C, 0xF8, 0x07, 0xE1, 0x1C,
  0x0A, 0xFB, 0xF3, 0x00, 0x0A, 0x5E, 0x0D, 0x03, 0x05, 0xE8,
  0xF4, 0x07, 0xF3, 0x0B, 0xE0, 0x1B, 0x0A, 0x01, 0xF1, 0x0A,
  0x0A, 0x53, 0x09, 0x0D, 0x0B, 0xE7, 0xF6, 0x09, 0xF3, 0x0A,
  0xE5, 0x1B, 0x0C, 0xFD, 0xFD, 0x08, 0x0A, 0x52, 0x16, 0x07,
  0x05, 0xE4, 0xFA, 0x0C, 0xEC, 0x0E, 0xE4, 0x14, 0x07, 0xF9,
  0xFA, 0x03, 0x09, 0x5E, 0x0A, 0x06, 0x0B, 0xE9, 0xF9, 0x06,
  0xF5, 0x07, 0xDA, 0x17, 0x06, 0xFC, 0xED, 0x04, 0x04, 0x5B,
  0x13, 0x0F, 0x0B, 0xE5, 0xFC, 0x03, 0xF5, 0x07, 0xE1, 0x21,
  0x12, 0xFC, 0xEC, 0x01, 0x02, 0xF6, 0x1C, 0xD7, 0x15, 0xEC,
  0x19, 0xE6, 0xEE, 0xF4, 0x27, 0x05, 0x18, 0x15, 0xF2, 0xF5,
  0xF9, 0xE3, 0x0E, 0xDC, 0x06, 0xF5, 0x1B, 0xEE, 0xF1, 0x02,
  0x1D, 0x14, 0x22, 0x0D, 0xFD, 0xFA, 0xF9, 0xEB, 0x08, 0xD3,
  0x02, 0xFB, 0x15, 0xEC, 0xFB, 0xF0, 0x20, 0x0A, 0x20, 0x1D,
  0xDD, 0xF6, 0xFE, 0xF3, 0x08, 0xDE, 0x09, 0xFC, 0x13, 0xEF,
  0xF6, 0xF7, 0x22, 0x0C, 0x1F, 0x18, 0xEA, 0xFA, 0xFD, 0xED,
  0x07, 0xDA, 0x08, 0x05, 0x11, 0xE9, 0xED, 0xF2, 0x1F, 0x0B,
  0x18, 0x16, 0xE2, 0xF9, 0xFA, 0xF1, 0x0A, 0xDA, 0x02, 0xFC,
  0x15, 0xEF, 0xF5, 0xF4, 0x24, 0x0F, 0x23, 0x17, 0xEF, 0xF7,
  0xFC, 0xEE, 0x14, 0xE0, 0x07, 0x02, 0x19, 0xF1, 0xEE, 0xF5,
  0x25, 0x08, 0x1B, 0x1F, 0xF7, 0xFB, 0x2C, 0x14, 0x1E, 0x21,
  0x17, 0x06, 0x00, 0x2F, 0xE5, 0x37, 0x26, 0xF3, 0xFD, 0xE3,
  0xF7, 0xED, 0x31, 0x18, 0xF5, 0x2A, 0x0C, 0x07, 0xFE, 0x35,
  0xE7, 0x2D, 0x29, 0xFB, 0xF1, 0xF3, 0x06, 0xEA, 0x23, 0x0A,
  0x13, 0x16, 0x15, 0x08, 0x01, 0x2B, 0xED, 0x28, 0x1F, 0xFA,
  0xFA, 0xDC, 0x06, 0xED, 0x33, 0x16, 0x09, 0x1B, 0x08, 0x03,
  0x0B, 0x34, 0xF0, 0x28, 0x32, 0xFF, 0xFE, 0xEC, 0x00, 0xF9,
  0x33, 0x06, 0x04, 0x1C, 0x14, 0x02, 0xFC, 0x1B, 0xEB, 0x34,
  0x1E, 0x02, 0xF2, 0xE7, 0x0B, 0xF3, 0x38, 0x1A, 0x03, 0x15,
  0x01, 0xFE, 0x01, 0x2F, 0xEF, 0x2E, 0x45, 0xF9, 0x05, 0xF4,
  0x08, 0xED, 0x39, 0x0A, 0x01, 0x28, 0x18, 0x05, 0x03, 0x29,
  0xEB, 0x2A, 0x31, 0xFC, 0x02, 0xE9, 0xFE, 0xF2, 0xFA, 0xFF,
  0xFE, 0xFA, 0x02, 0x00, 0x02, 0xFA, 0xFE, 0x04, 0xFB, 0xFE,
  0x00, 0x02, 0xFB, 0xF8, 0x01, 0xFB, 0x06, 0x01, 0x04, 0xF7,
  0xFA, 0x04, 0x04, 0x02, 0xFA, 0x01, 0xFC, 0xF9, 0x05, 0xFB,
  0xF9, 0x03, 0x05, 0x01, 0xFC, 0xF8, 0x03, 0x05, 0xFA, 0x03,
  0xFA, 0x04, 0xFA, 0x04, 0x04, 0x03, 0x06, 0x00, 0x02, 0xF9,
  0x01, 0x04, 0xFF, 0xFC, 0xFE, 0xFA, 0xFC, 0xFD, 0x02, 0x02,
  0x00, 0x03, 0xFC, 0xF9, 0x02, 0xFD, 0x04, 0xFF, 0xF9, 0xFB,
  0xFA, 0xFA, 0x05, 0xFD, 0x00, 0xF9, 0x04, 0x03, 0xFA, 0x01,
  0x02, 0x03, 0xFF, 0x04, 0xFB, 0x01, 0xFE, 0xF9, 0xFA, 0x03,
  0xF9, 0x02, 0x03, 0xFA, 0x02, 0xFC, 0xFE, 0x03, 0x03, 0xFB,
  0x03, 0x06, 0xFD, 0x00, 0xFE, 0x03, 0xFB, 0x03, 0xFD, 0x01,
  0xFE, 0xFF, 0xFB, 0xFF, 0x03, 0xFC, 0x03, 0xF9, 0xFE, 0x00,
  0xFD, 0xFD, 0xFB, 0xFE, 0x01, 0xFB, 0xF8, 0xFA, 0xFD, 0xFF,
  0xFC, 0xF9, 0xF8, 0x03, 0xFE, 0xFA, 0xFB, 0xFA, 0xFD, 0x00,
  0xF8, 0x03, 0x01, 0xFB, 0xFB, 0xFB, 0xFE, 0x02, 0x01, 0xFF,
  0xF9, 0xFE, 0xFE, 0xFF, 0xFD, 0xFC, 0x01, 0xF9, 0x01, 0x02,
  0xF9, 0xFE, 0x05, 0xFA, 0x05, 0x05, 0xFF, 0x00, 0xFD, 0x04,
  0xFE, 0xFA, 0x05, 0x04, 0xF9, 0xFB, 0xFF, 0x01, 0xFA, 0xFA,
  0x02, 0x04, 0x01, 0xF9, 0x03, 0x01, 0x04, 0x04, 0xFD, 0xFB,
  0xFB, 0xFB, 0xFE, 0x00, 0x01, 0xF7, 0x02, 0xF9, 0xFA, 0x04,
  0x04, 0xF6, 0x01, 0x02, 0xF7, 0xFF, 0x04, 0xFE, 0x00, 0xF9,
  0x01, 0xF9, 0x03, 0x02, 0xFE, 0xFE, 0x03, 0x00, 0x04, 0x01,
  0xFA, 0xFB, 0xF9, 0x26, 0xF3, 0xF7, 0xEE, 0x09, 0x09, 0xFA,
  0xF6, 0x03, 0x19, 0x04, 0xF4, 0x0A, 0xF7, 0x1F, 0xFE, 0x12,
  0xF7, 0xF6, 0x01, 0x04, 0x08, 0xF5, 0xF8, 0x05, 0x1A, 0x05,
  0xF3, 0xEF, 0xF6, 0x17, 0xE8, 0x18, 0xF3, 0xFF, 0x04, 0x04,
  0x09, 0xF9, 0xFC, 0xFF, 0x17, 0x05, 0x06, 0xFB, 0x01, 0x10,
  0xFD, 0x07, 0xE4, 0xFE, 0xF4, 0x01, 0x07, 0xF2, 0xFC, 0xF7,
  0x1C, 0x02, 0xFD, 0xFE, 0xEF, 0x16, 0xEC, 0x01, 0xF7, 0x01,
  0xF8, 0xF6, 0xFF, 0xFC, 0x01, 0x09, 0x24, 0x06, 0xF8, 0x0C,
  0xF7, 0x03, 0x00, 0xFF, 0xF1, 0xEF, 0x07, 0xF8, 0xFC, 0xEF,
  0x07, 0xF8, 0x29, 0xFA, 0xF4, 0x0C, 0xF4, 0x12, 0xEE, 0x06,
  0xF0, 0xFF, 0x06, 0x01, 0x00, 0x0B, 0x10, 0xFC, 0x2F, 0xFD,
  0xEF, 0x11, 0xF9, 0x0A, 0x10, 0xED, 0xF3, 0x02, 0x02, 0x09,
  0x24, 0xDC, 0xD9, 0xDA, 0xF4, 0xF7, 0x18, 0x0F, 0x0A, 0x0A,
  0x00, 0xE4, 0xF0, 0xFA, 0x02, 0x0C, 0x1F, 0xD4, 0xE6, 0xDF,
  0xFE, 0x00, 0x24, 0x0F, 0x11, 0x0B, 0x00, 0xE6, 0xE3, 0x0A,
  0x09, 0x03, 0x21, 0xD2, 0xE0, 0xE1, 0x00, 0x0B, 0x26, 0x19,
  0x0F, 0x03, 0xFC, 0xE5, 0x01, 0x08, 0x0E, 0x05, 0x27, 0xE3,
  0xEE, 0xDB, 0xFC, 0x01, 0x28, 0x14, 0x04, 0x09, 0xF2, 0xE1,
  0xE9, 0x05, 0x01, 0x09, 0x1E, 0xD8, 0xEF, 0xCF, 0xFE, 0x01,
  0x22, 0x0C, 0x05, 0x07, 0x12, 0xEF, 0xF9, 0xFE, 0x0B, 0x03,
  0x13, 0xD4, 0xED, 0xDC, 0xE1, 0xFF, 0x20, 0x0C, 0x03, 0x03,
  0xFA, 0xF7, 0xEC, 0xFC, 0x09, 0x09, 0x1C, 0xDF, 0xE7, 0xDC,
  0x05, 0x04, 0x20, 0x17, 0x24, 0x0D, 0xFB, 0xDD, 0x0D, 0x0A,
  0x16, 0x0E, 0xF1, 0x1D, 0xF2, 0x22, 0x1E, 0xD5, 0x01, 0xF9,
  0x04, 0x10, 0x05, 0xE3, 0xF4, 0x1D, 0x1A, 0x0D, 0xF2, 0x1A,
  0xF7, 0x0E, 0x16, 0xE0, 0xFB, 0xEF, 0xF4, 0x06, 0xF6, 0xED,
  0x16, 0x0C, 0x02, 0x16, 0xEE, 0x13, 0xF6, 0x11, 0x18, 0xDD,
  0xF0, 0x02, 0x03, 0x0A, 0x02, 0xD8, 0x14, 0x0B, 0x0A, 0x0F,
  0xEF, 0x1B, 0xFB, 0x15, 0x0F, 0xE1, 0x00, 0x00, 0xFE, 0x15,
  0xF5, 0xF1, 0x06, 0x0A, 0x08, 0x14, 0xF2, 0x04, 0xFA, 0x0A,
  0x0B, 0xE6, 0xF4, 0xF3, 0xFC, 0x12, 0xFD, 0xEA, 0xE6, 0x09,
  0xFB, 0x0F, 0xED, 0x0D, 0xF6, 0x11, 0x19, 0xDE, 0x03, 0xFF,
  0xFE, 0x13, 0xEB, 0xDC, 0xFB, 0x09, 0x00, 0x11, 0xFD, 0x10,
  0xF4, 0x10, 0x1F, 0xDC, 0x0C, 0x02, 0x08, 0x12, 0xE9, 0xFB,
  0x20, 0x0B, 0xE5, 0x16, 0xE0, 0x11, 0xEB, 0x12, 0x06, 0x00,
  0xE8, 0x0F, 0x24, 0xF5, 0xFC, 0x00, 0x09, 0x1C, 0xFF, 0x09,
  0xF8, 0x24, 0x02, 0x0B, 0xE5, 0x05, 0xF7, 0x15, 0x0D, 0x00,
  0xEE, 0x14, 0x11, 0x22, 0xFE, 0x1E, 0xEB, 0x20, 0x06, 0xFF,
  0xDD, 0xF6, 0x05, 0x1B, 0x16, 0xF0, 0xE4, 0x0D, 0xF4, 0x18,
  0xD9, 0x11, 0xDD, 0xFE, 0x03, 0xFB, 0xF0, 0x08, 0xEA, 0x10,
  0x0F, 0xF5, 0xDF, 0x0A, 0x18, 0x22, 0x0B, 0x10, 0xF7, 0x06,
  0x01, 0x21, 0xD5, 0x06, 0x03, 0x10, 0x0A, 0xF5, 0xE9, 0x10,
  0x05, 0x19, 0x07, 0x1F, 0xDA, 0x20, 0x04, 0x10, 0xE2, 0x0A,
  0xE2, 0x15, 0x16, 0xF6, 0xC6, 0xFF, 0x03, 0x10, 0xE6, 0x24,
  0xE7, 0x0F, 0xF3, 0x05, 0xE8, 0x12, 0xE7, 0x1A, 0x15, 0x00,
  0xEF, 0x28, 0x2F, 0xF8, 0xF5, 0x0B, 0xE3, 0xF8, 0xF8, 0xF9,
  0xF4, 0x0D, 0xF7, 0x0F, 0x01, 0xFF, 0xFE, 0x2E, 0x12, 0xF5,
  0xEE, 0xFF, 0xFA, 0xF6, 0xFE, 0x03, 0xFD, 0x0E, 0xEF, 0x16,
  0xF6, 0xF8, 0xF9, 0x2D, 0x18, 0xEE, 0xEF, 0xFF, 0xE1, 0x04,
  0xFF, 0x03, 0xFB, 0x11, 0xE2, 0x0E, 0xFF, 0xFA, 0xF8, 0x28,
  0x21, 0xF2, 0xF3, 0x08, 0xD7, 0xFF, 0xFA, 0x10, 0xFD, 0x13,
  0xEA, 0x12, 0xF7, 0x00, 0xF9, 0x33, 0x23, 0xF5, 0xFB, 0xFF,
  0xE8, 0x01, 0xF5, 0x0F, 0xFF, 0x11, 0xE8, 0x10, 0xFC, 0x05,
  0xF6, 0x33, 0x1C, 0x02, 0xF3, 0x0B, 0xD5, 0xFF, 0xF8, 0x03,
  0x01, 0x0E, 0xFC, 0x0D, 0x02, 0xFD, 0xF1, 0x2E, 0x2C, 0xF6,
  0xF9, 0x0B, 0xDA, 0xF5, 0xF7, 0xFC, 0x00, 0x09, 0xF9, 0x16,
  0xFC, 0xF5, 0xEE, 0xEC, 0x01, 0xED, 0x28, 0x06, 0xEE, 0x0E,
  0xDF, 0x15, 0xCD, 0xF9, 0xDD, 0x04, 0xEC, 0x06, 0xE9, 0xFF,
  0xFF, 0xF5, 0x31, 0x07, 0xE9, 0x0B, 0xF2, 0x21, 0xCC, 0x00,
  0xDE, 0x09, 0xE9, 0xFB, 0xD9, 0xF1, 0xF2, 0xFA, 0x2E, 0x02,
  0xF6, 0x08, 0xF5, 0x21, 0xED, 0x03, 0xE6, 0x05, 0xEA, 0x08,
  0xFC, 0xEE, 0xF4, 0xF9, 0x1C, 0x07, 0xEE, 0x09, 0xE7, 0x18,
  0xE4, 0xFF, 0xF0, 0x0B, 0xE3, 0x01, 0xE0, 0xF4, 0xFF, 0xFC,
  0x26, 0x08, 0xDE, 0x0D, 0xF0, 0x19, 0xDD, 0xFC, 0xD8, 0x0A,
  0xED, 0xFA, 0xE3, 0xE6, 0x04, 0xFD, 0x26, 0x05, 0xEE, 0x0E,
  0xED, 0x1F, 0xF2, 0x06, 0xE1, 0x03, 0xF0, 0xF6, 0xEE, 0xEB,
  0xFA, 0xF8, 0x27, 0x05, 0xE7, 0x09, 0xDD, 0x18, 0xB4, 0x00,
  0xE6, 0x0E, 0xEC, 0xFA, 0xFE, 0x03, 0x00, 0xFD, 0xFE, 0xFE,
  0xF9, 0x05, 0xFE, 0xFB, 0xFC, 0x00, 0xFD, 0xFF, 0xFE, 0xF8,
  0x01, 0xFF, 0xFA, 0xFD, 0xF9, 0xFD, 0xFC, 0xFC, 0xFE, 0x04,
  0x01, 0xF8, 0x05, 0xFD, 0x06, 0xFD, 0xFF, 0xF9, 0xFB, 0xFC,
  0xF9, 0xFB, 0xFF, 0x04, 0xF8, 0xFF, 0xFF, 0xFA, 0x00, 0x07,
  0x02, 0xFE, 0xFC, 0x00, 0xFB, 0x00, 0xFC, 0xFC, 0x02, 0xFB,
  0xFD, 0xF8, 0x02, 0x04, 0x03, 0x01, 0x05, 0xFD, 0xFD, 0x02,
  0xFC, 0xFE, 0xFA, 0xF9, 0xFC, 0xFA, 0x03, 0x02, 0x00, 0x02,
  0xFD, 0x01, 0xF9, 0xFA, 0xF9, 0xFE, 0xFA, 0x00, 0x06, 0xFC,
  0xFF, 0x01, 0xFE, 0x00, 0x06, 0xFF, 0xFF, 0x03, 0x01, 0xFE,
  0xFF, 0x03, 0xF9, 0x00, 0x00, 0xFB, 0xF9, 0xFE, 0xFE, 0xFF,
  0xFB, 0xFA, 0x04, 0x05, 0x00, 0x03, 0xE1, 0x00, 0x18, 0x07,
  0x09, 0x2B, 0xE6, 0xD9, 0xD9, 0xE1, 0xFE, 0x1E, 0xDB, 0x09,
  0x16, 0x01, 0xDF, 0xF6, 0x05, 0x00, 0x0C, 0x2A, 0xE6, 0xDE,
  0xE5, 0xDB, 0xE5, 0x1D, 0xE2, 0x0D, 0x03, 0x03, 0xFA, 0x0F,
  0x04, 0x08, 0x07, 0x2F, 0xD7, 0xDD, 0xDE, 0xD2, 0xED, 0x20,
  0xDB, 0x09, 0x04, 0xFF, 0xE8, 0x0C, 0x01, 0x08, 0x02, 0x2E,
  0xE0, 0xD7, 0xE4, 0xDB, 0xE6, 0x1F, 0xD6, 0x08, 0x06, 0x02,
  0xDE, 0x00, 0x0D, 0xFE, 0x06, 0x22, 0xE3, 0xDC, 0xDE, 0xD6,
  0xEC, 0x19, 0xE1, 0x05, 0x02, 0xF9, 0xF1, 0x13, 0x19, 0x0C,
  0x0F, 0x2F, 0xDA, 0xD6, 0xDB, 0xD3, 0xF0, 0x1A, 0xE1, 0xFD,
  0xFB, 0xFA, 0xDD, 0x07, 0x0C, 0xFA, 0xFC, 0x2B, 0xE3, 0xD9,
  0xDA, 0xDB, 0xDC, 0x1E, 0xD3, 0x08, 0x01, 0x02, 0x0C, 0xE1,
  0x59, 0xF2, 0x15, 0x04, 0x1D, 0xE6, 0xEA, 0xE2, 0x1D, 0x10,
  0x1D, 0x0D, 0xFA, 0x00, 0x09, 0xD0, 0x49, 0xF1, 0x05, 0x00,
  0x25, 0xE2, 0xE8, 0xEC, 0x21, 0x09, 0x22, 0x12, 0xFD, 0xF8,
  0x03, 0xD5, 0x41, 0xF7, 0x09, 0x04, 0x1F, 0xEC, 0xE8, 0xE6,
  0x0E, 0x10, 0x22, 0x1A, 0x04, 0xF9, 0x00, 0xD3, 0x4D, 0xFF,
  0x0B, 0xF8, 0x17, 0xEB, 0xE7, 0xEB, 0x1A, 0x12, 0x26, 0x19,
  0x01, 0xF6, 0x03, 0xD2, 0x3F, 0xF3, 0x0E, 0xFC, 0x1F, 0xE3,
  0xEA, 0xEE, 0x26, 0x0E, 0x25, 0x1F, 0xFF, 0xF5, 0x05, 0xE0,
  0x47, 0xF0, 0x05, 0xFF, 0x24, 0xED, 0xEC, 0xE8, 0x1B, 0x0C,
  0x1D, 0x1B, 0xF8, 0xFD, 0x0C, 0xD7, 0x38, 0xF3, 0x09, 0xF9,
  0x26, 0xE5, 0xED, 0xEB, 0x08, 0x11, 0x20, 0x1A, 0x01, 0xF5,
  0xF7, 0x23, 0xFF, 0xEB, 0xCE, 0x02, 0xC8, 0x1C, 0x19, 0x25,
  0x1E, 0x00, 0x07, 0x0B, 0x01, 0x3B, 0x08, 0x1C, 0x0C, 0xE9,
  0xE5, 0xFF, 0xD1, 0x1E, 0x12, 0x0F, 0x0C, 0xFA, 0xF5, 0xF0,
  0xF7, 0x34, 0x04, 0x1E, 0x0B, 0xEC, 0xE1, 0x02, 0xCB, 0x22,
  0x0D, 0x1A, 0x0F, 0xFF, 0xFE, 0xF4, 0xEE, 0x33, 0xFB, 0x1A,
  0x15, 0xEF, 0xE2, 0x05, 0xC4, 0x14, 0x13, 0x16, 0x18, 0x01,
  0xF0, 0xF0, 0x01, 0x3C, 0x05, 0x0F, 0x13, 0xE8, 0xE2, 0xFF,
  0xCC, 0x1A, 0x17, 0x13, 0xF8, 0xF9, 0xFA, 0xF5, 0xFA, 0x39,
  0xFF, 0x2D, 0x17, 0xED, 0xE7, 0x01, 0xCB, 0x14, 0x16, 0x14,
  0x20, 0xF9, 0xF9, 0xE7, 0x00, 0x34, 0xF6, 0x1F, 0x09, 0xEB,
  0xD3, 0x09, 0xE7, 0x0E, 0x22, 0x1F, 0x1F, 0xFD, 0xEE, 0xED,
  0x05, 0x5D, 0xF2, 0x06, 0x07, 0xF7, 0xE4, 0xF7, 0x1A, 0x07,
  0x02, 0x00, 0xEB, 0x03, 0x14, 0x0B, 0xEB, 0x0B, 0xFF, 0xFF,
  0xF5, 0xF1, 0x00, 0xF9, 0x1A, 0x04, 0x06, 0x13, 0xF3, 0x09,
  0x1A, 0x1A, 0xF3, 0x19, 0xF8, 0xF7, 0xF9, 0x06, 0xFE, 0xFF,
  0x0E, 0x0E, 0x02, 0x0A, 0xF0, 0x04, 0x17, 0x17, 0xF1, 0x05,
  0x02, 0x06, 0xF8, 0x00, 0xF9, 0xFD, 0x1A, 0x02, 0x0C, 0xFD,
  0xE9, 0x09, 0x10, 0x13, 0xE9, 0x11, 0xFC, 0x09, 0xFB, 0x02,
  0xE1, 0x00, 0x0B, 0xFB, 0x0E, 0x05, 0xF1, 0x0A, 0x0A, 0x07,
  0xF7, 0x0F, 0x03, 0x11, 0xFF, 0xF8, 0xF8, 0x05, 0x15, 0x07,
  0xFE, 0x1D, 0xF1, 0xFA, 0x16, 0x0A, 0xF4, 0x07, 0xF5, 0x0C,
  0xFA, 0xFC, 0xEC, 0x04, 0x1A, 0xF4, 0x02, 0xFE, 0xF4, 0x03,
  0x03, 0x0A, 0xFC, 0x16, 0x06, 0x03, 0xFC, 0xED, 0xF2, 0xEF,
  0xF0, 0x26, 0xF0, 0x20, 0x0A, 0xF7, 0x2B, 0x32, 0xFC, 0x17,
  0x07, 0x0B, 0xF6, 0xF1, 0xEF, 0xEB, 0xE4, 0x21, 0xF9, 0x27,
  0xFB, 0xFF, 0x21, 0x24, 0x01, 0x1A, 0x07, 0x02, 0xFF, 0xF7,
  0xED, 0xEF, 0xE5, 0x2D, 0xFD, 0x23, 0xFA, 0xF8, 0x0C, 0x25,
  0x0A, 0x12, 0x09, 0x08, 0x06, 0xF6, 0xEB, 0xF0, 0xEA, 0x19,
  0xF0, 0x25, 0xFC, 0xF6, 0x23, 0x29, 0xFC, 0x14, 0x01, 0x0C,
  0xF5, 0xED, 0xED, 0xF2, 0xE2, 0x33, 0x01, 0x2E, 0x02, 0xFB,
  0x14, 0x1D, 0x04, 0x18, 0x01, 0x02, 0xF1, 0xEE, 0xED, 0xF2,
  0xF0, 0x35, 0xF2, 0x2A, 0x06, 0xFF, 0x20, 0x27, 0x04, 0x15,
  0x06, 0xFC, 0xFE, 0xED, 0xFB, 0xF0, 0xF4, 0x2F, 0x04, 0x3C,
  0x09, 0xFB, 0x20, 0x27, 0x10, 0x22, 0x13, 0x0C, 0xF6, 0xFC,
  0x03, 0x03, 0xEC, 0x01, 0xEA, 0x10, 0xFE, 0x12, 0xF9, 0x0F,
  0xFA, 0x1A, 0x01, 0x0D, 0x08, 0x0B, 0x02, 0x02, 0xE0, 0x07,
  0xEE, 0x1F, 0xFD, 0x02, 0x00, 0x0B, 0xF1, 0x28, 0x07, 0x1A,
  0xFD, 0x09, 0xF5, 0x17, 0xD4, 0x02, 0xEF, 0x0A, 0xF8, 0x0D,
  0xF6, 0xFF, 0xDF, 0x0D, 0xFF, 0x02, 0xFD, 0xFB, 0x1E, 0x06,
  0xDB, 0x1B, 0xF2, 0x13, 0xFB, 0x0C, 0xFB, 0x22, 0xE9, 0x13,
  0xFC, 0x0C, 0xFD, 0xFD, 0x06, 0x04, 0xE5, 0xFD, 0xF1, 0x1B,
  0xF4, 0x02, 0xF8, 0x0D, 0xF1, 0x15, 0xF9, 0x20, 0x07, 0x12,
  0x10, 0xF6, 0xEE, 0x06, 0xF0, 0x15, 0xF3, 0x0D, 0xF1, 0x13,
  0xD3, 0x06, 0xF6, 0x07, 0xFD, 0x02, 0xF8, 0xF9, 0xEE, 0x06,
  0xEC, 0x1A, 0xF9, 0x10, 0x08, 0x0C, 0xD6, 0x0F, 0x14, 0xBC,
  0xB6, 0x15, 0xEF, 0x05, 0x0D, 0x0A, 0xF5, 0x00, 0xA9, 0xF7,
  0x05, 0x04, 0x10, 0x00, 0x12, 0xC2, 0xB8, 0x19, 0xEF, 0x0E,
  0x0F, 0x0D, 0xF4, 0x09, 0xAF, 0xFA, 0x08, 0x0A, 0x06, 0xEF,
  0x16, 0xC1, 0xBA, 0x17, 0xF0, 0x0C, 0x01, 0x0F, 0xF4, 0x08,
  0x8F, 0x04, 0x02, 0x06, 0x04, 0xF7, 0x18, 0xC2, 0xB3, 0x1A,
  0xF4, 0x09, 0x02, 0x0C, 0xF7, 0x07, 0x8D, 0xFD, 0x04, 0x06,
  0x09, 0xF5, 0x21, 0xBE, 0xB7, 0x17, 0xEC, 0x14, 0x0C, 0x12,
  0xF7, 0x08, 0xA2, 0x01, 0xF9, 0x06, 0x01, 0xF7, 0x0E, 0xC2,
  0xBD, 0x1E, 0xF6, 0x0C, 0x03, 0x0B, 0xF6, 0x07, 0xA1, 0xFF,
  0x07, 0x02, 0xFC, 0xF1, 0x15, 0xB4, 0xC1, 0x1D, 0xFA, 0x10,
  0x04, 0x01, 0xFD, 0x0E, 0xA8, 0xF5, 0x07, 0x03, 0x05, 0xFA,
  0x00, 0x02, 0xFC, 0xFD, 0x02, 0x02, 0xFE, 0x03, 0xFA, 0x01,
  0xFB, 0xFE, 0xFE, 0xFB, 0xFC, 0x04, 0xFB, 0xFD, 0xF9, 0x00,
  0xFC, 0xFA, 0xFD, 0x04, 0xFB, 0xFF, 0xF8, 0xF9, 0xFF, 0xFE,
  0x04, 0xFE, 0xFA, 0x02, 0xFB, 0x02, 0xFA, 0xFD, 0x02, 0xFB,
  0x05, 0xFF, 0x00, 0xFE, 0xFF, 0xFC, 0x05, 0x05, 0x03, 0xFB,
  0x01, 0xFA, 0x04, 0xFA, 0xFF, 0x03, 0x05, 0x05, 0xFD, 0xFF,
  0x01, 0x02, 0x05, 0xFE, 0xFB, 0x04, 0xFC, 0xFF, 0xFD, 0xFB,
  0xF9, 0xFD, 0xFA, 0x05, 0xFC, 0xFB, 0xFA, 0xFE, 0xFA, 0xFA,
  0x02, 0xFC, 0xFB, 0x02, 0x02, 0xFD, 0x04, 0xFD, 0x03, 0x02,
  0xFD, 0x01, 0x03, 0x00, 0xFF, 0xF9, 0x04, 0x00, 0xFA, 0xFC,
  0x01, 0x04, 0xFD, 0xFF, 0xF9, 0x00, 0xF9, 0xFF, 0xFF, 0x01,
  0x03, 0x00, 0xFF, 0xFA, 0x05, 0x01, 0x18, 0xFB, 0x20, 0x08,
  0xEB, 0x01, 0x09, 0xFB, 0x20, 0x00, 0x01, 0xF3, 0x06, 0xFD,
  0xFF, 0x01, 0x13, 0xF7, 0x22, 0x03, 0xE3, 0x08, 0x06, 0xFC,
  0x1F, 0x07, 0x03, 0xFA, 0x04, 0xFD, 0xFF, 0x00, 0x1B, 0xED,
  0x21, 0xFD, 0xE9, 0x01, 0x07, 0x01, 0x23, 0x08, 0x04, 0xF4,
  0x05, 0xFE, 0x01, 0x03, 0x0C, 0xF0, 0x23, 0x05, 0xE4, 0xFF,
  0x04, 0x01, 0x20, 0x07, 0xFE, 0xEE, 0x02, 0xFC, 0xFC, 0xFA,
  0x04, 0xF1, 0x29, 0xFC, 0xE7, 0x01, 0x0F, 0x04, 0x1B, 0x0F,
  0x04, 0xF1, 0x00, 0xF9, 0xFD, 0xFF, 0x09, 0xFC, 0x26, 0x04,
  0xEA, 0xF7, 0x05, 0x04, 0x1F, 0x05, 0xFF, 0xF6, 0x09, 0xFA,
  0x02, 0x02, 0x1F, 0xF0, 0x1A, 0x0A, 0xEC, 0xFF, 0x04, 0x07,
  0x1E, 0x02, 0xFE, 0xFA, 0xF9, 0xEF, 0x0D, 0xFF, 0x32, 0x14,
  0xED, 0x0D, 0x0C, 0x0C, 0xF6, 0x00, 0xD7, 0x03, 0x01, 0x09,
  0x01, 0xFA, 0x0D, 0x00, 0x18, 0x0C, 0xD4, 0x15, 0x0A, 0x17,
  0xFA, 0xFE, 0xE7, 0x04, 0x0D, 0xFC, 0xFF, 0x02, 0x0D, 0x06,
  0x43, 0x0F, 0xD1, 0x18, 0x08, 0x1E, 0xFA, 0x05, 0xD2, 0x03,
  0x0C, 0xFF, 0xFE, 0xF8, 0x0C, 0x0A, 0x25, 0x15, 0xDA, 0x1A,
  0x09, 0x21, 0xF3, 0xFD, 0xD4, 0x10, 0x0F, 0xF4, 0xFB, 0x05,
  0x15, 0x01, 0x2A, 0x0C, 0xCA, 0x12, 0xFE, 0x10, 0x01, 0xFA,
  0xBB, 0x10, 0x1E, 0x04, 0xFA, 0x00, 0x00, 0x0C, 0x2E, 0x15,
  0xCB, 0x07, 0xFF, 0x07, 0xFA, 0xFE, 0xC8, 0xF7, 0x05, 0x01,
  0x08, 0xFA, 0x14, 0x0A, 0x30, 0x0B, 0xC0, 0x0B, 0xFE, 0x0F,
  0x0C, 0x03, 0xC5, 0xF9, 0x02, 0xFC, 0x02, 0xF0, 0xE9, 0xE9,
  0xFC, 0xFD, 0xEC, 0xE7, 0x12, 0x0B, 0xEF, 0xF9, 0x16, 0x3D,
  0x08, 0x2E, 0xFD, 0xF2, 0xEF, 0xF2, 0xF1, 0xFF, 0xDB, 0xFD,
  0x04, 0x1E, 0xE9, 0x06, 0x28, 0x36, 0xF9, 0x18, 0x03, 0xDB,
  0xFB, 0xFC, 0xFB, 0x00, 0xDE, 0xF4, 0xFE, 0x2D, 0xF1, 0x08,
  0x25, 0x42, 0x07, 0x1B, 0x05, 0xE4, 0xF5, 0xEB, 0xFA, 0xFA,
  0xDF, 0xFB, 0xFD, 0x19, 0xEF, 0x04, 0x22, 0x39, 0xFE, 0x19,
  0x0E, 0xED, 0xF5, 0xFD, 0xE6, 0xFF, 0xDE, 0x04, 0x00, 0x17,
  0xF2, 0xFD, 0x17, 0x31, 0x05, 0x22, 0x05, 0xED, 0xFB, 0x06,
  0xD9, 0xFE, 0xE5, 0xFC, 0x03, 0x28, 0xF5, 0x04, 0x20, 0x2E,
  0x12, 0x23, 0x01, 0xEA, 0xFA, 0xFA, 0xED, 0xF9, 0xFE, 0x18,
  0x08, 0x2D, 0xEC, 0x01, 0x1C, 0x2B, 0x00, 0x24, 0xFD, 0xFF,
  0xFE, 0x00, 0xFE, 0x02, 0xFA, 0x04, 0x04, 0xFB, 0xFC, 0x02,
  0xF9, 0xFE, 0x01, 0xF9, 0x02, 0xFF, 0x01, 0xF9, 0xFF, 0xFD,
  0x05, 0xFB, 0xF8, 0x04, 0xFA, 0xFD, 0xFD, 0x03, 0xF8, 0xFE,
  0x00, 0xFE, 0xFB, 0x00, 0xFE, 0xFC, 0xFE, 0x03, 0xFC, 0x05,
  0x05, 0x02, 0xF9, 0x04, 0x01, 0x04, 0xFA, 0x03, 0x03, 0xF8,
  0xFB, 0x04, 0x05, 0x00, 0xF8, 0xFC, 0xF9, 0x01, 0xFC, 0x04,
  0x05, 0x02, 0x05, 0xFA, 0x05, 0xFA, 0xFF, 0xFC, 0x05, 0xFE,
  0xFA, 0x05, 0x02, 0xFB, 0xFF, 0x03, 0xFC, 0x00, 0x02, 0xFF,
  0x01, 0xFE, 0xF8, 0x02, 0x06, 0xFD, 0x03, 0xFB, 0xFD, 0xF9,
  0x00, 0xFB, 0xFE, 0xFB, 0xFB, 0xFA, 0xFA, 0x04, 0xFA, 0xF8,
  0x00, 0xFD, 0xF8, 0xFD, 0xFD, 0xFD, 0xFB, 0xFE, 0xFB, 0xFA,
  0x02, 0x01, 0xF1, 0x22, 0xE5, 0x14, 0xFF, 0xC6, 0xF3, 0xB7,
  0x11, 0x03, 0xF9, 0x01, 0x2B, 0xFE, 0xFC, 0x01, 0x00, 0x2A,
  0xE3, 0x11, 0x01, 0xC9, 0xEC, 0xBD, 0x0F, 0xFF, 0xFF, 0xFC,
  0x2B, 0x06, 0xFD, 0xFE, 0x06, 0x22, 0xDA, 0x13, 0x04, 0xCA,
  0xEC, 0xB8, 0x13, 0x00, 0x00, 0xFC, 0x2B, 0x07, 0x08, 0x08,
  0xF3, 0x20, 0xD8, 0x15, 0x07, 0xD0, 0xEC, 0xB4, 0x0F, 0xFF,
  0x00, 0xFC, 0x31, 0x03, 0x02, 0x02, 0x02, 0x28, 0xDA, 0x12,
  0x02, 0xCA, 0xED, 0xBC, 0x0E, 0x01, 0xFC, 0xFF, 0x2B, 0x04,
  0xF9, 0xF7, 0xF9, 0x26, 0xE2, 0x15, 0x02, 0xC8, 0xE9, 0xBB,
  0x09, 0x02, 0xF9, 0x00, 0x35, 0x05, 0xFF, 0x02, 0x00, 0x24,
  0xE0, 0x16, 0x01, 0xD1, 0xED, 0xB7, 0xFC, 0xFA, 0x00, 0xFE,
  0x2D, 0x01, 0xDC, 0xF7, 0x07, 0xE8, 0x10, 0xF5, 0xD0, 0xE3,
  0xFA, 0xDB, 0xDF, 0xF7, 0xF8, 0x0E, 0xEE, 0xB6, 0xF8, 0x05,
  0x05, 0xDF, 0xE1, 0xE6, 0xEE, 0xE0, 0x06, 0x03, 0xFE, 0xF8,
  0x01, 0x1C, 0xFD, 0xE2, 0x0A, 0xF2, 0x06, 0xC7, 0xFB, 0xD4,
  0xEB, 0x06, 0xF3, 0x10, 0x0C, 0x02, 0xEC, 0x0D, 0x0F, 0xC8,
  0x05, 0x0B, 0xFA, 0xEB, 0x01, 0xFE, 0xE2, 0xEA, 0xED, 0x0C,
  0x04, 0xFF, 0x0E, 0x11, 0x00, 0xF8, 0xFD, 0x08, 0xF8, 0xF0,
  0xD1, 0xE7, 0xF2, 0xFD, 0x06, 0x23, 0x11, 0xF3, 0xFE, 0x19,
  0x18, 0x04, 0x04, 0xF8, 0xF7, 0x00, 0xE7, 0x14, 0xF4, 0x18,
  0xF6, 0x1C, 0x0F, 0xEE, 0x24, 0xFF, 0x05, 0xE2, 0x22, 0x11,
  0x04, 0x02, 0x0A, 0x03, 0xF8, 0x15, 0x04, 0x0D, 0x21, 0x05,
  0x0E, 0xFE, 0x10, 0xEA, 0x09, 0xF6, 0xC8, 0x1F, 0xE0, 0x0E,
  0xFC, 0x09, 0x14, 0xEF, 0xF1, 0x19, 0xFE, 0xFA, 0x15, 0xED,
  0x08, 0xDA, 0xC4, 0x16, 0xE1, 0x0C, 0xFE, 0xFE, 0x05, 0xEF,
  0xF8, 0x1D, 0xF4, 0xF0, 0x1A, 0xF1, 0x0D, 0xE0, 0xC9, 0x22,
  0xE5, 0x08, 0xF3, 0xFF, 0x05, 0xF4, 0xED, 0x17, 0xED, 0xF4,
  0x15, 0xEF, 0xFF, 0xF1, 0xD1, 0x1A, 0xE0, 0x03, 0xFA, 0xFF,
  0x0A, 0xE9, 0xEB, 0x21, 0xF7, 0xFB, 0x26, 0xF7, 0x02, 0xD4,
  0xCE, 0x1F, 0xDE, 0x0A, 0xF5, 0x02, 0x07, 0xF5, 0xF7, 0x1B,
  0xED, 0xF5, 0x19, 0xF4, 0x04, 0xF6, 0xD1, 0x18, 0xE9, 0x09,
  0xFD, 0xF6, 0x04, 0xFA, 0xF2, 0x16, 0xEF, 0xF0, 0x13, 0xF5,
  0x06, 0xF4, 0xE0, 0x1B, 0xCD, 0x08, 0x00, 0x01, 0x00, 0xE8,
  0xE7, 0x14, 0xF5, 0xF6, 0x11, 0xEE, 0xFE, 0x10, 0xF5, 0x13,
  0xF3, 0x0B, 0x03, 0xE4, 0x1A, 0xE3, 0xFA, 0x06, 0xFE, 0xF7,
  0x18, 0xEF, 0xFB, 0x12, 0xFD, 0x0A, 0xED, 0x05, 0x05, 0xE5,
  0x12, 0xE9, 0xFB, 0x03, 0x06, 0xF4, 0x22, 0xF5, 0xFE, 0x13,
  0xFB, 0x0C, 0xFE, 0x0A, 0x04, 0xDB, 0x16, 0xE0, 0xFC, 0x04,
  0x07, 0xF0, 0x23, 0xEE, 0xF8, 0x10, 0xF5, 0x09, 0xEC, 0x03,
  0xFE, 0xE8, 0x14, 0xE2, 0x00, 0x02, 0x05, 0xEF, 0x25, 0xEC,
  0xF6, 0x14, 0xEF, 0x09, 0xEC, 0x04, 0x0F, 0xDC, 0x0E, 0xE8,
  0xFC, 0x09, 0x08, 0xF5, 0x1E, 0xF7, 0xF8, 0x15, 0xEB, 0x15,
  0xF2, 0x0C, 0x02, 0xEB, 0x0E, 0xEB, 0x00, 0x04, 0x0C, 0xEF,
  0x27, 0xFE, 0xFB, 0x0A, 0xF5, 0x0F, 0xF9, 0x06, 0x05, 0xE6,
  0x1F, 0xE2, 0xF8, 0x04, 0x06, 0xEF, 0x2B, 0xEF, 0x00, 0x1C,
  0x18, 0xFA, 0xFC, 0x00, 0x01, 0x03, 0xF4, 0x03, 0x00, 0x16,
  0x01, 0xFC, 0xE7, 0x04, 0x04, 0x18, 0x24, 0xFE, 0xFE, 0x00,
  0x00, 0x00, 0xF6, 0x01, 0xFB, 0x0B, 0x00, 0xFF, 0xF1, 0x02,
  0xFE, 0x14, 0x21, 0xFB, 0x00, 0x03, 0x01, 0x01, 0xF1, 0x02,
  0xFA, 0x0F, 0xFF, 0x00, 0xF2, 0x05, 0xFF, 0x19, 0x23, 0xFA,
  0xFC, 0xFE, 0x00, 0x01, 0xEF, 0x00, 0xF7, 0x11, 0xFD, 0xFF,
  0xFC, 0x01, 0x00, 0x17, 0x1C, 0xF9, 0xFC, 0xFD, 0xFF, 0x05,
  0xF7, 0xFE, 0x01, 0x0E, 0x01, 0x02, 0xEF, 0x01, 0xFE, 0x1B,
  0x16, 0xFC, 0xFC, 0x00, 0x02, 0x02, 0xED, 0x04, 0x01, 0x10,
  0x03, 0x03, 0xF4, 0x03, 0xFD, 0x10, 0x12, 0xF5, 0x03, 0xFA,
  0x00, 0x01, 0xEE, 0xFE, 0x00, 0x12, 0x02, 0x00, 0xF6, 0x02,
  0x11, 0x0D, 0x0C, 0x0A, 0x21, 0x0A, 0x0B, 0x15, 0xFE, 0x0C,
  0xE4, 0x13, 0xEB, 0xD6, 0xF0, 0xD3, 0x04, 0x09, 0x0E, 0x06,
  0x15, 0x08, 0x07, 0x0F, 0xFF, 0x02, 0xF2, 0x08, 0xE2, 0xE0,
  0x07, 0xD7, 0x03, 0x14, 0x0E, 0x06, 0x14, 0x07, 0x0B, 0x08,
  0xF8, 0x0D, 0xF4, 0x0A, 0xE0, 0xDA, 0xFB, 0xD0, 0x06, 0x09,
  0x0D, 0x07, 0x12, 0x07, 0x09, 0x0B, 0xFB, 0x0F, 0xF9, 0x0B,
  0xE0, 0xE1, 0x04, 0xD8, 0xFA, 0x0E, 0x0A, 0x02, 0x11, 0x0B,
  0x06, 0x06, 0xF9, 0x0A, 0xE7, 0x0E, 0xE2, 0xE5, 0x08, 0xD4,
  0xFF, 0x09, 0x0C, 0xFC, 0x16, 0x0E, 0x08, 0x06, 0x01, 0x11,
  0xE2, 0x0D, 0xE2, 0xE2, 0x01, 0xDC, 0xFA, 0x0B, 0x11, 0x09,
  0x10, 0x04, 0x02, 0x13, 0xFA, 0x08, 0xE7, 0x11, 0xEC, 0xDE,
  0xFD, 0xBC, 0xFD, 0x0F, 0x0D, 0x01, 0xF0, 0x12, 0xF7, 0xE5,
  0xE7, 0xE7, 0x03, 0x10, 0x00, 0x0E, 0xFF, 0xF5, 0x01, 0x09,
  0x02, 0x08, 0xEA, 0x14, 0xFC, 0xED, 0xEC, 0xDB, 0xF5, 0x12,
  0x03, 0x0F, 0xFF, 0xF2, 0xDF, 0xFA, 0xF5, 0x12, 0xE8, 0x14,
  0xF8, 0xE0, 0xEA, 0xE3, 0xFA, 0x17, 0xFC, 0x10, 0x10, 0xF2,
  0xF1, 0x15, 0x02, 0x04, 0xE2, 0x12, 0xFA, 0xE3, 0xE6, 0xDE,
  0x13, 0x0F, 0x01, 0x06, 0x0A, 0xF6, 0xF4, 0x10, 0xFD, 0x0D,
  0xF0, 0x11, 0xFF, 0xE8, 0xE7, 0xE5, 0xF3, 0x12, 0xF7, 0x06,
  0x0A, 0xFB, 0xE5, 0x08, 0xF3, 0x0F, 0xEB, 0x14, 0xF4, 0xDF,
  0xE4, 0xEC, 0xFD, 0x0E, 0xF4, 0x04, 0x0F, 0xF3, 0xE7, 0x06,
  0x05, 0xFE, 0xE8, 0x15, 0xF6, 0xDD, 0xDB, 0xDB, 0xFA, 0x16,
  0x01, 0x0D, 0xFA, 0xF6, 0xF8, 0x0B, 0x0F, 0x01, 0x09, 0x14,
  0x03, 0xE3, 0xE8, 0xE5, 0x09, 0x01, 0x07, 0x04, 0xFA, 0xF3,
  0x01, 0x01, 0x16, 0x00, 0xF4, 0x18, 0x0E, 0xEB, 0xF0, 0xE9,
  0x10, 0xFF, 0x0D, 0x00, 0x04, 0xE9, 0xFA, 0x0C, 0x16, 0x06,
  0xF4, 0x13, 0x0B, 0xDE, 0xF0, 0xE1, 0x05, 0xFD, 0x09, 0xFF,
  0x04, 0xF3, 0xFB, 0x09, 0x11, 0x05, 0x03, 0x1A, 0x04, 0xE2,
  0xF1, 0xDF, 0x0D, 0x04, 0x07, 0x09, 0xFE, 0xF5, 0x03, 0x07,
  0x14, 0xF9, 0xF6, 0x16, 0x09, 0xE6, 0xF0, 0xE3, 0x0E, 0x04,
  0x04, 0x02, 0x04, 0xF2, 0x00, 0x11, 0x10, 0xFF, 0xFD, 0x14,
  0x0F, 0xE9, 0xF6, 0xE8, 0x0F, 0xFF, 0x08, 0x05, 0xFE, 0xF2,
  0x01, 0x12, 0x0F, 0xFD, 0x09, 0x16, 0x02, 0xDE, 0xF1, 0xE4,
  0x16, 0xFF, 0x08, 0x04, 0xF5, 0xFA, 0xFD, 0x0E, 0x0B, 0xED,
  0xEE, 0x09, 0x00, 0x14, 0x08, 0x0B, 0x0B, 0x02, 0xF3, 0x01,
  0xC9, 0x24, 0xF5, 0x0A, 0x0B, 0xFD, 0xE6, 0x07, 0xFB, 0x1E,
  0x03, 0x14, 0xF4, 0xFB, 0xF3, 0x00, 0xDC, 0x1C, 0xF3, 0x0B,
  0x00, 0xF3, 0xF5, 0x03, 0xFD, 0x1A, 0x07, 0x19, 0x06, 0xFA,
  0xF9, 0xFF, 0xDD, 0x14, 0xF9, 0x14, 0x06, 0xE9, 0x00, 0x01,
  0xF7, 0x15, 0x02, 0x19, 0xF5, 0xF9, 0xE5, 0x00, 0xDB, 0x16,
  0x00, 0x13, 0x0E, 0xF7, 0xEE, 0x07, 0xFE, 0x12, 0xFD, 0x22,
  0x00, 0xF8, 0xF3, 0xF9, 0xDE, 0x1D, 0xF5, 0x19, 0x0D, 0xFB,
  0xED, 0x07, 0xFD, 0x1B, 0xF9, 0x1A, 0x01, 0xF8, 0xFA, 0xF7,
  0xDC, 0x1F, 0xF1, 0x10, 0x03, 0xF8, 0xF4, 0x0D, 0xFA, 0x03,
  0xFD, 0x19, 0xF9, 0xFC, 0xEB, 0xF9, 0xBE, 0x1B, 0xEB, 0xF6,
  0xE9, 0x0B, 0xFE, 0x0E, 0xEF, 0xFF, 0x03, 0x00, 0x98, 0x0D,
  0xD5, 0x18, 0xF7, 0x25, 0xEE, 0xFC, 0xFC, 0x0A, 0x09, 0x08,
  0xEB, 0x03, 0x13, 0xFD, 0x87, 0x01, 0xD2, 0x12, 0xEE, 0x15,
  0xEA, 0xFC, 0xED, 0x10, 0x08, 0x04, 0xF3, 0xF5, 0x14, 0x01,
  0x92, 0x07, 0xD1, 0x0C, 0xF3, 0x14, 0xE8, 0xF2, 0xF4, 0x0A,
  0xF8, 0x0B, 0xF4, 0xF8, 0x04, 0x03, 0x83, 0x04, 0xD7, 0x0D,
  0xF2, 0x1C, 0xED, 0xEE, 0x01, 0x0A, 0xFC, 0x05, 0xEF, 0xFE,
  0x0C, 0xFE, 0x81, 0x04, 0xCF, 0x0F, 0xFE, 0x0C, 0x00, 0xF2,
  0xEB, 0x0B, 0x05, 0x0F, 0xEC, 0xF0, 0x0D, 0xFA, 0x97, 0xFF,
  0xCB, 0x06, 0xEE, 0x10, 0xDA, 0xFD, 0xEA, 0x0D, 0x03, 0x08,
  0xF5, 0xFB, 0x0C, 0x08, 0x84, 0x06, 0xD2, 0x0C, 0xED, 0x0D,
  0x17, 0xCF, 0xE7, 0x17, 0x27, 0xFA, 0xF4, 0xE4, 0xE2, 0xE9,
  0x17, 0x01, 0x07, 0xFE, 0x18, 0x03, 0x15, 0xCE, 0xDA, 0x10,
  0x13, 0x03, 0xEB, 0xF2, 0xE4, 0xFB, 0x20, 0xFE, 0x11, 0xFD,
  0x1C, 0x04, 0x1E, 0xC9, 0xD9, 0x15, 0x0E, 0x04, 0xF0, 0xEC,
  0xD8, 0xEF, 0x21, 0x04, 0x10, 0x08, 0x17, 0xFD, 0x18, 0xC3,
  0xE8, 0x14, 0x1A, 0x00, 0xED, 0xE7, 0xDF, 0xF9, 0x2A, 0xFC,
  0x01, 0x01, 0x1A, 0x05, 0x18, 0xBB, 0xDC, 0x0F, 0x12, 0x04,
  0xF1, 0xEC, 0xDD, 0xF2, 0x20, 0x04, 0x1A, 0x09, 0x1A, 0xFA,
  0x0F, 0xD6, 0xDC, 0x11, 0x10, 0x05, 0xEC, 0xF5, 0xDD, 0xEC,
  0x23, 0x03, 0x11, 0x04, 0x13, 0xF7, 0x16, 0xB6, 0xE1, 0x0A,
  0x0C, 0x03, 0xEB, 0xE7, 0xDC, 0xF9, 0x23, 0xFF, 0x0A, 0x05,
  0x15, 0xFA, 0x05, 0xF9, 0xFC, 0xFB, 0x0A, 0x04, 0xDC, 0xF4,
  0xF3, 0xFE, 0xF8, 0x0C, 0x0E, 0x05, 0x28, 0x15, 0xF9, 0x08,
  0xFA, 0x06, 0x0A, 0x05, 0xD7, 0xFB, 0xF5, 0x00, 0xFC, 0x06,
  0x0C, 0x07, 0x2D, 0x14, 0x09, 0xEE, 0xF8, 0xFD, 0x08, 0x03,
  0xD6, 0xF1, 0xF2, 0xF8, 0xFB, 0x09, 0x12, 0x0A, 0x28, 0x14,
  0x08, 0xFE, 0x07, 0x09, 0x0C, 0x03, 0xD1, 0xF5, 0xEA, 0xFC,
  0xEE, 0x0C, 0x02, 0x08, 0x31, 0x0C, 0x04, 0x08, 0x02, 0x00,
  0x06, 0x04, 0xDA, 0xF9, 0xEF, 0xF8, 0xF1, 0x05, 0x1A, 0x04,
  0x38, 0x17, 0x02, 0xF6, 0x00, 0xFE, 0x06, 0x03, 0xDA, 0xFD,
  0xF1, 0xF4, 0xF6, 0x06, 0x14, 0x00, 0x34, 0x13, 0x01, 0xF4,
  0xF6, 0xFD, 0x02, 0x04, 0xD4, 0xF3, 0xF1, 0x01, 0xF8, 0x0E,
  0x0C, 0x04, 0x23, 0x11, 0xF9, 0xFA, 0xFF, 0xFE, 0x04, 0xFD,
  0x05, 0x03, 0xFC, 0xF9, 0xFB, 0x01, 0x03, 0x03, 0x02, 0x05,
  0xFC, 0xFD, 0x05, 0x03, 0x00, 0x04, 0x03, 0xFE, 0xFF, 0x00,
  0x01, 0xF9, 0xF9, 0xFA, 0xFB, 0x00, 0x02, 0xFE, 0xF9, 0xFA,
  0xFB, 0xF8, 0xFB, 0x01, 0xFB, 0xFD, 0x03, 0xF9, 0xFA, 0x03,
  0x05, 0xFE, 0xFC, 0xF9, 0xFE, 0x00, 0xFB, 0xFA, 0xFE, 0xFB,
  0xFE, 0xFA, 0x03, 0xFB, 0xFB, 0x03, 0x01, 0x00, 0x06, 0x02,
  0x03, 0x06, 0xFD, 0x03, 0x02, 0xFD, 0xF9, 0xFA, 0xF9, 0xFA,
  0xFC, 0xFB, 0xFB, 0x02, 0x00, 0xFD, 0xFA, 0xFF, 0xF9, 0xFA,
  0xFE, 0xFF, 0xFB, 0x02, 0xF9, 0x04, 0x03, 0xFC, 0xFB, 0x00,
  0xF9, 0xFD, 0xFC, 0xFB, 0x06, 0x05, 0x01, 0xFF, 0x02, 0xFF,
  0x03, 0x05, 0x00, 0xFF, 0xF9, 0x02, 0xF5, 0xCC, 0xBD, 0x19,
  0xEE, 0x12, 0x0E, 0xEF, 0x07, 0xE7, 0xA4, 0x07, 0x03, 0x02,
  0x20, 0xE8, 0xEE, 0xC5, 0xC9, 0x15, 0xEE, 0x0D, 0x10, 0xE9,
  0x05, 0xEB, 0xCE, 0x0A, 0x01, 0x09, 0x21, 0xF3, 0xF7, 0xC0,
  0xC0, 0x0B, 0xF5, 0x12, 0x0F, 0xEF, 0x05, 0xE4, 0xCC, 0x09,
  0x05, 0xFE, 0x22, 0xEC, 0xF6, 0xCC, 0xC2, 0x17, 0xEF, 0x0E,
  0x0F, 0xF0, 0x04, 0xE8, 0xBB, 0x0C, 0x09, 0x09, 0x21, 0xE8,
  0xFB, 0xC5, 0xC1, 0x0E, 0xF2, 0x0F, 0x0E, 0xE9, 0x04, 0xEB,
  0xC8, 0x0E, 0x05, 0x07, 0x1B, 0xF2, 0x01, 0xC8, 0xBC, 0x12,
  0xF4, 0x0C, 0x10, 0xE9, 0x05, 0xE9, 0xCA, 0x08, 0xFC, 0x05,
  0x24, 0xF0, 0xFB, 0xCD, 0xD0, 0x16, 0xF4, 0x10, 0x0C, 0xE9,
  0x05, 0xEA, 0xCD, 0x03, 0x03, 0x05, 0x24, 0xE6, 0x11, 0xEE,
  0xEE, 0x07, 0x23, 0x05, 0xF2, 0xFE, 0xF7, 0x0B, 0x03, 0xF8,
  0xFA, 0x07, 0x17, 0x11, 0x09, 0xEB, 0xF5, 0x02, 0x23, 0x0D,
  0xF0, 0x0C, 0xFF, 0x06, 0x0E, 0xF9, 0xE7, 0x05, 0x18, 0x05,
  0x17, 0xEF, 0xEB, 0x0B, 0x10, 0x07, 0xF2, 0xFC, 0xFF, 0x05,
  0x1A, 0xF2, 0xEB, 0xFC, 0x1A, 0x04, 0x1C, 0xF4, 0xD6, 0x19,
  0x1D, 0x06, 0xED, 0xEA, 0xF9, 0xFB, 0x17, 0x01, 0xE8, 0x07,
  0x14, 0x06, 0x14, 0xF7, 0xF4, 0x04, 0x23, 0x0A, 0xEB, 0x01,
  0x06, 0x0C, 0x1A, 0xFE, 0xF3, 0x0B, 0x0B, 0xFF, 0x08, 0xF6,
  0xFF, 0x12, 0x12, 0x0A, 0xED, 0xF7, 0x04, 0x05, 0x20, 0x05,
  0xF9, 0x03, 0x28, 0x0E, 0x2D, 0xFB, 0xF3, 0x00, 0x20, 0x05,
  0x05, 0x08, 0x0B, 0x11, 0x1B, 0x05, 0xF1, 0x14, 0x28, 0x0D,
  0x08, 0xFE, 0x00, 0xF4, 0x17, 0x09, 0x00, 0x1E, 0xE7, 0x27,
  0x09, 0x07, 0xFC, 0x00, 0xFE, 0x09, 0x03, 0xFC, 0x03, 0x02,
  0x26, 0x00, 0x02, 0x26, 0xF1, 0x27, 0x01, 0x07, 0x02, 0x01,
  0xFD, 0xFF, 0xFE, 0x02, 0x05, 0x03, 0x29, 0x0B, 0xFB, 0x28,
  0xED, 0x2B, 0xFF, 0x01, 0x01, 0x02, 0x03, 0x07, 0xF8, 0xFF,
  0x0B, 0xFD, 0x1E, 0x09, 0x00, 0x2C, 0xEA, 0x2A, 0x07, 0x06,
  0x02, 0x01, 0x05, 0x06, 0xF9, 0x01, 0xFE, 0x00, 0x0F, 0x0B,
  0xFD, 0x26, 0xEC, 0x34, 0xFF, 0x0A, 0xFD, 0x07, 0x05, 0x0A,
  0xF0, 0x01, 0x03, 0x00, 0x15, 0x10, 0xFD, 0x25, 0xE5, 0x27,
  0xFD, 0xFB, 0x00, 0xFE, 0x08, 0x00, 0xF7, 0x05, 0x04, 0xFE,
  0x25, 0x0D, 0xFF, 0x21, 0xDD, 0x23, 0xFD, 0x02, 0xF7, 0x06,
  0xFF, 0x0B, 0x06, 0x09, 0x08, 0x14, 0xE2, 0x25, 0xDA, 0x08,
  0xDC, 0x0D, 0xF6, 0x14, 0xCB, 0xEA, 0x16, 0x08, 0x06, 0x0A,
  0x0F, 0x16, 0xE9, 0x25, 0xD6, 0x08, 0xDC, 0xFD, 0xF6, 0x11,
  0xC0, 0xFB, 0x03, 0x05, 0xF9, 0x0B, 0xF9, 0x07, 0xDF, 0x21,
  0xD6, 0x0B, 0xDF, 0x01, 0xFB, 0x16, 0xC1, 0xEE, 0x06, 0x06,
  0xFA, 0x17, 0x13, 0x09, 0xDF, 0x26, 0xDE, 0x08, 0xDC, 0x0A,
  0xF6, 0x13, 0xD6, 0xEF, 0x16, 0x01, 0xF7, 0x18, 0x0B, 0x13,
  0xDB, 0x21, 0xD8, 0x01, 0xDE, 0xFF, 0xF9, 0x11, 0xC1, 0xEA,
  0xFE, 0x07, 0x06, 0x0F, 0xFD, 0x09, 0xE6, 0x22, 0xE1, 0x07,
  0xDF, 0x12, 0xF0, 0x15, 0xCC, 0xED, 0x07, 0x03, 0x01, 0x0D,
  0x07, 0x0A, 0xDB, 0x2A, 0xDE, 0x07, 0xD3, 0x0A, 0x12, 0x17,
  0xD3, 0xED, 0x13, 0xF9, 0x03, 0xFA, 0xFA, 0x06, 0x00, 0x01,
  0xFB, 0x03, 0xFB, 0x02, 0xFB, 0xFB, 0x00, 0xFE, 0x04, 0xFF,
  0x03, 0xFA, 0x01, 0xFC, 0xFF, 0x01, 0x00, 0x02, 0xFE, 0x05,
  0xF9, 0x00, 0x06, 0xFA, 0x04, 0x02, 0xFC, 0xFF, 0x01, 0x00,
  0xF8, 0x01, 0x05, 0xFC, 0x00, 0xFB, 0xFB, 0xFB, 0xFA, 0x00,
  0xF9, 0x02, 0xFC, 0xFD, 0x05, 0x00, 0x03, 0xFC, 0x01, 0xFA,
  0xFC, 0x04, 0x05, 0x00, 0x01, 0xFB, 0x05, 0xFF, 0x01, 0x01,
  0xFD, 0xFA, 0xF8, 0x04, 0xFC, 0xFE, 0x02, 0xFC, 0xFB, 0xFE,
  0xF9, 0xFF, 0x04, 0xFA, 0x00, 0x01, 0xFD, 0x02, 0xFD, 0x01,
  0x05, 0x00, 0xFF, 0xFA, 0xFB, 0xFB, 0xFC, 0xFA, 0xFC, 0xF9,
  0xF9, 0xFF, 0x05, 0x04, 0xFE, 0xFF, 0xFC, 0xFC, 0xFB, 0x02,
  0x02, 0xFF, 0x03, 0xF8, 0x02, 0xFF, 0x02, 0xF8, 0xFF, 0xFF,
  0x04, 0x00, 0x00, 0x00, 0x00, 0x01, 0x00, 0x00, 0x72, 0x02,
  0x00, 0x00, 0xCD, 0xFF, 0xFF, 0xFF, 0x5E, 0x01, 0x00, 0x00,
  0x87, 0x02, 0x00, 0x00, 0xAF, 0xFF, 0xFF, 0xFF, 0x04, 0x00,
  0x00, 0x00, 0x71, 0xFB, 0xFF, 0xFF, 0x31, 0x02, 0x00, 0x00,
  0x90, 0x02, 0x00, 0x00, 0x5E, 0x02, 0x00, 0x00, 0xB7, 0xFE,
  0xFF, 0xFF, 0x0E, 0x00, 0x00, 0x00, 0xB6, 0xFD, 0xFF, 0xFF,
  0x52, 0x01, 0x00, 0x00, 0x96, 0x02, 0x00, 0x00, 0x59, 0xFD,
  0xFF, 0xFF, 0xFC, 0x01, 0x00, 0x00, 0x06, 0xFE, 0xFF, 0xFF,
  0x5C, 0xFE, 0xFF, 0xFF, 0x25, 0x03, 0x00, 0x00, 0x94, 0x00,
  0x00, 0x00, 0xDD, 0xFF, 0xFF, 0xFF, 0x60, 0xFF, 0xFF, 0xFF,
  0x5D, 0xFE, 0xFF, 0xFF, 0x21, 0x00, 0x00, 0x00, 0xD6, 0xFF,
  0xFF, 0xFF, 0xD9, 0xFF, 0xFF, 0xFF, 0x1C, 0xFF, 0xFF, 0xFF,
  0xED, 0x00, 0x00, 0x00, 0xA5, 0x03, 0x00, 0x00, 0xE8, 0x02,
  0x00, 0x00, 0xE6, 0x01, 0x00, 0x00, 0xB8, 0x04, 0x00, 0x00,
  0xD7, 0xFF, 0xFF, 0xFF, 0x0B, 0x04, 0x00, 0x00, 0xFE, 0xFE,
  0xFF, 0xFF, 0x1C, 0x00, 0x00, 0x00, 0xE5, 0xFF, 0xFF, 0xFF,
  0x57, 0x00, 0x00, 0x00, 0xE6, 0x00, 0x00, 0x00, 0xB1, 0x02,
  0x00, 0x00, 0xF6, 0xFF, 0xFF, 0xFF, 0xB8, 0x01, 0x00, 0x00,
  0x1A, 0xFE, 0xFF, 0xFF, 0x3E, 0x01, 0x00, 0x00, 0xD3, 0xFF,
  0xFF, 0xFF, 0xB5, 0x01, 0x00, 0x00, 0x52, 0x00, 0x00, 0x00,
  0xAE, 0xFF, 0xFF, 0xFF, 0x2F, 0x00, 0x00, 0x00, 0xCC, 0x04,
  0x00, 0x00, 0x8B, 0x03, 0x00, 0x00, 0x9E, 0x03, 0x00, 0x00,
  0xA7, 0x02, 0x00, 0x00, 0x9E, 0x00, 0x00, 0x00, 0x5E, 0xFE,
  0xFF, 0xFF, 0x24, 0x03, 0x00, 0x00, 0x93, 0xFE, 0xFF, 0xFF,
  0xE9, 0xFF, 0xFF, 0xFF, 0xF5, 0x02, 0x00, 0x00, 0x74, 0xFF,
  0xFF, 0xFF, 0xD2, 0x01, 0x00, 0x00, 0xAF, 0x01, 0x00, 0x00,
  0xD2, 0xFF, 0xFF, 0xFF, 0x0E, 0xF9, 0xFF, 0xFF, 0x04, 0x00,
  0x00, 0x00, 0x00, 0x01, 0x00, 0x00, 0x18, 0x06, 0xE1, 0x0B,
  0x02, 0xE7, 0xE6, 0x19, 0x09, 0xF6, 0xF4, 0xF7, 0xEF, 0x18,
  0xF9, 0xFC, 0x0B, 0x19, 0xF4, 0xD2, 0x0A, 0x05, 0x04, 0x03,
  0x03, 0x02, 0x0A, 0xE5, 0x0A, 0xF2, 0x02, 0x18, 0xBC, 0xFE,
  0xEA, 0xF9, 0xF2, 0x0D, 0x01, 0x06, 0x9B, 0x06, 0xFD, 0x05,
  0xF8, 0x00, 0x14, 0x1D, 0xFB, 0xF6, 0x2A, 0x03, 0xF8, 0x13,
  0xF4, 0x1A, 0xF1, 0xFC, 0x05, 0xF3, 0x0F, 0x0A, 0xFF, 0x08,
  0xE7, 0xF8, 0x08, 0x12, 0x07, 0xF7, 0xF7, 0x00, 0x0A, 0xEA,
  0x14, 0xE3, 0xE6, 0x15, 0x0D, 0xF5, 0xFF, 0x00, 0xF2, 0xF3,
  0x03, 0xFD, 0x06, 0x08, 0x0C, 0xFC, 0xFD, 0xD4, 0xE9, 0x09,
  0x02, 0xFC, 0x09, 0x04, 0x0B, 0x04, 0x07, 0x13, 0x1F, 0x02,
  0xDD, 0x05, 0x2B, 0xE8, 0x0F, 0xFC, 0x05, 0x22, 0x0A, 0x01,
  0xE1, 0xED, 0x31, 0xEB, 0xFA, 0xFD, 0xE7, 0xFF, 0x05, 0xFE,
  0xFD, 0xF4, 0x81, 0xF9, 0xD3, 0x03, 0xD1, 0x06, 0xFF, 0x05,
  0x00, 0xF3, 0xF4, 0xFE, 0xFD, 0xF9, 0xFC, 0x02, 0xF4, 0xF3,
  0xF4, 0x20, 0x00, 0x0E, 0x02, 0xFB, 0x00, 0x08, 0x04, 0x01,
  0xF9, 0xE2, 0xF9, 0x01, 0x48, 0xFF, 0xBB, 0x03, 0xDC, 0xFA,
  0xEF, 0x02, 0x14, 0x08, 0x09, 0xFA, 0xF7, 0xF9, 0x0C, 0x04,
  0xE6, 0x3F, 0xF7, 0xF0, 0x1B, 0xF7, 0x9B, 0xE1, 0xFA, 0xFE,
  0x09, 0xFB, 0xFB, 0x00, 0x06, 0x30, 0x25, 0x07, 0xCF, 0x00,
  0x1B, 0x04, 0x00, 0x22, 0xD3, 0xDF, 0xEC, 0xF0, 0x14, 0x0C,
  0x1F, 0x1E, 0xED, 0xD7, 0xEF, 0x15, 0x1C, 0xE1, 0x1B, 0x03,
  0x20, 0xDB, 0x1E, 0xFF, 0xFE, 0xD9, 0x19, 0xF3, 0x02, 0xFC,
  0xE4, 0xFD, 0xD5, 0x23, 0xE1, 0x01, 0xEC, 0x05, 0x10, 0x05,
  0xEB, 0x08, 0xF4, 0x02, 0x3C, 0xCF, 0x2D, 0x2B, 0xFD, 0xC4,
  0xE8, 0xE7, 0xE2, 0x27, 0xC8, 0x28, 0x04, 0xB5, 0x14, 0xEE,
  0x09, 0x02, 0x1A, 0xFA, 0xFF, 0xFF, 0x04, 0x00, 0x00, 0x00,
  0x10, 0x00, 0x00, 0x00, 0x4C, 0x00, 0x00, 0x00, 0x67, 0xFF,
  0xFF, 0xFF, 0xD5, 0x00, 0x00, 0x00, 0x37, 0xFF, 0xFF, 0xFF,
  0x36, 0xFA, 0xFF, 0xFF, 0x04, 0x00, 0x00, 0x00, 0x08, 0x00,
  0x00, 0x00, 0xFF, 0xFF, 0xFF, 0xFF, 0x70, 0x00, 0x00, 0x00,
  0x4A, 0xFA, 0xFF, 0xFF, 0x04, 0x00, 0x00, 0x00, 0x0C, 0x00,
  0x00, 0x00, 0x00, 0x00, 0x00, 0x00, 0x80, 0x00, 0x00, 0x00,
  0x00, 0x00, 0x00, 0x00, 0x62, 0xFA, 0xFF, 0xFF, 0x04, 0x00,
  0x00, 0x00, 0x04, 0x00, 0x00, 0x00, 0x02, 0x00, 0x00, 0x00,
  0x72, 0xFA, 0xFF, 0xFF, 0x04, 0x00, 0x00, 0x00, 0x04, 0x00,
  0x00, 0x00, 0x40, 0x00, 0x00, 0x00, 0x04, 0xDE, 0xFF, 0xFF,
  0x86, 0xFA, 0xFF, 0xFF, 0x04, 0x00, 0x00, 0x00, 0x04, 0x00,
  0x00, 0x00, 0x01, 0x00, 0x00, 0x00, 0x96, 0xFA, 0xFF, 0xFF,
  0x04, 0x00, 0x00, 0x00, 0x04, 0x00, 0x00, 0x00, 0x00, 0x00,
  0x00, 0x00, 0xA6, 0xFA, 0xFF, 0xFF, 0x04, 0x00, 0x00, 0x00,
  0x0C, 0x00, 0x00, 0x00, 0x01, 0x00, 0x00, 0x00, 0x01, 0x00,
  0x00, 0x00, 0x01, 0x00, 0x00, 0x00, 0xBE, 0xFA, 0xFF, 0xFF,
  0x04, 0x00, 0x00, 0x00, 0x0C, 0x00, 0x00, 0x00, 0x00, 0x00,
  0x00, 0x00, 0x40, 0x00, 0x00, 0x00, 0x00, 0x00, 0x00, 0x00,
  0xD6, 0xFA, 0xFF, 0xFF, 0x04, 0x00, 0x00, 0x00, 0x0C, 0x00,
  0x00, 0x00, 0x00, 0x00, 0x00, 0x00, 0x00, 0x00, 0x00, 0x00,
  0x00, 0x00, 0x00, 0x00, 0x70, 0xDE, 0xFF, 0xFF, 0x74, 0xDE,
  0xFF, 0xFF, 0x0F, 0x00, 0x00, 0x00, 0x4D, 0x4C, 0x49, 0x52,
  0x20, 0x43, 0x6F, 0x6E, 0x76, 0x65, 0x72, 0x74, 0x65, 0x64,
  0x2E, 0x00, 0x01, 0x00, 0x00, 0x00, 0x14, 0x00, 0x00, 0x00,
  0x00, 0x00, 0x0E, 0x00, 0x18, 0x00, 0x14, 0x00, 0x10, 0x00,
  0x0C, 0x00, 0x08, 0x00, 0x04, 0x00, 0x0E, 0x00, 0x00, 0x00,
  0x14, 0x00, 0x00, 0x00, 0x1C, 0x00, 0x00, 0x00, 0xE0, 0x05,
  0x00, 0x00, 0xE4, 0x05, 0x00, 0x00, 0xE8, 0x05, 0x00, 0x00,
  0x04, 0x00, 0x00, 0x00, 0x6D, 0x61, 0x69, 0x6E, 0x00, 0x00,
  0x00, 0x00, 0x17, 0x00, 0x00, 0x00, 0x80, 0x05, 0x00, 0x00,
  0x34, 0x05, 0x00, 0x00, 0xD8, 0x04, 0x00, 0x00, 0x90, 0x04,
  0x00, 0x00, 0x68, 0x04, 0x00, 0x00, 0x1C, 0x04, 0x00, 0x00,
  0xE8, 0x03, 0x00, 0x00, 0xAC, 0x03, 0x00, 0x00, 0x6C, 0x03,
  0x00, 0x00, 0x44, 0x03, 0x00, 0x00, 0xF0, 0x02, 0x00, 0x00,
  0x9C, 0x02, 0x00, 0x00, 0x54, 0x02, 0x00, 0x00, 0x10, 0x02,
  0x00, 0x00, 0xC8, 0x01, 0x00, 0x00, 0x84, 0x01, 0x00, 0x00,
  0x3C, 0x01, 0x00, 0x00, 0xF8, 0x00, 0x00, 0x00, 0xC4, 0x00,
  0x00, 0x00, 0x9C, 0x00, 0x00, 0x00, 0x60, 0x00, 0x00, 0x00,
  0x28, 0x00, 0x00, 0x00, 0x04, 0x00, 0x00, 0x00, 0xEE, 0xFB,
  0xFF, 0xFF, 0x0C, 0x00, 0x00, 0x00, 0x10, 0x00, 0x00, 0x00,
  0x08, 0x00, 0x00, 0x00, 0x01, 0x00, 0x00, 0x00, 0x2D, 0x00,
  0x00, 0x00, 0x01, 0x00, 0x00, 0x00, 0x2C, 0x00, 0x00, 0x00,
  0x52, 0xFB, 0xFF, 0xFF, 0x14, 0x00, 0x00, 0x00, 0x00, 0x00,
  0x00, 0x08, 0x10, 0x00, 0x00, 0x00, 0x14, 0x00, 0x00, 0x00,
  0x07, 0x00, 0x00, 0x00, 0x60, 0xDF, 0xFF, 0xFF, 0x01, 0x00,
  0x00, 0x00, 0x2C, 0x00, 0x00, 0x00, 0x03, 0x00, 0x00, 0x00,
  0x2B, 0x00, 0x00, 0x00, 0x0C, 0x00, 0x00, 0x00, 0x0B, 0x00,
  0x00, 0x00, 0x86, 0xFB, 0xFF, 0xFF, 0x14, 0x00, 0x00, 0x00,
  0x00, 0x00, 0x00, 0x08, 0x14, 0x00, 0x00, 0x00, 0x18, 0x00,
  0x00, 0x00, 0x07, 0x00, 0x00, 0x00, 0x76, 0xFB, 0xFF, 0xFF,
  0x00, 0x00, 0x00, 0x03, 0x01, 0x00, 0x00, 0x00, 0x2B, 0x00,
  0x00, 0x00, 0x03, 0x00, 0x00, 0x00, 0x2A, 0x00, 0x00, 0x00,
  0x0E, 0x00, 0x00, 0x00, 0x0D, 0x00, 0x00, 0x00, 0x7A, 0xFC,
  0xFF, 0xFF, 0x0C, 0x00, 0x00, 0x00, 0x10, 0x00, 0x00, 0x00,
  0x03, 0x00, 0x00, 0x00, 0x01, 0x00, 0x00, 0x00, 0x2A, 0x00,
  0x00, 0x00, 0x02, 0x00, 0x00, 0x00, 0x29, 0x00, 0x00, 0x00,
  0x0A, 0x00, 0x00, 0x00, 0xE2, 0xFB, 0xFF, 0xFF, 0x14, 0x00,
  0x00, 0x00, 0x00, 0x00, 0x00, 0x0B, 0x10, 0x00, 0x00, 0x00,
  0x14, 0x00, 0x00, 0x00, 0x06, 0x00, 0x00, 0x00, 0xF0, 0xDF,
  0xFF, 0xFF, 0x01, 0x00, 0x00, 0x00, 0x29, 0x00, 0x00, 0x00,
  0x02, 0x00, 0x00, 0x00, 0x24, 0x00, 0x00, 0x00, 0x28, 0x00,
  0x00, 0x00, 0x12, 0xFC, 0xFF, 0xFF, 0x14, 0x00, 0x00, 0x00,
  0x00, 0x00, 0x00, 0x05, 0x24, 0x00, 0x00, 0x00, 0x28, 0x00,
  0x00, 0x00, 0x05, 0x00, 0x00, 0x00, 0x72, 0xFE, 0xFF, 0xFF,
  0x01, 0x00, 0x00, 0x00, 0x02, 0x00, 0x00, 0x00, 0x01, 0x00,
  0x00, 0x00, 0x02, 0x00, 0x00, 0x00, 0x00, 0x00, 0x00, 0x01,
  0x01, 0x00, 0x00, 0x00, 0x28, 0x00, 0x00, 0x00, 0x01, 0x00,
  0x00, 0x00, 0x27, 0x00, 0x00, 0x00, 0x52, 0xFC, 0xFF, 0xFF,
  0x14, 0x00, 0x00, 0x00, 0x00, 0x00, 0x00, 0x01, 0x20, 0x00,
  0x00, 0x00, 0x24, 0x00, 0x00, 0x00, 0x04, 0x00, 0x00, 0x00,
  0x64, 0xFE, 0xFF, 0xFF, 0x00, 0x00, 0x00, 0x03, 0x01, 0x00,
  0x00, 0x00, 0x02, 0x00, 0x00, 0x00, 0x00, 0x00, 0x00, 0x01,
  0x01, 0x00, 0x00, 0x00, 0x27, 0x00, 0x00, 0x00, 0x03, 0x00,
  0x00, 0x00, 0x26, 0x00, 0x00, 0x00, 0x10, 0x00, 0x00, 0x00,
  0x0F, 0x00, 0x00, 0x00, 0x96, 0xFC, 0xFF, 0xFF, 0x14, 0x00,
  0x00, 0x00, 0x00, 0x00, 0x00, 0x05, 0x24, 0x00, 0x00, 0x00,
  0x28, 0x00, 0x00, 0x00, 0x05, 0x00, 0x00, 0x00, 0xF6, 0xFE,
  0xFF, 0xFF, 0x01, 0x00, 0x00, 0x00, 0x02, 0x00, 0x00, 0x00,
  0x01, 0x00, 0x00, 0x00, 0x02, 0x00, 0x00, 0x00, 0x00, 0x00,
  0x00, 0x01, 0x01, 0x00, 0x00, 0x00, 0x26, 0x00, 0x00, 0x00,
  0x01, 0x00, 0x00, 0x00, 0x25, 0x00, 0x00, 0x00, 0xD6, 0xFC,
  0xFF, 0xFF, 0x14, 0x00, 0x00, 0x00, 0x00, 0x00, 0x00, 0x01,
  0x20, 0x00, 0x00, 0x00, 0x24, 0x00, 0x00, 0x00, 0x04, 0x00,
  0x00, 0x00, 0xE8, 0xFE, 0xFF, 0xFF, 0x00, 0x00, 0x00, 0x03,
  0x01, 0x00, 0x00, 0x00, 0x01, 0x00, 0x00, 0x00, 0x00, 0x00,
  0x00, 0x01, 0x01, 0x00, 0x00, 0x00, 0x25, 0x00, 0x00, 0x00,
  0x03, 0x00, 0x00, 0x00, 0x20, 0x00, 0x00, 0x00, 0x12, 0x00,
  0x00, 0x00, 0x11, 0x00, 0x00, 0x00, 0x1A, 0xFD, 0xFF, 0xFF,
  0x14, 0x00, 0x00, 0x00, 0x00, 0x00, 0x00, 0x05, 0x24, 0x00,
  0x00, 0x00, 0x28, 0x00, 0x00, 0x00, 0x05, 0x00, 0x00, 0x00,
  0x7A, 0xFF, 0xFF, 0xFF, 0x01, 0x00, 0x00, 0x00, 0x02, 0x00,
  0x00, 0x00, 0x01, 0x00, 0x00, 0x00, 0x02, 0x00, 0x00, 0x00,
  0x00, 0x00, 0x00, 0x01, 0x01, 0x00, 0x00, 0x00, 0x24, 0x00,
  0x00, 0x00, 0x01, 0x00, 0x00, 0x00, 0x23, 0x00, 0x00, 0x00,
  0x5A, 0xFD, 0xFF, 0xFF, 0x14, 0x00, 0x00, 0x00, 0x00, 0x00,
  0x00, 0x01, 0x20, 0x00, 0x00, 0x00, 0x24, 0x00, 0x00, 0x00,
  0x04, 0x00, 0x00, 0x00, 0x6C, 0xFF, 0xFF, 0xFF, 0x00, 0x00,
  0x00, 0x03, 0x01, 0x00, 0x00, 0x00, 0x02, 0x00, 0x00, 0x00,
  0x00, 0x00, 0x00, 0x01, 0x01, 0x00, 0x00, 0x00, 0x23, 0x00,
  0x00, 0x00, 0x03, 0x00, 0x00, 0x00, 0x22, 0x00, 0x00, 0x00,
  0x14, 0x00, 0x00, 0x00, 0x13, 0x00, 0x00, 0x00, 0x9E, 0xFD,
  0xFF, 0xFF, 0x24, 0x00, 0x00, 0x00, 0x00, 0x00, 0x00, 0x05,
  0x34, 0x00, 0x00, 0x00, 0x38, 0x00, 0x00, 0x00, 0x05, 0x00,
  0x00, 0x00, 0x00, 0x00, 0x0E, 0x00, 0x18, 0x00, 0x17, 0x00,
  0x10, 0x00, 0x0C, 0x00, 0x08, 0x00, 0x04, 0x00, 0x0E, 0x00,
  0x00, 0x00, 0x01, 0x00, 0x00, 0x00, 0x02, 0x00, 0x00, 0x00,
  0x01, 0x00, 0x00, 0x00, 0x02, 0x00, 0x00, 0x00, 0x00, 0x00,
  0x00, 0x01, 0x01, 0x00, 0x00, 0x00, 0x22, 0x00, 0x00, 0x00,
  0x01, 0x00, 0x00, 0x00, 0x21, 0x00, 0x00, 0x00, 0xEE, 0xFD,
  0xFF, 0xFF, 0x20, 0x00, 0x00, 0x00, 0x00, 0x00, 0x00, 0x01,
  0x2C, 0x00, 0x00, 0x00, 0x30, 0x00, 0x00, 0x00, 0x04, 0x00,
  0x00, 0x00, 0x0C, 0x00, 0x14, 0x00, 0x13, 0x00, 0x0C, 0x00,
  0x08, 0x00, 0x07, 0x00, 0x0C, 0x00, 0x00, 0x00, 0x00, 0x00,
  0x00, 0x03, 0x01, 0x00, 0x00, 0x00, 0x01, 0x00, 0x00, 0x00,
  0x00, 0x00, 0x00, 0x01, 0x01, 0x00, 0x00, 0x00, 0x21, 0x00,
  0x00, 0x00, 0x03, 0x00, 0x00, 0x00, 0x1B, 0x00, 0x00, 0x00,
  0x16, 0x00, 0x00, 0x00, 0x15, 0x00, 0x00, 0x00, 0xFA, 0xFE,
  0xFF, 0xFF, 0x0C, 0x00, 0x00, 0x00, 0x10, 0x00, 0x00, 0x00,
  0x03, 0x00, 0x00, 0x00, 0x01, 0x00, 0x00, 0x00, 0x20, 0x00,
  0x00, 0x00, 0x02, 0x00, 0x00, 0x00, 0x1C, 0x00, 0x00, 0x00,
  0x1F, 0x00, 0x00, 0x00, 0x62, 0xFE, 0xFF, 0xFF, 0x14, 0x00,
  0x00, 0x00, 0x00, 0x00, 0x00, 0x3B, 0x14, 0x00, 0x00, 0x00,
  0x18, 0x00, 0x00, 0x00, 0x02, 0x00, 0x00, 0x00, 0xEE, 0xFE,
  0xFF, 0xFF, 0x04, 0x00, 0x00, 0x00, 0x01, 0x00, 0x00, 0x00,
  0x1F, 0x00, 0x00, 0x00, 0x04, 0x00, 0x00, 0x00, 0x1E, 0x00,
  0x00, 0x00, 0x06, 0x00, 0x00, 0x00, 0x07, 0x00, 0x00, 0x00,
  0x08, 0x00, 0x00, 0x00, 0x56, 0xFE, 0xFF, 0xFF, 0x10, 0x00,
  0x00, 0x00, 0x00, 0x00, 0x00, 0x20, 0x10, 0x00, 0x00, 0x00,
  0x14, 0x00, 0x00, 0x00, 0xE6, 0xFE, 0xFF, 0xFF, 0x01, 0x00,
  0x00, 0x00, 0x01, 0x00, 0x00, 0x00, 0x1E, 0x00, 0x00, 0x00,
  0x04, 0x00, 0x00, 0x00, 0x1D, 0x00, 0x00, 0x00, 0x04, 0x00,
  0x00, 0x00, 0x05, 0x00, 0x00, 0x00, 0x05, 0x00, 0x00, 0x00,
  0xD6, 0xFE, 0xFF, 0xFF, 0x14, 0x00, 0x00, 0x00, 0x00, 0x00,
  0x00, 0x37, 0x14, 0x00, 0x00, 0x00, 0x18, 0x00, 0x00, 0x00,
  0x01, 0x00, 0x00, 0x00, 0xC6, 0xFE, 0xFF, 0xFF, 0x00, 0x00,
  0x00, 0x02, 0x01, 0x00, 0x00, 0x00, 0x1D, 0x00, 0x00, 0x00,
  0x01, 0x00, 0x00, 0x00, 0x1C, 0x00, 0x00, 0x00, 0xBE, 0xFE,
  0xFF, 0xFF, 0x10, 0x00, 0x00, 0x00, 0x00, 0x00, 0x00, 0x20,
  0x14, 0x00, 0x00, 0x00, 0x18, 0x00, 0x00, 0x00, 0xB0, 0xFE,
  0xFF, 0xFF, 0x05, 0x00, 0x00, 0x00, 0x05, 0x00, 0x00, 0x00,
  0x01, 0x00, 0x00, 0x00, 0x1C, 0x00, 0x00, 0x00, 0x04, 0x00,
  0x00, 0x00, 0x00, 0x00, 0x00, 0x00, 0x02, 0x00, 0x00, 0x00,
  0x09, 0x00, 0x00, 0x00, 0x03, 0x00, 0x00, 0x00, 0x00, 0x00,
  0x0A, 0x00, 0x10, 0x00, 0x0C, 0x00, 0x08, 0x00, 0x04, 0x00,
  0x0A, 0x00, 0x00, 0x00, 0x0C, 0x00, 0x00, 0x00, 0x10, 0x00,
  0x00, 0x00, 0x03, 0x00, 0x00, 0x00, 0x01, 0x00, 0x00, 0x00,
  0x1B, 0x00, 0x00, 0x00, 0x02, 0x00, 0x00, 0x00, 0x17, 0x00,
  0x00, 0x00, 0x1A, 0x00, 0x00, 0x00, 0x72, 0xFF, 0xFF, 0xFF,
  0x1C, 0x00, 0x00, 0x00, 0x00, 0x00, 0x00, 0x3B, 0x1C, 0x00,
  0x00, 0x00, 0x20, 0x00, 0x00, 0x00, 0x02, 0x00, 0x00, 0x00,
  0x00, 0x00, 0x06, 0x00, 0x08, 0x00, 0x04, 0x00, 0x06, 0x00,
  0x00, 0x00, 0x04, 0x00, 0x00, 0x00, 0x01, 0x00, 0x00, 0x00,
  0x1A, 0x00, 0x00, 0x00, 0x04, 0x00, 0x00, 0x00, 0x19, 0x00,
  0x00, 0x00, 0x06, 0x00, 0x00, 0x00, 0x07, 0x00, 0x00, 0x00,
  0x08, 0x00, 0x00, 0x00, 0x6E, 0xFF, 0xFF, 0xFF, 0x20, 0x00,
  0x00, 0x00, 0x00, 0x00, 0x00, 0x20, 0x20, 0x00, 0x00, 0x00,
  0x24, 0x00, 0x00, 0x00, 0x00, 0x00, 0x0E, 0x00, 0x08, 0x00,
  0x00, 0x00, 0x00, 0x00, 0x00, 0x00, 0x00, 0x00, 0x04, 0x00,
  0x0E, 0x00, 0x00, 0x00, 0x01, 0x00, 0x00, 0x00, 0x01, 0x00,
  0x00, 0x00, 0x19, 0x00, 0x00, 0x00, 0x04, 0x00, 0x00, 0x00,
  0x18, 0x00, 0x00, 0x00, 0x04, 0x00, 0x00, 0x00, 0x05, 0x00,
  0x00, 0x00, 0x05, 0x00, 0x00, 0x00, 0x00, 0x00, 0x0E, 0x00,
  0x1A, 0x00, 0x14, 0x00, 0x10, 0x00, 0x0C, 0x00, 0x0B, 0x00,
  0x04, 0x00, 0x0E, 0x00, 0x00, 0x00, 0x1C, 0x00, 0x00, 0x00,
  0x00, 0x00, 0x00, 0x37, 0x1C, 0x00, 0x00, 0x00, 0x20, 0x00,
  0x00, 0x00, 0x01, 0x00, 0x00, 0x00, 0x00, 0x00, 0x06, 0x00,
  0x08, 0x00, 0x07, 0x00, 0x06, 0x00, 0x00, 0x00, 0x00, 0x00,
  0x00, 0x02, 0x01, 0x00, 0x00, 0x00, 0x18, 0x00, 0x00, 0x00,
  0x01, 0x00, 0x00, 0x00, 0x17, 0x00, 0x00, 0x00, 0x00, 0x00,
  0x0E, 0x00, 0x14, 0x00, 0x00, 0x00, 0x10, 0x00, 0x0C, 0x00,
  0x0B, 0x00, 0x04, 0x00, 0x0E, 0x00, 0x00, 0x00, 0x18, 0x00,
  0x00, 0x00, 0x00, 0x00, 0x00, 0x20, 0x1C, 0x00, 0x00, 0x00,
  0x20, 0x00, 0x00, 0x00, 0x08, 0x00, 0x0C, 0x00, 0x08, 0x00,
  0x04, 0x00, 0x08, 0x00, 0x00, 0x00, 0x05, 0x00, 0x00, 0x00,
  0x05, 0x00, 0x00, 0x00, 0x01, 0x00, 0x00, 0x00, 0x17, 0x00,
  0x00, 0x00, 0x04, 0x00, 0x00, 0x00, 0x00, 0x00, 0x00, 0x00,
  0x01, 0x00, 0x00, 0x00, 0x02, 0x00, 0x00, 0x00, 0x03, 0x00,
  0x00, 0x00, 0x01, 0x00, 0x00, 0x00, 0x2D, 0x00, 0x00, 0x00,
  0x01, 0x00, 0x00, 0x00, 0x00, 0x00, 0x00, 0x00, 0x2E, 0x00,
  0x00, 0x00, 0xB0, 0x1B, 0x00, 0x00, 0x3C, 0x1B, 0x00, 0x00,
  0xCC, 0x1A, 0x00, 0x00, 0x74, 0x1A, 0x00, 0x00, 0x14, 0x1A,
  0x00, 0x00, 0xB4, 0x19, 0x00, 0x00, 0x5C, 0x19, 0x00, 0x00,
  0x04, 0x19, 0x00, 0x00, 0xAC, 0x18, 0x00, 0x00, 0x54, 0x18,
  0x00, 0x00, 0x04, 0x18, 0x00, 0x00, 0x8C, 0x17, 0x00, 0x00,
  0x20, 0x17, 0x00, 0x00, 0xA4, 0x16, 0x00, 0x00, 0x38, 0x16,
  0x00, 0x00, 0x04, 0x15, 0x00, 0x00, 0xD0, 0x13, 0x00, 0x00,
  0xFC, 0x12, 0x00, 0x00, 0x28, 0x12, 0x00, 0x00, 0xF4, 0x10,
  0x00, 0x00, 0xC0, 0x0F, 0x00, 0x00, 0xEC, 0x0E, 0x00, 0x00,
  0x18, 0x0E, 0x00, 0x00, 0x90, 0x0D, 0x00, 0x00, 0x40, 0x0D,
  0x00, 0x00, 0xEC, 0x0C, 0x00, 0x00, 0x94, 0x0C, 0x00, 0x00,
  0xFC, 0x0B, 0x00, 0x00, 0x74, 0x0B, 0x00, 0x00, 0x24, 0x0B,
  0x00, 0x00, 0xD0, 0x0A, 0x00, 0x00, 0x78, 0x0A, 0x00, 0x00,
  0xE0, 0x09, 0x00, 0x00, 0xAC, 0x08, 0x00, 0x00, 0x10, 0x08,
  0x00, 0x00, 0xDC, 0x06, 0x00, 0x00, 0x40, 0x06, 0x00, 0x00,
  0x2C, 0x05, 0x00, 0x00, 0x90, 0x04, 0x00, 0x00, 0x7C, 0x03,
  0x00, 0x00, 0xE0, 0x02, 0x00, 0x00, 0x4C, 0x02, 0x00, 0x00,
  0xC8, 0x01, 0x00, 0x00, 0x14, 0x01, 0x00, 0x00, 0x80, 0x00,
  0x00, 0x00, 0x04, 0x00, 0x00, 0x00, 0x1E, 0xE5, 0xFF, 0xFF,
  0x00, 0x00, 0x00, 0x01, 0x18, 0x00, 0x00, 0x00, 0x20, 0x00,
  0x00, 0x00, 0x3C, 0x00, 0x00, 0x00, 0x2E, 0x00, 0x00, 0x00,
  0x00, 0x00, 0x00, 0x09, 0x50, 0x00, 0x00, 0x00, 0x02, 0x00,
  0x00, 0x00, 0xFF, 0xFF, 0xFF, 0xFF, 0x04, 0x00, 0x00, 0x00,
  0x04, 0xE5, 0xFF, 0xFF, 0x08, 0x00, 0x00, 0x00, 0x10, 0x00,
  0x00, 0x00, 0x01, 0x00, 0x00, 0x00, 0x80, 0xFF, 0xFF, 0xFF,
  0xFF, 0xFF, 0xFF, 0xFF, 0x01, 0x00, 0x00, 0x00, 0x00, 0x00,
  0x80, 0x3B, 0x19, 0x00, 0x00, 0x00, 0x53, 0x74, 0x61, 0x74,
  0x65, 0x66, 0x75, 0x6C, 0x50, 0x61, 0x72, 0x74, 0x69, 0x74,
  0x69, 0x6F, 0x6E, 0x65, 0x64, 0x43, 0x61, 0x6C, 0x6C, 0x3A,
  0x30, 0x00, 0x00, 0x00, 0x02, 0x00, 0x00, 0x00, 0x01, 0x00,
  0x00, 0x00, 0x04, 0x00, 0x00, 0x00, 0x96, 0xE5, 0xFF, 0xFF,
  0x00, 0x00, 0x00, 0x01, 0x18, 0x00, 0x00, 0x00, 0x20, 0x00,
  0x00, 0x00, 0x3C, 0x00, 0x00, 0x00, 0x2D, 0x00, 0x00, 0x00,
  0x00, 0x00, 0x00, 0x09, 0x68, 0x00, 0x00, 0x00, 0x02, 0x00,
  0x00, 0x00, 0xFF, 0xFF, 0xFF, 0xFF, 0x04, 0x00, 0x00, 0x00,
  0x7C, 0xE5, 0xFF, 0xFF, 0x08, 0x00, 0x00, 0x00, 0x10, 0x00,
  0x00, 0x00, 0x01, 0x00, 0x00, 0x00, 0xE6, 0xFF, 0xFF, 0xFF,
  0xFF, 0xFF, 0xFF, 0xFF, 0x01, 0x00, 0x00, 0x00, 0xEE, 0x09,
  0xE3, 0x3E, 0x32, 0x00, 0x00, 0x00, 0x50, 0x61, 0x72, 0x61,
  0x6C, 0x6C, 0x65, 0x6C, 0x43, 0x4E, 0x4E, 0x5F, 0x32, 0x44,
  0x2F, 0x46, 0x32, 0x2F, 0x4D, 0x61, 0x74, 0x4D, 0x75, 0x6C,
  0x3B, 0x50, 0x61, 0x72, 0x61, 0x6C, 0x6C, 0x65, 0x6C, 0x43,
  0x4E, 0x4E, 0x5F, 0x32, 0x44, 0x2F, 0x46, 0x32, 0x2F, 0x42,
  0x69, 0x61, 0x73, 0x41, 0x64, 0x64, 0x00, 0x00, 0x02, 0x00,
  0x00, 0x00, 0x01, 0x00, 0x00, 0x00, 0x04, 0x00, 0x00, 0x00,
  0x26, 0xE6, 0xFF, 0xFF, 0x00, 0x00, 0x00, 0x01, 0x18, 0x00,
  0x00, 0x00, 0x20, 0x00, 0x00, 0x00, 0x40, 0x00, 0x00, 0x00,
  0x2C, 0x00, 0x00, 0x00, 0x00, 0x00, 0x00, 0x09, 0x88, 0x00,
  0x00, 0x00, 0x02, 0x00, 0x00, 0x00, 0xFF, 0xFF, 0xFF, 0xFF,
  0x40, 0x00, 0x00, 0x00, 0x0C, 0xE6, 0xFF, 0xFF, 0x08, 0x00,
  0x00, 0x00, 0x14, 0x00, 0x00, 0x00, 0x01, 0x00, 0x00, 0x00,
  0x80, 0xFF, 0xFF, 0xFF, 0xFF, 0xFF, 0xFF, 0xFF, 0x00, 0x00,
  0x00, 0x00, 0x01, 0x00, 0x00, 0x00, 0xC1, 0xC0, 0xC0, 0x3C,
  0x4F, 0x00, 0x00, 0x00, 0x50, 0x61, 0x72, 0x61, 0x6C, 0x6C,
  0x65, 0x6C, 0x43, 0x4E, 0x4E, 0x5F, 0x32, 0x44, 0x2F, 0x46,
  0x31, 0x2F, 0x4D, 0x61, 0x74, 0x4D, 0x75, 0x6C, 0x3B, 0x50,
  0x61, 0x72, 0x61, 0x6C, 0x6C, 0x65, 0x6C, 0x43, 0x4E, 0x4E,
  0x5F, 0x32, 0x44, 0x2F, 0x46, 0x31, 0x5F, 0x72, 0x65, 0x6C,
  0x75, 0x2F, 0x52, 0x65, 0x6C, 0x75, 0x36, 0x3B, 0x50, 0x61,
  0x72, 0x61, 0x6C, 0x6C, 0x65, 0x6C, 0x43, 0x4E, 0x4E, 0x5F,
  0x32, 0x44, 0x2F, 0x46, 0x31, 0x2F, 0x42, 0x69, 0x61, 0x73,
  0x41, 0x64, 0x64, 0x00, 0x02, 0x00, 0x00, 0x00, 0x01, 0x00,
  0x00, 0x00, 0x40, 0x00, 0x00, 0x00, 0xD6, 0xE6, 0xFF, 0xFF,
  0x00, 0x00, 0x00, 0x01, 0x18, 0x00, 0x00, 0x00, 0x20, 0x00,
  0x00, 0x00, 0x40, 0x00, 0x00, 0x00, 0x2B, 0x00, 0x00, 0x00,
  0x00, 0x00, 0x00, 0x09, 0x58, 0x00, 0x00, 0x00, 0x02, 0x00,
  0x00, 0x00, 0xFF, 0xFF, 0xFF, 0xFF, 0x70, 0x00, 0x00, 0x00,
  0xBC, 0xE6, 0xFF, 0xFF, 0x08, 0x00, 0x00, 0x00, 0x14, 0x00,
  0x00, 0x00, 0x01, 0x00, 0x00, 0x00, 0x80, 0xFF, 0xFF, 0xFF,
  0xFF, 0xFF, 0xFF, 0xFF, 0x00, 0x00, 0x00, 0x00, 0x01, 0x00,
  0x00, 0x00, 0xC1, 0xC0, 0x40, 0x3D, 0x1E, 0x00, 0x00, 0x00,
  0x50, 0x61, 0x72, 0x61, 0x6C, 0x6C, 0x65, 0x6C, 0x43, 0x4E,
  0x4E, 0x5F, 0x32, 0x44, 0x2F, 0x66, 0x6C, 0x61, 0x74, 0x74,
  0x65, 0x6E, 0x2F, 0x52, 0x65, 0x73, 0x68, 0x61, 0x70, 0x65,
  0x00, 0x00, 0x02, 0x00, 0x00, 0x00, 0x01, 0x00, 0x00, 0x00,
  0x70, 0x00, 0x00, 0x00, 0x56, 0xE7, 0xFF, 0xFF, 0x00, 0x00,
  0x00, 0x01, 0x18, 0x00, 0x00, 0x00, 0x28, 0x00, 0x00, 0x00,
  0x48, 0x00, 0x00, 0x00, 0x2A, 0x00, 0x00, 0x00, 0x00, 0x00,
  0x00, 0x09, 0x60, 0x00, 0x00, 0x00, 0x04, 0x00, 0x00, 0x00,
  0xFF, 0xFF, 0xFF, 0xFF, 0x01, 0x00, 0x00, 0x00, 0x07, 0x00,
  0x00, 0x00, 0x10, 0x00, 0x00, 0x00, 0x44, 0xE7, 0xFF, 0xFF,
  0x08, 0x00, 0x00, 0x00, 0x14, 0x00, 0x00, 0x00, 0x01, 0x00,
  0x00, 0x00, 0x80, 0xFF, 0xFF, 0xFF, 0xFF, 0xFF, 0xFF, 0xFF,
  0x00, 0x00, 0x00, 0x00, 0x01, 0x00, 0x00, 0x00, 0xC1, 0xC0,
  0x40, 0x3D, 0x1F, 0x00, 0x00, 0x00, 0x50, 0x61, 0x72, 0x61,
  0x6C, 0x6C, 0x65, 0x6C, 0x43, 0x4E, 0x4E, 0x5F, 0x32, 0x44,
  0x2F, 0x61, 0x64, 0x64, 0x5F, 0x62, 0x72, 0x61, 0x6E, 0x63,
  0x68, 0x65, 0x73, 0x2F, 0x61, 0x64, 0x64, 0x00, 0x04, 0x00,
  0x00, 0x00, 0x01, 0x00, 0x00, 0x00, 0x01, 0x00, 0x00, 0x00,
  0x07, 0x00, 0x00, 0x00, 0x10, 0x00, 0x00, 0x00, 0xE6, 0xE7,
  0xFF, 0xFF, 0x00, 0x00, 0x00, 0x01, 0x18, 0x00, 0x00, 0x00,
  0x28, 0x00, 0x00, 0x00, 0x48, 0x00, 0x00, 0x00, 0x29, 0x00,
  0x00, 0x00, 0x00, 0x00, 0x00, 0x09, 0x68, 0x00, 0x00, 0x00,
  0x04, 0x00, 0x00, 0x00, 0xFF, 0xFF, 0xFF, 0xFF, 0x01, 0x00,
  0x00, 0x00, 0x07, 0x00, 0x00, 0x00, 0x10, 0x00, 0x00, 0x00,
  0xD4, 0xE7, 0xFF, 0xFF, 0x08, 0x00, 0x00, 0x00, 0x14, 0x00,
  0x00, 0x00, 0x01, 0x00, 0x00, 0x00, 0x80, 0xFF, 0xFF, 0xFF,
  0xFF, 0xFF, 0xFF, 0xFF, 0x00, 0x00, 0x00, 0x00, 0x01, 0x00,
  0x00, 0x00, 0xC1, 0xC0, 0xC0, 0x3C, 0x24, 0x00, 0x00, 0x00,
  0x50, 0x61, 0x72, 0x61, 0x6C, 0x6C, 0x65, 0x6C, 0x43, 0x4E,
  0x4E, 0x5F, 0x32, 0x44, 0x2F, 0x62, 0x72, 0x61, 0x6E, 0x63,
  0x68, 0x32, 0x5F, 0x70, 0x6F, 0x6F, 0x6C, 0x32, 0x2F, 0x4D,
  0x61, 0x78, 0x50, 0x6F, 0x6F, 0x6C, 0x00, 0x00, 0x00, 0x00,
  0x04, 0x00, 0x00, 0x00, 0x01, 0x00, 0x00, 0x00, 0x01, 0x00,
  0x00, 0x00, 0x07, 0x00, 0x00, 0x00, 0x10, 0x00, 0x00, 0x00,
  0x7E, 0xE8, 0xFF, 0xFF, 0x00, 0x00, 0x00, 0x01, 0x18, 0x00,
  0x00, 0x00, 0x28, 0x00, 0x00, 0x00, 0x48, 0x00, 0x00, 0x00,
  0x28, 0x00, 0x00, 0x00, 0x00, 0x00, 0x00, 0x09, 0xE0, 0x00,
  0x00, 0x00, 0x04, 0x00, 0x00, 0x00, 0xFF, 0xFF, 0xFF, 0xFF,
  0x01, 0x00, 0x00, 0x00, 0x0E, 0x00, 0x00, 0x00, 0x10, 0x00,
  0x00, 0x00, 0x6C, 0xE8, 0xFF, 0xFF, 0x08, 0x00, 0x00, 0x00,
  0x14, 0x00, 0x00, 0x00, 0x01, 0x00, 0x00, 0x00, 0x80, 0xFF,
  0xFF, 0xFF, 0xFF, 0xFF, 0xFF, 0xFF, 0x00, 0x00, 0x00, 0x00,
  0x01, 0x00, 0x00, 0x00, 0xC1, 0xC0, 0xC0, 0x3C, 0x9F, 0x00,
  0x00, 0x00, 0x50, 0x61, 0x72, 0x61, 0x6C, 0x6C, 0x65, 0x6C,
  0x43, 0x4E, 0x4E, 0x5F, 0x32, 0x44, 0x2F, 0x62, 0x72, 0x61,
  0x6E, 0x63, 0x68, 0x32, 0x5F, 0x72, 0x65, 0x6C, 0x75, 0x32,
  0x2F, 0x52, 0x65, 0x6C, 0x75, 0x36, 0x3B, 0x50, 0x61, 0x72,
  0x61, 0x6C, 0x6C, 0x65, 0x6C, 0x43, 0x4E, 0x4E, 0x5F, 0x32,
  0x44, 0x2F, 0x62, 0x72, 0x61, 0x6E, 0x63, 0x68, 0x32, 0x5F,
  0x63, 0x6F, 0x6E, 0x76, 0x32, 0x2F, 0x42, 0x69, 0x61, 0x73,
  0x41, 0x64, 0x64, 0x3B, 0x50, 0x61, 0x72, 0x61, 0x6C, 0x6C,
  0x65, 0x6C, 0x43, 0x4E, 0x4E, 0x5F, 0x32, 0x44, 0x2F, 0x62,
  0x72, 0x61, 0x6E, 0x63, 0x68, 0x32, 0x5F, 0x63, 0x6F, 0x6E,
  0x76, 0x32, 0x2F, 0x43, 0x6F, 0x6E, 0x76, 0x32, 0x44, 0x3B,
  0x50, 0x61, 0x72, 0x61, 0x6C, 0x6C, 0x65, 0x6C, 0x43, 0x4E,
  0x4E, 0x5F, 0x32, 0x44, 0x2F, 0x62, 0x72, 0x61, 0x6E, 0x63,
  0x68, 0x32, 0x5F, 0x63, 0x6F, 0x6E, 0x76, 0x32, 0x2F, 0x42,
  0x69, 0x61, 0x73, 0x41, 0x64, 0x64, 0x2F, 0x52, 0x65, 0x61,
  0x64, 0x56, 0x61, 0x72, 0x69, 0x61, 0x62, 0x6C, 0x65, 0x4F,
  0x70, 0x00, 0x04, 0x00, 0x00, 0x00, 0x01, 0x00, 0x00, 0x00,
  0x01, 0x00, 0x00, 0x00, 0x0E, 0x00, 0x00, 0x00, 0x10, 0x00,
  0x00, 0x00, 0x8E, 0xE9, 0xFF, 0xFF, 0x00, 0x00, 0x00, 0x01,
  0x18, 0x00, 0x00, 0x00, 0x28, 0x00, 0x00, 0x00, 0x48, 0x00,
  0x00, 0x00, 0x27, 0x00, 0x00, 0x00, 0x00, 0x00, 0x00, 0x09,
  0x68, 0x00, 0x00, 0x00, 0x04, 0x00, 0x00, 0x00, 0xFF, 0xFF,
  0xFF, 0xFF, 0x01, 0x00, 0x00, 0x00, 0x1F, 0x00, 0x00, 0x00,
  0x08, 0x00, 0x00, 0x00, 0x7C, 0xE9, 0xFF, 0xFF, 0x08, 0x00,
  0x00, 0x00, 0x14, 0x00, 0x00, 0x00, 0x01, 0x00, 0x00, 0x00,
  0x80, 0xFF, 0xFF, 0xFF, 0xFF, 0xFF, 0xFF, 0xFF, 0x00, 0x00,
  0x00, 0x00, 0x01, 0x00, 0x00, 0x00, 0xC1, 0xC0, 0xC0, 0x3C,
  0x24, 0x00, 0x00, 0x00, 0x50, 0x61, 0x72, 0x61, 0x6C, 0x6C,
  0x65, 0x6C, 0x43, 0x4E, 0x4E, 0x5F, 0x32, 0x44, 0x2F, 0x62,
  0x72, 0x61, 0x6E, 0x63, 0x68, 0x32, 0x5F, 0x70, 0x6F, 0x6F,
  0x6C, 0x31, 0x2F, 0x4D, 0x61, 0x78, 0x50, 0x6F, 0x6F, 0x6C,
  0x00, 0x00, 0x00, 0x00, 0x04, 0x00, 0x00, 0x00, 0x01, 0x00,
  0x00, 0x00, 0x01, 0x00, 0x00, 0x00, 0x1F, 0x00, 0x00, 0x00,
  0x08, 0x00, 0x00, 0x00, 0x26, 0xEA, 0xFF, 0xFF, 0x00, 0x00,
  0x00, 0x01, 0x18, 0x00, 0x00, 0x00, 0x28, 0x00, 0x00, 0x00,
  0x48, 0x00, 0x00, 0x00, 0x26, 0x00, 0x00, 0x00, 0x00, 0x00,
  0x00, 0x09, 0xE0, 0x00, 0x00, 0x00, 0x04, 0x00, 0x00, 0x00,
  0xFF, 0xFF, 0xFF, 0xFF, 0x01, 0x00, 0x00, 0x00, 0x3E, 0x00,
  0x00, 0x00, 0x08, 0x00, 0x00, 0x00, 0x14, 0xEA, 0xFF, 0xFF,
  0x08, 0x00, 0x00, 0x00, 0x14, 0x00, 0x00, 0x00, 0x01, 0x00,
  0x00, 0x00, 0x80, 0xFF, 0xFF, 0xFF, 0xFF, 0xFF, 0xFF, 0xFF,
  0x00, 0x00, 0x00, 0x00, 0x01, 0x00, 0x00, 0x00, 0xC1, 0xC0,
  0xC0, 0x3C, 0x9F, 0x00, 0x00, 0x00, 0x50, 0x61, 0x72, 0x61,
  0x6C, 0x6C, 0x65, 0x6C, 0x43, 0x4E, 0x4E, 0x5F, 0x32, 0x44,
  0x2F, 0x62, 0x72, 0x61, 0x6E, 0x63, 0x68, 0x32, 0x5F, 0x72,
  0x65, 0x6C, 0x75, 0x31, 0x2F, 0x52, 0x65, 0x6C, 0x75, 0x36,
  0x3B, 0x50, 0x61, 0x72, 0x61, 0x6C, 0x6C, 0x65, 0x6C, 0x43,
  0x4E, 0x4E, 0x5F, 0x32, 0x44, 0x2F, 0x62, 0x72, 0x61, 0x6E,
  0x63, 0x68, 0x32, 0x5F, 0x63, 0x6F, 0x6E, 0x76, 0x31, 0x2F,
  0x42, 0x69, 0x61, 0x73, 0x41, 0x64, 0x64, 0x3B, 0x50, 0x61,
  0x72, 0x61, 0x6C, 0x6C, 0x65, 0x6C, 0x43, 0x4E, 0x4E, 0x5F,
  0x32, 0x44, 0x2F, 0x62, 0x72, 0x61, 0x6E, 0x63, 0x68, 0x32,
  0x5F, 0x63, 0x6F, 0x6E, 0x76, 0x31, 0x2F, 0x43, 0x6F, 0x6E,
  0x76, 0x32, 0x44, 0x3B, 0x50, 0x61, 0x72, 0x61, 0x6C, 0x6C,
  0x65, 0x6C, 0x43, 0x4E, 0x4E, 0x5F, 0x32, 0x44, 0x2F, 0x62,
  0x72, 0x61, 0x6E, 0x63, 0x68, 0x32, 0x5F, 0x63, 0x6F, 0x6E,
  0x76, 0x31, 0x2F, 0x42, 0x69, 0x61, 0x73, 0x41, 0x64, 0x64,
  0x2F, 0x52, 0x65, 0x61, 0x64, 0x56, 0x61, 0x72, 0x69, 0x61,
  0x62, 0x6C, 0x65, 0x4F, 0x70, 0x00, 0x04, 0x00, 0x00, 0x00,
  0x01, 0x00, 0x00, 0x00, 0x01, 0x00, 0x00, 0x00, 0x3E, 0x00,
  0x00, 0x00, 0x08, 0x00, 0x00, 0x00, 0x36, 0xEB, 0xFF, 0xFF,
  0x00, 0x00, 0x00, 0x01, 0x18, 0x00, 0x00, 0x00, 0x28, 0x00,
  0x00, 0x00, 0x48, 0x00, 0x00, 0x00, 0x25, 0x00, 0x00, 0x00,
  0x00, 0x00, 0x00, 0x09, 0x68, 0x00, 0x00, 0x00, 0x04, 0x00,
  0x00, 0x00, 0xFF, 0xFF, 0xFF, 0xFF, 0x01, 0x00, 0x00, 0x00,
  0x07, 0x00, 0x00, 0x00, 0x10, 0x00, 0x00, 0x00, 0x24, 0xEB,
  0xFF, 0xFF, 0x08, 0x00, 0x00, 0x00, 0x14, 0x00, 0x00, 0x00,
  0x01, 0x00, 0x00, 0x00, 0x80, 0xFF, 0xFF, 0xFF, 0xFF, 0xFF,
  0xFF, 0xFF, 0x00, 0x00, 0x00, 0x00, 0x01, 0x00, 0x00, 0x00,
  0xC1, 0xC0, 0xC0, 0x3C, 0x24, 0x00, 0x00, 0x00, 0x50, 0x61,
  0x72, 0x61, 0x6C, 0x6C, 0x65, 0x6C, 0x43, 0x4E, 0x4E, 0x5F,
  0x32, 0x44, 0x2F, 0x62, 0x72, 0x61, 0x6E, 0x63, 0x68, 0x31,
  0x5F, 0x70, 0x6F, 0x6F, 0x6C, 0x32, 0x2F, 0x4D, 0x61, 0x78,
  0x50, 0x6F, 0x6F, 0x6C, 0x00, 0x00, 0x00, 0x00, 0x04, 0x00,
  0x00, 0x00, 0x01, 0x00, 0x00, 0x00, 0x01, 0x00, 0x00, 0x00,
  0x07, 0x00, 0x00, 0x00, 0x10, 0x00, 0x00, 0x00, 0xCE, 0xEB,
  0xFF, 0xFF, 0x00, 0x00, 0x00, 0x01, 0x18, 0x00, 0x00, 0x00,
  0x28, 0x00, 0x00, 0x00, 0x44, 0x00, 0x00, 0x00, 0x24, 0x00,
  0x00, 0x00, 0x00, 0x00, 0x00, 0x09, 0x00, 0x01, 0x00, 0x00,
  0x04, 0x00, 0x00, 0x00, 0xFF, 0xFF, 0xFF, 0xFF, 0x01, 0x00,
  0x00, 0x00, 0x0E, 0x00, 0x00, 0x00, 0x10, 0x00, 0x00, 0x00,
  0xBC, 0xEB, 0xFF, 0xFF, 0x08, 0x00, 0x00, 0x00, 0x10, 0x00,
  0x00, 0x00, 0x01, 0x00, 0x00, 0x00, 0x80, 0xFF, 0xFF, 0xFF,
  0xFF, 0xFF, 0xFF, 0xFF, 0x01, 0x00, 0x00, 0x00, 0xC1, 0xC0,
  0xC0, 0x3C, 0xC3, 0x00, 0x00, 0x00, 0x50, 0x61, 0x72, 0x61,
  0x6C, 0x6C, 0x65, 0x6C, 0x43, 0x4E, 0x4E, 0x5F, 0x32, 0x44,
  0x2F, 0x62, 0x72, 0x61, 0x6E, 0x63, 0x68, 0x31, 0x5F, 0x72,
  0x65, 0x6C, 0x75, 0x32, 0x2F, 0x52, 0x65, 0x6C, 0x75, 0x36,
  0x3B, 0x50, 0x61, 0x72, 0x61, 0x6C, 0x6C, 0x65, 0x6C, 0x43,
  0x4E, 0x4E, 0x5F, 0x32, 0x44, 0x2F, 0x62, 0x72, 0x61, 0x6E,
  0x63, 0x68, 0x31, 0x5F, 0x63, 0x6F, 0x6E, 0x76, 0x32, 0x2F,
  0x42, 0x69, 0x61, 0x73, 0x41, 0x64, 0x64, 0x3B, 0x50, 0x61,
  0x72, 0x61, 0x6C, 0x6C, 0x65, 0x6C, 0x43, 0x4E, 0x4E, 0x5F,
  0x32, 0x44, 0x2F, 0x62, 0x72, 0x61, 0x6E, 0x63, 0x68, 0x32,
  0x5F, 0x63, 0x6F, 0x6E, 0x76, 0x32, 0x2F, 0x43, 0x6F, 0x6E,
  0x76, 0x32, 0x44, 0x3B, 0x50, 0x61, 0x72, 0x61, 0x6C, 0x6C,
  0x65, 0x6C, 0x43, 0x4E, 0x4E, 0x5F, 0x32, 0x44, 0x2F, 0x62,
  0x72, 0x61, 0x6E, 0x63, 0x68, 0x31, 0x5F, 0x63, 0x6F, 0x6E,
  0x76, 0x32, 0x2F, 0x43, 0x6F, 0x6E, 0x76, 0x32, 0x44, 0x3B,
  0x50, 0x61, 0x72, 0x61, 0x6C, 0x6C, 0x65, 0x6C, 0x43, 0x4E,
  0x4E, 0x5F, 0x32, 0x44, 0x2F, 0x62, 0x72, 0x61, 0x6E, 0x63,
  0x68, 0x31, 0x5F, 0x63, 0x6F, 0x6E, 0x76, 0x32, 0x2F, 0x42,
  0x69, 0x61, 0x73, 0x41, 0x64, 0x64, 0x2F, 0x52, 0x65, 0x61,
  0x64, 0x56, 0x61, 0x72, 0x69, 0x61, 0x62, 0x6C, 0x65, 0x4F,
  0x70, 0x00, 0x04, 0x00, 0x00, 0x00, 0x01, 0x00, 0x00, 0x00,
  0x01, 0x00, 0x00, 0x00, 0x0E, 0x00, 0x00, 0x00, 0x10, 0x00,
  0x00, 0x00, 0xFE, 0xEC, 0xFF, 0xFF, 0x00, 0x00, 0x00, 0x01,
  0x18, 0x00, 0x00, 0x00, 0x28, 0x00, 0x00, 0x00, 0x48, 0x00,
  0x00, 0x00, 0x23, 0x00, 0x00, 0x00, 0x00, 0x00, 0x00, 0x09,
  0x68, 0x00, 0x00, 0x00, 0x04, 0x00, 0x00, 0x00, 0xFF, 0xFF,
  0xFF, 0xFF, 0x01, 0x00, 0x00, 0x00, 0x1F, 0x00, 0x00, 0x00,
  0x08, 0x00, 0x00, 0x00, 0xEC, 0xEC, 0xFF, 0xFF, 0x08, 0x00,
  0x00, 0x00, 0x14, 0x00, 0x00, 0x00, 0x01, 0x00, 0x00, 0x00,
  0x80, 0xFF, 0xFF, 0xFF, 0xFF, 0xFF, 0xFF, 0xFF, 0x00, 0x00,
  0x00, 0x00, 0x01, 0x00, 0x00, 0x00, 0xC1, 0xC0, 0xC0, 0x3C,
  0x24, 0x00, 0x00, 0x00, 0x50, 0x61, 0x72, 0x61, 0x6C, 0x6C,
  0x65, 0x6C, 0x43, 0x4E, 0x4E, 0x5F, 0x32, 0x44, 0x2F, 0x62,
  0x72, 0x61, 0x6E, 0x63, 0x68, 0x31, 0x5F, 0x70, 0x6F, 0x6F,
  0x6C, 0x31, 0x2F, 0x4D, 0x61, 0x78, 0x50, 0x6F, 0x6F, 0x6C,
  0x00, 0x00, 0x00, 0x00, 0x04, 0x00, 0x00, 0x00, 0x01, 0x00,
  0x00, 0x00, 0x01, 0x00, 0x00, 0x00, 0x1F, 0x00, 0x00, 0x00,
  0x08, 0x00, 0x00, 0x00, 0x96, 0xED, 0xFF, 0xFF, 0x00, 0x00,
  0x00, 0x01, 0x18, 0x00, 0x00, 0x00, 0x28, 0x00, 0x00, 0x00,
  0x44, 0x00, 0x00, 0x00, 0x22, 0x00, 0x00, 0x00, 0x00, 0x00,
  0x00, 0x09, 0x00, 0x01, 0x00, 0x00, 0x04, 0x00, 0x00, 0x00,
  0xFF, 0xFF, 0xFF, 0xFF, 0x01, 0x00, 0x00, 0x00, 0x3E, 0x00,
  0x00, 0x00, 0x08, 0x00, 0x00, 0x00, 0x84, 0xED, 0xFF, 0xFF,
  0x08, 0x00, 0x00, 0x00, 0x10, 0x00, 0x00, 0x00, 0x01, 0x00,
  0x00, 0x00, 0x80, 0xFF, 0xFF, 0xFF, 0xFF, 0xFF, 0xFF, 0xFF,
  0x01, 0x00, 0x00, 0x00, 0xC1, 0xC0, 0xC0, 0x3C, 0xC3, 0x00,
  0x00, 0x00, 0x50, 0x61, 0x72, 0x61, 0x6C, 0x6C, 0x65, 0x6C,
  0x43, 0x4E, 0x4E, 0x5F, 0x32, 0x44, 0x2F, 0x62, 0x72, 0x61,
  0x6E, 0x63, 0x68, 0x31, 0x5F, 0x72, 0x65, 0x6C, 0x75, 0x31,
  0x2F, 0x52, 0x65, 0x6C, 0x75, 0x36, 0x3B, 0x50, 0x61, 0x72,
  0x61, 0x6C, 0x6C, 0x65, 0x6C, 0x43, 0x4E, 0x4E, 0x5F, 0x32,
  0x44, 0x2F, 0x62, 0x72, 0x61, 0x6E, 0x63, 0x68, 0x31, 0x5F,
  0x63, 0x6F, 0x6E, 0x76, 0x31, 0x2F, 0x42, 0x69, 0x61, 0x73,
  0x41, 0x64, 0x64, 0x3B, 0x50, 0x61, 0x72, 0x61, 0x6C, 0x6C,
  0x65, 0x6C, 0x43, 0x4E, 0x4E, 0x5F, 0x32, 0x44, 0x2F, 0x62,
  0x72, 0x61, 0x6E, 0x63, 0x68, 0x32, 0x5F, 0x63, 0x6F, 0x6E,
  0x76, 0x31, 0x2F, 0x43, 0x6F, 0x6E, 0x76, 0x32, 0x44, 0x3B,
  0x50, 0x61, 0x72, 0x61, 0x6C, 0x6C, 0x65, 0x6C, 0x43, 0x4E,
  0x4E, 0x5F, 0x32, 0x44, 0x2F, 0x62, 0x72, 0x61, 0x6E, 0x63,
  0x68, 0x31, 0x5F, 0x63, 0x6F, 0x6E, 0x76, 0x31, 0x2F, 0x43,
  0x6F, 0x6E, 0x76, 0x32, 0x44, 0x3B, 0x50, 0x61, 0x72, 0x61,
  0x6C, 0x6C, 0x65, 0x6C, 0x43, 0x4E, 0x4E, 0x5F, 0x32, 0x44,
  0x2F, 0x62, 0x72, 0x61, 0x6E, 0x63, 0x68, 0x31, 0x5F, 0x63,
  0x6F, 0x6E, 0x76, 0x31, 0x2F, 0x42, 0x69, 0x61, 0x73, 0x41,
  0x64, 0x64, 0x2F, 0x52, 0x65, 0x61, 0x64, 0x56, 0x61, 0x72,
  0x69, 0x61, 0x62, 0x6C, 0x65, 0x4F, 0x70, 0x00, 0x04, 0x00,
  0x00, 0x00, 0x01, 0x00, 0x00, 0x00, 0x01, 0x00, 0x00, 0x00,
  0x3E, 0x00, 0x00, 0x00, 0x08, 0x00, 0x00, 0x00, 0xC6, 0xEE,
  0xFF, 0xFF, 0x00, 0x00, 0x00, 0x01, 0x18, 0x00, 0x00, 0x00,
  0x28, 0x00, 0x00, 0x00, 0x48, 0x00, 0x00, 0x00, 0x21, 0x00,
  0x00, 0x00, 0x00, 0x00, 0x00, 0x09, 0x64, 0x00, 0x00, 0x00,
  0x04, 0x00, 0x00, 0x00, 0xFF, 0xFF, 0xFF, 0xFF, 0x01, 0x00,
  0x00, 0x00, 0x40, 0x00, 0x00, 0x00, 0x02, 0x00, 0x00, 0x00,
  0xB4, 0xEE, 0xFF, 0xFF, 0x08, 0x00, 0x00, 0x00, 0x14, 0x00,
  0x00, 0x00, 0x01, 0x00, 0x00, 0x00, 0xFF, 0xFF, 0xFF, 0xFF,
  0xFF, 0xFF, 0xFF, 0xFF, 0x00, 0x00, 0x00, 0x00, 0x01, 0x00,
  0x00, 0x00, 0xC5, 0xBD, 0x11, 0x3D, 0x21, 0x00, 0x00, 0x00,
  0x50, 0x61, 0x72, 0x61, 0x6C, 0x6C, 0x65, 0x6C, 0x43, 0x4E,
  0x4E, 0x5F, 0x32, 0x44, 0x2F, 0x72, 0x65, 0x73, 0x68, 0x61,
  0x70, 0x65, 0x5F, 0x49, 0x32, 0x2F, 0x52, 0x65, 0x73, 0x68,
  0x61, 0x70, 0x65, 0x00, 0x00, 0x00, 0x04, 0x00, 0x00, 0x00,
  0x01, 0x00, 0x00, 0x00, 0x01, 0x00, 0x00, 0x00, 0x40, 0x00,
  0x00, 0x00, 0x02, 0x00, 0x00, 0x00, 0xCA, 0xEF, 0xFF, 0xFF,
  0x00, 0x00, 0x00, 0x01, 0x14, 0x00, 0x00, 0x00, 0x14, 0x00,
  0x00, 0x00, 0x20, 0x00, 0x00, 0x00, 0x00, 0x00, 0x00, 0x02,
  0x34, 0x00, 0x00, 0x00, 0xB4, 0xEF, 0xFF, 0xFF, 0x27, 0x00,
  0x00, 0x00, 0x50, 0x61, 0x72, 0x61, 0x6C, 0x6C, 0x65, 0x6C,
  0x43, 0x4E, 0x4E, 0x5F, 0x32, 0x44, 0x2F, 0x72, 0x65, 0x73,
  0x68, 0x61, 0x70, 0x65, 0x5F, 0x49, 0x32, 0x2F, 0x52, 0x65,
  0x73, 0x68, 0x61, 0x70, 0x65, 0x2F, 0x73, 0x68, 0x61, 0x70,
  0x65, 0x00, 0x01, 0x00, 0x00, 0x00, 0x04, 0x00, 0x00, 0x00,
  0x1E, 0xF0, 0xFF, 0xFF, 0x00, 0x00, 0x00, 0x01, 0x14, 0x00,
  0x00, 0x00, 0x14, 0x00, 0x00, 0x00, 0x1F, 0x00, 0x00, 0x00,
  0x00, 0x00, 0x00, 0x02, 0x34, 0x00, 0x00, 0x00, 0x08, 0xF0,
  0xFF, 0xFF, 0x27, 0x00, 0x00, 0x00, 0x50, 0x61, 0x72, 0x61,
  0x6C, 0x6C, 0x65, 0x6C, 0x43, 0x4E, 0x4E, 0x5F, 0x32, 0x44,
  0x2F, 0x72, 0x65, 0x73, 0x68, 0x61, 0x70, 0x65, 0x5F, 0x49,
  0x32, 0x2F, 0x73, 0x74, 0x72, 0x69, 0x64, 0x65, 0x64, 0x5F,
  0x73, 0x6C, 0x69, 0x63, 0x65, 0x00, 0x00, 0x00, 0x00, 0x00,
  0x6E, 0xF0, 0xFF, 0xFF, 0x00, 0x00, 0x00, 0x01, 0x14, 0x00,
  0x00, 0x00, 0x14, 0x00, 0x00, 0x00, 0x1E, 0x00, 0x00, 0x00,
  0x00, 0x00, 0x00, 0x02, 0x2C, 0x00, 0x00, 0x00, 0x58, 0xF0,
  0xFF, 0xFF, 0x1F, 0x00, 0x00, 0x00, 0x50, 0x61, 0x72, 0x61,
  0x6C, 0x6C, 0x65, 0x6C, 0x43, 0x4E, 0x4E, 0x5F, 0x32, 0x44,
  0x2F, 0x72, 0x65, 0x73, 0x68, 0x61, 0x70, 0x65, 0x5F, 0x49,
  0x32, 0x2F, 0x53, 0x68, 0x61, 0x70, 0x65, 0x00, 0x01, 0x00,
  0x00, 0x00, 0x03, 0x00, 0x00, 0x00, 0x4A, 0xF0, 0xFF, 0xFF,
  0x00, 0x00, 0x00, 0x01, 0x18, 0x00, 0x00, 0x00, 0x24, 0x00,
  0x00, 0x00, 0x40, 0x00, 0x00, 0x00, 0x1D, 0x00, 0x00, 0x00,
  0x00, 0x00, 0x00, 0x09, 0x58, 0x00, 0x00, 0x00, 0x03, 0x00,
  0x00, 0x00, 0xFF, 0xFF, 0xFF, 0xFF, 0x40, 0x00, 0x00, 0x00,
  0x02, 0x00, 0x00, 0x00, 0x34, 0xF0, 0xFF, 0xFF, 0x08, 0x00,
  0x00, 0x00, 0x10, 0x00, 0x00, 0x00, 0x01, 0x00, 0x00, 0x00,
  0xFF, 0xFF, 0xFF, 0xFF, 0xFF, 0xFF, 0xFF, 0xFF, 0x01, 0x00,
  0x00, 0x00, 0xC5, 0xBD, 0x11, 0x3D, 0x1F, 0x00, 0x00, 0x00,
  0x50, 0x61, 0x72, 0x61, 0x6C, 0x6C, 0x65, 0x6C, 0x43, 0x4E,
  0x4E, 0x5F, 0x32, 0x44, 0x2F, 0x49, 0x32, 0x2F, 0x73, 0x74,
  0x72, 0x69, 0x64, 0x65, 0x64, 0x5F, 0x73, 0x6C, 0x69, 0x63,
  0x65, 0x00, 0x03, 0x00, 0x00, 0x00, 0x01, 0x00, 0x00, 0x00,
  0x40, 0x00, 0x00, 0x00, 0x02, 0x00, 0x00, 0x00, 0xCE, 0xF0,
  0xFF, 0xFF, 0x00, 0x00, 0x00, 0x01, 0x18, 0x00, 0x00, 0x00,
  0x28, 0x00, 0x00, 0x00, 0x48, 0x00, 0x00, 0x00, 0x1C, 0x00,
  0x00, 0x00, 0x00, 0x00, 0x00, 0x09, 0x64, 0x00, 0x00, 0x00,
  0x04, 0x00, 0x00, 0x00, 0xFF, 0xFF, 0xFF, 0xFF, 0x01, 0x00,
  0x00, 0x00, 0x40, 0x00, 0x00, 0x00, 0x02, 0x00, 0x00, 0x00,
  0xBC, 0xF0, 0xFF, 0xFF, 0x08, 0x00, 0x00, 0x00, 0x14, 0x00,
  0x00, 0x00, 0x01, 0x00, 0x00, 0x00, 0xFF, 0xFF, 0xFF, 0xFF,
  0xFF, 0xFF, 0xFF, 0xFF, 0x00, 0x00, 0x00, 0x00, 0x01, 0x00,
  0x00, 0x00, 0xC5, 0xBD, 0x11, 0x3D, 0x21, 0x00, 0x00, 0x00,
  0x50, 0x61, 0x72, 0x61, 0x6C, 0x6C, 0x65, 0x6C, 0x43, 0x4E,
  0x4E, 0x5F, 0x32, 0x44, 0x2F, 0x72, 0x65, 0x73, 0x68, 0x61,
  0x70, 0x65, 0x5F, 0x49, 0x31, 0x2F, 0x52, 0x65, 0x73, 0x68,
  0x61, 0x70, 0x65, 0x00, 0x00, 0x00, 0x04, 0x00, 0x00, 0x00,
  0x01, 0x00, 0x00, 0x00, 0x01, 0x00, 0x00, 0x00, 0x40, 0x00,
  0x00, 0x00, 0x02, 0x00, 0x00, 0x00, 0xD2, 0xF1, 0xFF, 0xFF,
  0x00, 0x00, 0x00, 0x01, 0x14, 0x00, 0x00, 0x00, 0x14, 0x00,
  0x00, 0x00, 0x1B, 0x00, 0x00, 0x00, 0x00, 0x00, 0x00, 0x02,
  0x34, 0x00, 0x00, 0x00, 0xBC, 0xF1, 0xFF, 0xFF, 0x27, 0x00,
  0x00, 0x00, 0x50, 0x61, 0x72, 0x61, 0x6C, 0x6C, 0x65, 0x6C,
  0x43, 0x4E, 0x4E, 0x5F, 0x32, 0x44, 0x2F, 0x72, 0x65, 0x73,
  0x68, 0x61, 0x70, 0x65, 0x5F, 0x49, 0x31, 0x2F, 0x52, 0x65,
  0x73, 0x68, 0x61, 0x70, 0x65, 0x2F, 0x73, 0x68, 0x61, 0x70,
  0x65, 0x00, 0x01, 0x00, 0x00, 0x00, 0x04, 0x00, 0x00, 0x00,
  0x26, 0xF2, 0xFF, 0xFF, 0x00, 0x00, 0x00, 0x01, 0x14, 0x00,
  0x00, 0x00, 0x14, 0x00, 0x00, 0x00, 0x1A, 0x00, 0x00, 0x00,
  0x00, 0x00, 0x00, 0x02, 0x34, 0x00, 0x00, 0x00, 0x10, 0xF2,
  0xFF, 0xFF, 0x27, 0x00, 0x00, 0x00, 0x50, 0x61, 0x72, 0x61,
  0x6C, 0x6C, 0x65, 0x6C, 0x43, 0x4E, 0x4E, 0x5F, 0x32, 0x44,
  0x2F, 0x72, 0x65, 0x73, 0x68, 0x61, 0x70, 0x65, 0x5F, 0x49,
  0x31, 0x2F, 0x73, 0x74, 0x72, 0x69, 0x64, 0x65, 0x64, 0x5F,
  0x73, 0x6C, 0x69, 0x63, 0x65, 0x00, 0x00, 0x00, 0x00, 0x00,
  0x76, 0xF2, 0xFF, 0xFF, 0x00, 0x00, 0x00, 0x01, 0x14, 0x00,
  0x00, 0x00, 0x14, 0x00, 0x00, 0x00, 0x19, 0x00, 0x00, 0x00,
  0x00, 0x00, 0x00, 0x02, 0x2C, 0x00, 0x00, 0x00, 0x60, 0xF2,
  0xFF, 0xFF, 0x1F, 0x00, 0x00, 0x00, 0x50, 0x61, 0x72, 0x61,
  0x6C, 0x6C, 0x65, 0x6C, 0x43, 0x4E, 0x4E, 0x5F, 0x32, 0x44,
  0x2F, 0x72, 0x65, 0x73, 0x68, 0x61, 0x70, 0x65, 0x5F, 0x49,
  0x31, 0x2F, 0x53, 0x68, 0x61, 0x70, 0x65, 0x00, 0x01, 0x00,
  0x00, 0x00, 0x03, 0x00, 0x00, 0x00, 0x52, 0xF2, 0xFF, 0xFF,
  0x00, 0x00, 0x00, 0x01, 0x18, 0x00, 0x00, 0x00, 0x24, 0x00,
  0x00, 0x00, 0x40, 0x00, 0x00, 0x00, 0x18, 0x00, 0x00, 0x00,
  0x00, 0x00, 0x00, 0x09, 0x58, 0x00, 0x00, 0x00, 0x03, 0x00,
  0x00, 0x00, 0xFF, 0xFF, 0xFF, 0xFF, 0x40, 0x00, 0x00, 0x00,
  0x02, 0x00, 0x00, 0x00, 0x3C, 0xF2, 0xFF, 0xFF, 0x08, 0x00,
  0x00, 0x00, 0x10, 0x00, 0x00, 0x00, 0x01, 0x00, 0x00, 0x00,
  0xFF, 0xFF, 0xFF, 0xFF, 0xFF, 0xFF, 0xFF, 0xFF, 0x01, 0x00,
  0x00, 0x00, 0xC5, 0xBD, 0x11, 0x3D, 0x1F, 0x00, 0x00, 0x00,
  0x50, 0x61, 0x72, 0x61, 0x6C, 0x6C, 0x65, 0x6C, 0x43, 0x4E,
  0x4E, 0x5F, 0x32, 0x44, 0x2F, 0x49, 0x31, 0x2F, 0x73, 0x74,
  0x72, 0x69, 0x64, 0x65, 0x64, 0x5F, 0x73, 0x6C, 0x69, 0x63,
  0x65, 0x00, 0x03, 0x00, 0x00, 0x00, 0x01, 0x00, 0x00, 0x00,
  0x40, 0x00, 0x00, 0x00, 0x02, 0x00, 0x00, 0x00, 0x46, 0xF3,
  0xFF, 0xFF, 0x00, 0x00, 0x00, 0x01, 0x14, 0x00, 0x00, 0x00,
  0x88, 0x00, 0x00, 0x00, 0x17, 0x00, 0x00, 0x00, 0x00, 0x00,
  0x00, 0x09, 0xA4, 0x00, 0x00, 0x00, 0xAC, 0xF2, 0xFF, 0xFF,
  0x08, 0x00, 0x00, 0x00, 0x4C, 0x00, 0x00, 0x00, 0x08, 0x00,
  0x00, 0x00, 0x00, 0x00, 0x00, 0x00, 0x00, 0x00, 0x00, 0x00,
  0x00, 0x00, 0x00, 0x00, 0x00, 0x00, 0x00, 0x00, 0x00, 0x00,
  0x00, 0x00, 0x00, 0x00, 0x00, 0x00, 0x00, 0x00, 0x00, 0x00,
  0x00, 0x00, 0x00, 0x00, 0x00, 0x00, 0x00, 0x00, 0x00, 0x00,
  0x00, 0x00, 0x00, 0x00, 0x00, 0x00, 0x00, 0x00, 0x00, 0x00,
  0x00, 0x00, 0x00, 0x00, 0x00, 0x00, 0x00, 0x00, 0x00, 0x00,
  0x00, 0x00, 0x00, 0x00, 0x00, 0x00, 0x00, 0x00, 0x00, 0x00,
  0x08, 0x00, 0x00, 0x00, 0x42, 0x03, 0x47, 0x3C, 0x38, 0x33,
  0x52, 0x3C, 0x7D, 0x90, 0xFE, 0x3B, 0x5D, 0x66, 0x18, 0x3C,
  0x5F, 0x47, 0x11, 0x3C, 0xEF, 0x80, 0xDA, 0x3B, 0xD1, 0x16,
  0x3D, 0x3C, 0x8E, 0xDD, 0x35, 0x3C, 0x23, 0x00, 0x00, 0x00,
  0x50, 0x61, 0x72, 0x61, 0x6C, 0x6C, 0x65, 0x6C, 0x43, 0x4E,
  0x4E, 0x5F, 0x32, 0x44, 0x2F, 0x62, 0x72, 0x61, 0x6E, 0x63,
  0x68, 0x31, 0x5F, 0x63, 0x6F, 0x6E, 0x76, 0x31, 0x2F, 0x43,
  0x6F, 0x6E, 0x76, 0x32, 0x44, 0x00, 0x04, 0x00, 0x00, 0x00,
  0x08, 0x00, 0x00, 0x00, 0x01, 0x00, 0x00, 0x00, 0x03, 0x00,
  0x00, 0x00, 0x02, 0x00, 0x00, 0x00, 0x16, 0xF4, 0xFF, 0xFF,
  0x00, 0x00, 0x00, 0x01, 0x14, 0x00, 0x00, 0x00, 0x84, 0x00,
  0x00, 0x00, 0x16, 0x00, 0x00, 0x00, 0x00, 0x00, 0x00, 0x02,
  0xB0, 0x00, 0x00, 0x00, 0x7C, 0xF3, 0xFF, 0xFF, 0x08, 0x00,
  0x00, 0x00, 0x48, 0x00, 0x00, 0x00, 0x08, 0x00, 0x00, 0x00,
  0x00, 0x00, 0x00, 0x00, 0x00, 0x00, 0x00, 0x00, 0x00, 0x00,
  0x00, 0x00, 0x00, 0x00, 0x00, 0x00, 0x00, 0x00, 0x00, 0x00,
  0x00, 0x00, 0x00, 0x00, 0x00, 0x00, 0x00, 0x00, 0x00, 0x00,
  0x00, 0x00, 0x00, 0x00, 0x00, 0x00, 0x00, 0x00, 0x00, 0x00,
  0x00, 0x00, 0x00, 0x00, 0x00, 0x00, 0x00, 0x00, 0x00, 0x00,
  0x00, 0x00, 0x00, 0x00, 0x00, 0x00, 0x00, 0x00, 0x00, 0x00,
  0x00, 0x00, 0x00, 0x00, 0x08, 0x00, 0x00, 0x00, 0xBE, 0x98,
  0xE2, 0x39, 0xA9, 0x55, 0xEF, 0x39, 0x8B, 0xEC, 0x90, 0x39,
  0xE7, 0x85, 0xAD, 0x39, 0x3D, 0x6A, 0xA5, 0x39, 0x01, 0xCA,
  0x78, 0x39, 0x2F, 0x4C, 0xD7, 0x39, 0x9C, 0x12, 0xCF, 0x39,
  0x33, 0x00, 0x00, 0x00, 0x50, 0x61, 0x72, 0x61, 0x6C, 0x6C,
  0x65, 0x6C, 0x43, 0x4E, 0x4E, 0x5F, 0x32, 0x44, 0x2F, 0x62,
  0x72, 0x61, 0x6E, 0x63, 0x68, 0x31, 0x5F, 0x63, 0x6F, 0x6E,
  0x76, 0x31, 0x2F, 0x42, 0x69, 0x61, 0x73, 0x41, 0x64, 0x64,
  0x2F, 0x52, 0x65, 0x61, 0x64, 0x56, 0x61, 0x72, 0x69, 0x61,
  0x62, 0x6C, 0x65, 0x4F, 0x70, 0x00, 0x01, 0x00, 0x00, 0x00,
  0x08, 0x00, 0x00, 0x00, 0xE6, 0xF4, 0xFF, 0xFF, 0x00, 0x00,
  0x00, 0x01, 0x14, 0x00, 0x00, 0x00, 0xE8, 0x00, 0x00, 0x00,
  0x15, 0x00, 0x00, 0x00, 0x00, 0x00, 0x00, 0x09, 0x04, 0x01,
  0x00, 0x00, 0x4C, 0xF4, 0xFF, 0xFF, 0x08, 0x00, 0x00, 0x00,
  0x8C, 0x00, 0x00, 0x00, 0x10, 0x00, 0x00, 0x00, 0x00, 0x00,
  0x00, 0x00, 0x00, 0x00, 0x00, 0x00, 0x00, 0x00, 0x00, 0x00,
  0x00, 0x00, 0x00, 0x00, 0x00, 0x00, 0x00, 0x00, 0x00, 0x00,
  0x00, 0x00, 0x00, 0x00, 0x00, 0x00, 0x00, 0x00, 0x00, 0x00,
  0x00, 0x00, 0x00, 0x00, 0x00, 0x00, 0x00, 0x00, 0x00, 0x00,
  0x00, 0x00, 0x00, 0x00, 0x00, 0x00, 0x00, 0x00, 0x00, 0x00,
  0x00, 0x00, 0x00, 0x00, 0x00, 0x00, 0x00, 0x00, 0x00, 0x00,
  0x00, 0x00, 0x00, 0x00, 0x00, 0x00, 0x00, 0x00, 0x00, 0x00,
  0x00, 0x00, 0x00, 0x00, 0x00, 0x00, 0x00, 0x00, 0x00, 0x00,
  0x00, 0x00, 0x00, 0x00, 0x00, 0x00, 0x00, 0x00, 0x00, 0x00,
  0x00, 0x00, 0x00, 0x00, 0x00, 0x00, 0x00, 0x00, 0x00, 0x00,
  0x00, 0x00, 0x00, 0x00, 0x00, 0x00, 0x00, 0x00, 0x00, 0x00,
