const unsigned char model_tflite[] = {
  0x1C, 0x00, 0x00, 0x00, 0x54, 0x46, 0x4C, 0x33, 0x14, 0x00,
  0x20, 0x00, 0x1C, 0x00, 0x18, 0x00, 0x14, 0x00, 0x10, 0x00,
  0x0C, 0x00, 0x00, 0x00, 0x08, 0x00, 0x04, 0x00, 0x14, 0x00,
  0x00, 0x00, 0x1C, 0x00, 0x00, 0x00, 0x80, 0x00, 0x00, 0x00,
  0xD0, 0x00, 0x00, 0x00, 0x24, 0x2B, 0x00, 0x00, 0x34, 0x2B,
  0x00, 0x00, 0x8C, 0x4D, 0x00, 0x00, 0x03, 0x00, 0x00, 0x00,
  0x01, 0x00, 0x00, 0x00, 0x04, 0x00, 0x00, 0x00, 0x32, 0xD0,
  0xFF, 0xFF, 0x0C, 0x00, 0x00, 0x00, 0x1C, 0x00, 0x00, 0x00,
  0x34, 0x00, 0x00, 0x00, 0x0F, 0x00, 0x00, 0x00, 0x73, 0x65,
  0x72, 0x76, 0x69, 0x6E, 0x67, 0x5F, 0x64, 0x65, 0x66, 0x61,
  0x75, 0x6C, 0x74, 0x00, 0x01, 0x00, 0x00, 0x00, 0x04, 0x00,
  0x00, 0x00, 0x38, 0xCF, 0xFF, 0xFF, 0x2D, 0x00, 0x00, 0x00,
  0x04, 0x00, 0x00, 0x00, 0x02, 0x00, 0x00, 0x00, 0x46, 0x32,
  0x00, 0x00, 0x01, 0x00, 0x00, 0x00, 0x04, 0x00, 0x00, 0x00,
  0x32, 0xD0, 0xFF, 0xFF, 0x04, 0x00, 0x00, 0x00, 0x0B, 0x00,
  0x00, 0x00, 0x69, 0x6E, 0x70, 0x75, 0x74, 0x5F, 0x6C, 0x61,
  0x79, 0x65, 0x72, 0x00, 0x02, 0x00, 0x00, 0x00, 0x2C, 0x00,
  0x00, 0x00, 0x04, 0x00, 0x00, 0x00, 0x78, 0xCF, 0xFF, 0xFF,
  0x30, 0x00, 0x00, 0x00, 0x04, 0x00, 0x00, 0x00, 0x13, 0x00,
  0x00, 0x00, 0x43, 0x4F, 0x4E, 0x56, 0x45, 0x52, 0x53, 0x49,
  0x4F, 0x4E, 0x5F, 0x4D, 0x45, 0x54, 0x41, 0x44, 0x41, 0x54,
  0x41, 0x00, 0x9C, 0xCF, 0xFF, 0xFF, 0x2F, 0x00, 0x00, 0x00,
  0x04, 0x00, 0x00, 0x00, 0x13, 0x00, 0x00, 0x00, 0x6D, 0x69,
  0x6E, 0x5F, 0x72, 0x75, 0x6E, 0x74, 0x69, 0x6D, 0x65, 0x5F,
  0x76, 0x65, 0x72, 0x73, 0x69, 0x6F, 0x6E, 0x00, 0x31, 0x00,
  0x00, 0x00, 0x50, 0x2A, 0x00, 0x00, 0x48, 0x2A, 0x00, 0x00,
  0x2C, 0x2A, 0x00, 0x00, 0x10, 0x2A, 0x00, 0x00, 0xF4, 0x29,
  0x00, 0x00, 0xE0, 0x29, 0x00, 0x00, 0xCC, 0x29, 0x00, 0x00,
  0xC4, 0x29, 0x00, 0x00, 0xB0, 0x29, 0x00, 0x00, 0x9C, 0x29,
  0x00, 0x00, 0x80, 0x29, 0x00, 0x00, 0x68, 0x29, 0x00, 0x00,
  0x18, 0x29, 0x00, 0x00, 0x08, 0x25, 0x00, 0x00, 0xF8, 0x23,
  0x00, 0x00, 0xE8, 0x07, 0x00, 0x00, 0x98, 0x07, 0x00, 0x00,
  0x08, 0x05, 0x00, 0x00, 0xD8, 0x04, 0x00, 0x00, 0x98, 0x04,
  0x00, 0x00, 0x48, 0x04, 0x00, 0x00, 0xB8, 0x01, 0x00, 0x00,
  0x88, 0x01, 0x00, 0x00, 0x48, 0x01, 0x00, 0x00, 0x40, 0x01,
  0x00, 0x00, 0x38, 0x01, 0x00, 0x00, 0x30, 0x01, 0x00, 0x00,
  0x28, 0x01, 0x00, 0x00, 0x20, 0x01, 0x00, 0x00, 0x18, 0x01,
  0x00, 0x00, 0x10, 0x01, 0x00, 0x00, 0x08, 0x01, 0x00, 0x00,
  0x00, 0x01, 0x00, 0x00, 0xF8, 0x00, 0x00, 0x00, 0xF0, 0x00,
  0x00, 0x00, 0xE8, 0x00, 0x00, 0x00, 0xE0, 0x00, 0x00, 0x00,
  0xD8, 0x00, 0x00, 0x00, 0xD0, 0x00, 0x00, 0x00, 0xC8, 0x00,
  0x00, 0x00, 0xC0, 0x00, 0x00, 0x00, 0xB8, 0x00, 0x00, 0x00,
  0xB0, 0x00, 0x00, 0x00, 0xA8, 0x00, 0x00, 0x00, 0xA0, 0x00,
  0x00, 0x00, 0x98, 0x00, 0x00, 0x00, 0x90, 0x00, 0x00, 0x00,
  0x70, 0x00, 0x00, 0x00, 0x04, 0x00, 0x00, 0x00, 0x66, 0xD1,
  0xFF, 0xFF, 0x04, 0x00, 0x00, 0x00, 0x5C, 0x00, 0x00, 0x00,
  0x0C, 0x00, 0x00, 0x00, 0x08, 0x00, 0x0E, 0x00, 0x08, 0x00,
  0x04, 0x00, 0x08, 0x00, 0x00, 0x00, 0x10, 0x00, 0x00, 0x00,
  0x2C, 0x00, 0x00, 0x00, 0x00, 0x00, 0x06, 0x00, 0x08, 0x00,
  0x04, 0x00, 0x06, 0x00, 0x00, 0x00, 0x04, 0x00, 0x00, 0x00,
  0x02, 0x00, 0x00, 0x00, 0xEB, 0x03, 0x00, 0x00, 0xD0, 0x07,
  0x00, 0x00, 0x00, 0x00, 0x0A, 0x00, 0x10, 0x00, 0x0C, 0x00,
  0x08, 0x00, 0x04, 0x00, 0x0A, 0x00, 0x00, 0x00, 0x02, 0x00,
  0x00, 0x00, 0x02, 0x00, 0x00, 0x00, 0x04, 0x00, 0x00, 0x00,
  0x06, 0x00, 0x00, 0x00, 0x32, 0x2E, 0x31, 0x34, 0x2E, 0x31,
  0x00, 0x00, 0xCE, 0xD1, 0xFF, 0xFF, 0x04, 0x00, 0x00, 0x00,
  0x10, 0x00, 0x00, 0x00, 0x31, 0x2E, 0x31, 0x34, 0x2E, 0x30,
  0x00, 0x00, 0x00, 0x00, 0x00, 0x00, 0x00, 0x00, 0x00, 0x00,
  0x6C, 0xB5, 0xFF, 0xFF, 0x70, 0xB5, 0xFF, 0xFF, 0x74, 0xB5,
  0xFF, 0xFF, 0x78, 0xB5, 0xFF, 0xFF, 0x7C, 0xB5, 0xFF, 0xFF,
  0x80, 0xB5, 0xFF, 0xFF, 0x84, 0xB5, 0xFF, 0xFF, 0x88, 0xB5,
  0xFF, 0xFF, 0x8C, 0xB5, 0xFF, 0xFF, 0x90, 0xB5, 0xFF, 0xFF,
  0x94, 0xB5, 0xFF, 0xFF, 0x98, 0xB5, 0xFF, 0xFF, 0x9C, 0xB5,
  0xFF, 0xFF, 0xA0, 0xB5, 0xFF, 0xFF, 0xA4, 0xB5, 0xFF, 0xFF,
  0xA8, 0xB5, 0xFF, 0xFF, 0xAC, 0xB5, 0xFF, 0xFF, 0xB0, 0xB5,
  0xFF, 0xFF, 0xB4, 0xB5, 0xFF, 0xFF, 0xB8, 0xB5, 0xFF, 0xFF,
  0xBC, 0xB5, 0xFF, 0xFF, 0xC0, 0xB5, 0xFF, 0xFF, 0xC4, 0xB5,
  0xFF, 0xFF, 0x46, 0xD2, 0xFF, 0xFF, 0x04, 0x00, 0x00, 0x00,
  0x30, 0x00, 0x00, 0x00, 0xB9, 0x07, 0x37, 0x35, 0x7F, 0x0F,
  0xDE, 0x81, 0xEA, 0x91, 0x31, 0x48, 0x17, 0x7F, 0xFE, 0x74,
  0xC4, 0xA2, 0xA9, 0xFF, 0x81, 0x2E, 0xF1, 0x15, 0x31, 0xF4,
  0xB6, 0xD5, 0x81, 0xF5, 0x3B, 0xC4, 0xFC, 0x5B, 0xE3, 0x7F,
  0x44, 0x06, 0x7F, 0xCF, 0x08, 0xE7, 0xBF, 0x42, 0x00, 0xA8,
  0x1E, 0x81, 0x82, 0xD2, 0xFF, 0xFF, 0x04, 0x00, 0x00, 0x00,
  0x20, 0x00, 0x00, 0x00, 0xD1, 0x02, 0x00, 0x00, 0x1B, 0x05,
  0x00, 0x00, 0xA2, 0x03, 0x00, 0x00, 0x43, 0x05, 0x00, 0x00,
  0xFD, 0x02, 0x00, 0x00, 0xC2, 0x04, 0x00, 0x00, 0xF0, 0x01,
  0x00, 0x00, 0x39, 0x03, 0x00, 0x00, 0xAE, 0xD2, 0xFF, 0xFF,
  0x04, 0x00, 0x00, 0x00, 0x80, 0x02, 0x00, 0x00, 0xB6, 0x92,
  0x61, 0xC3, 0x4F, 0x7E, 0x26, 0xA8, 0xCB, 0x0D, 0x08, 0xEC,
  0x2F, 0xC2, 0x4C, 0x3D, 0x1D, 0x13, 0xF1, 0x15, 0xD9, 0x22,
  0x30, 0xE0, 0xF9, 0x51, 0xA4, 0xA8, 0x21, 0xD6, 0x6E, 0x35,
  0x0A, 0xDA, 0x3A, 0xDB, 0xEE, 0x7F, 0x42, 0x8E, 0xCC, 0xA5,
  0x2B, 0x0C, 0x3E, 0xE1, 0xD6, 0x32, 0x23, 0xF7, 0x18, 0x97,
  0xE7, 0xFD, 0x61, 0x1D, 0xFC, 0xB2, 0x55, 0x05, 0x12, 0x50,
  0xFA, 0xD1, 0xF1, 0x02, 0x0B, 0xCE, 0xED, 0xF2, 0x11, 0x20,
  0x7F, 0x58, 0xC0, 0x17, 0xB5, 0x10, 0x06, 0xF5, 0xFF, 0x2A,
  0xD6, 0x2D, 0x17, 0x20, 0xE9, 0xDE, 0x25, 0x15, 0xE0, 0xED,
  0xE3, 0x07, 0xED, 0xF1, 0xF2, 0x16, 0xDF, 0xF0, 0xFD, 0xEB,
  0x23, 0x0E, 0x20, 0x02, 0x14, 0xE5, 0xD5, 0xD8, 0xF9, 0x29,
  0xCF, 0xC5, 0x24, 0xBC, 0x45, 0xBF, 0x7F, 0x41, 0x1C, 0xB4,
  0x22, 0xD7, 0xC6, 0xBB, 0x02, 0xEA, 0xE5, 0xE6, 0x4D, 0x02,
  0xEE, 0x05, 0xDB, 0x0C, 0xC4, 0x05, 0x98, 0xB4, 0x3B, 0xF7,
  0xC7, 0xFD, 0xDC, 0xAD, 0x2F, 0x01, 0xD2, 0xDF, 0x0F, 0xCE,
  0xF7, 0x10, 0xF8, 0x01, 0x26, 0x7F, 0x1E, 0x14, 0xB2, 0x02,
  0xFA, 0xBE, 0x29, 0xF9, 0x1E, 0x07, 0xA1, 0x13, 0xFC, 0x12,
  0x47, 0x09, 0x05, 0xF7, 0x13, 0xD7, 0x2D, 0x1D, 0xF4, 0x1F,
  0xF6, 0xE6, 0xF4, 0xE2, 0x1A, 0x1A, 0xFC, 0x1A, 0xFE, 0xE7,
  0x7F, 0xBC, 0x49, 0xED, 0x9E, 0x0C, 0x1A, 0x18, 0x02, 0xD6,
  0x18, 0x1F, 0x0A, 0xF9, 0x03, 0x1D, 0x0D, 0x08, 0x10, 0xFB,
  0x01, 0x0D, 0x33, 0xF6, 0x0B, 0xD6, 0x2A, 0x20, 0x14, 0xDB,
  0xF9, 0x35, 0xEE, 0x18, 0xF1, 0xE0, 0x26, 0xDE, 0x2D, 0x32,
  0x0A, 0x98, 0x7F, 0x1E, 0x0A, 0xE3, 0xEB, 0x3E, 0x1D, 0x81,
  0x1E, 0xD1, 0xBB, 0xC4, 0xF5, 0x18, 0x07, 0xEB, 0x1A, 0xCD,
  0x00, 0xF3, 0x46, 0x0E, 0xC3, 0x22, 0xB9, 0x15, 0x34, 0x1E,
  0xCE, 0xF2, 0x29, 0x2D, 0xE4, 0x33, 0xCF, 0x05, 0x0A, 0xED,
  0x4E, 0xB4, 0x45, 0xCE, 0xD2, 0xC5, 0x14, 0x3E, 0xF0, 0x12,
  0xDD, 0x3C, 0x0B, 0x81, 0xCA, 0x73, 0xE2, 0xD7, 0x2F, 0x22,
  0x04, 0xD4, 0x0F, 0x2F, 0x18, 0x3B, 0xC5, 0xE8, 0x07, 0xD6,
  0x1E, 0x3B, 0x36, 0xF2, 0x13, 0xC8, 0xD3, 0x3F, 0x31, 0xD9,
  0x36, 0x7D, 0xA0, 0xFB, 0xE5, 0x47, 0x23, 0xD4, 0xB9, 0x0B,
  0xD1, 0x10, 0x60, 0x06, 0x0E, 0x1D, 0x17, 0xF2, 0x29, 0x32,
  0xE8, 0x2A, 0x18, 0xDF, 0xE2, 0x07, 0x15, 0x81, 0x59, 0xE4,
  0x5A, 0x3E, 0x10, 0x00, 0x2D, 0x53, 0xF5, 0x55, 0xE8, 0xCA,
  0x53, 0xD0, 0x41, 0x0A, 0xAA, 0x0E, 0x1E, 0x0E, 0x16, 0xD0,
  0x2C, 0xF4, 0xF7, 0xEA, 0x07, 0x0E, 0x09, 0xE9, 0x22, 0xEA,
  0x01, 0xE7, 0x14, 0x22, 0xC1, 0x0E, 0xFC, 0x15, 0x2C, 0x00,
  0xE6, 0xF8, 0xE5, 0x07, 0xF9, 0xF9, 0x11, 0x03, 0xFE, 0xFB,
  0xFE, 0x40, 0xB5, 0x7F, 0x2C, 0x45, 0xB7, 0xDB, 0xD1, 0x38,
  0xCD, 0x0C, 0x11, 0x1E, 0xF1, 0xE8, 0xE6, 0x22, 0xF7, 0x50,
  0x1D, 0x06, 0xB7, 0x15, 0x7F, 0x8A, 0x4C, 0x0D, 0x86, 0x12,
  0x1B, 0xF2, 0x8D, 0x16, 0xFC, 0x0B, 0x70, 0x00, 0x1A, 0x07,
  0x31, 0x45, 0xC7, 0x58, 0x08, 0x61, 0xBE, 0xA4, 0x83, 0xA0,
  0x46, 0x81, 0x6E, 0xC6, 0x62, 0x28, 0xD5, 0xEB, 0x15, 0xBC,
  0x1C, 0x14, 0x24, 0xEF, 0x04, 0xEB, 0x2A, 0x56, 0x17, 0x25,
  0xCC, 0xFC, 0x56, 0xEA, 0x25, 0xA5, 0xBD, 0xE0, 0x4E, 0x25,
  0x87, 0x12, 0x02, 0x00, 0x73, 0xD2, 0x37, 0x40, 0xF2, 0xB8,
  0x2A, 0x3B, 0x18, 0x81, 0xD3, 0x7E, 0x20, 0xF3, 0x27, 0xF8,
  0xDA, 0xFB, 0xFB, 0xFB, 0xFB, 0x06, 0xE3, 0x09, 0x09, 0xF3,
  0xFD, 0x1B, 0x28, 0xE2, 0x40, 0xD4, 0xE7, 0x46, 0x23, 0xBB,
  0xD5, 0xD0, 0x1F, 0x5C, 0x2C, 0xD4, 0xCC, 0x30, 0xEA, 0xFE,
  0xBE, 0xC3, 0x06, 0x29, 0x0E, 0xBE, 0x31, 0x40, 0xDC, 0xB5,
  0xE2, 0x0F, 0x39, 0xE6, 0xF7, 0xC2, 0x48, 0xF4, 0x06, 0x39,
  0x20, 0xB4, 0x03, 0xD8, 0x22, 0x2B, 0xEB, 0x17, 0xBD, 0xCA,
  0x87, 0x81, 0x59, 0xEE, 0x5C, 0x7A, 0x0B, 0xA5, 0xBC, 0xC0,
  0x19, 0x0B, 0x08, 0x30, 0xED, 0xB8, 0xC3, 0x2D, 0xDB, 0x0F,
  0x2E, 0xDB, 0x15, 0x0B, 0x00, 0x16, 0xD7, 0xC8, 0xF1, 0x0E,
  0x30, 0xE3, 0xDC, 0xED, 0x1E, 0x0F, 0x1A, 0xFC, 0x03, 0xEF,
  0x04, 0xEF, 0x25, 0x44, 0xF2, 0x81, 0xDB, 0x70, 0x02, 0xFA,
  0xEE, 0xA6, 0x17, 0x28, 0x21, 0xFA, 0xFA, 0xDA, 0x34, 0x78,
  0x05, 0x08, 0xC4, 0xF0, 0x28, 0x1D, 0xDC, 0xBA, 0xEA, 0xCF,
  0xF7, 0x50, 0x47, 0xF4, 0x29, 0x41, 0xC9, 0x19, 0xDA, 0xEB,
  0x9F, 0xD8, 0x34, 0xD6, 0x7F, 0x44, 0x15, 0xE4, 0x3A, 0xD5,
  0xFF, 0xFF, 0x04, 0x00, 0x00, 0x00, 0x40, 0x00, 0x00, 0x00,
  0x26, 0x04, 0x00, 0x00, 0x92, 0x07, 0x00, 0x00, 0x79, 0x0E,
  0x00, 0x00, 0x04, 0xFE, 0xFF, 0xFF, 0x6E, 0x08, 0x00, 0x00,
  0x17, 0xFD, 0xFF, 0xFF, 0x7B, 0x12, 0x00, 0x00, 0xE5, 0x02,
  0x00, 0x00, 0x9E, 0xF6, 0xFF, 0xFF, 0x40, 0x02, 0x00, 0x00,
  0x2B, 0xFE, 0xFF, 0xFF, 0x4F, 0x0C, 0x00, 0x00, 0x57, 0x09,
  0x00, 0x00, 0x69, 0x28, 0x00, 0x00, 0x75, 0x11, 0x00, 0x00,
  0xB2, 0xFE, 0xFF, 0xFF, 0x86, 0xD5, 0xFF, 0xFF, 0x04, 0x00,
  0x00, 0x00, 0x30, 0x00, 0x00, 0x00, 0xA5, 0x5D, 0x5B, 0x3B,
  0x7F, 0xF9, 0x50, 0xA7, 0x85, 0xDD, 0x81, 0x17, 0x4D, 0x4F,
  0x2E, 0x7F, 0xFC, 0x2C, 0x82, 0x0B, 0x81, 0x6C, 0xD0, 0x46,
  0xB6, 0xB1, 0xD0, 0x81, 0xF7, 0xDC, 0x04, 0x81, 0x58, 0x10,
  0x31, 0x55, 0x7F, 0xF9, 0x6A, 0x96, 0x2B, 0xC1, 0xF6, 0x7F,
  0x9C, 0xF8, 0xD0, 0xA3, 0xC2, 0xD5, 0xFF, 0xFF, 0x04, 0x00,
  0x00, 0x00, 0x20, 0x00, 0x00, 0x00, 0xC7, 0x02, 0x00, 0x00,
  0x37, 0x02, 0x00, 0x00, 0x9C, 0x01, 0x00, 0x00, 0xEE, 0x02,
  0x00, 0x00, 0x4C, 0x01, 0x00, 0x00, 0xEF, 0x02, 0x00, 0x00,
  0x0C, 0x02, 0x00, 0x00, 0x60, 0x05, 0x00, 0x00, 0xEE, 0xD5,
  0xFF, 0xFF, 0x04, 0x00, 0x00, 0x00, 0x80, 0x02, 0x00, 0x00,
  0xE8, 0x3F, 0x7F, 0xEA, 0x8F, 0x9D, 0x3E, 0x63, 0x23, 0xE5,
  0xDC, 0x28, 0x25, 0xD7, 0xD7, 0x42, 0xDD, 0x1E, 0x24, 0x20,
  0xFA, 0xDF, 0x05, 0xEB, 0x37, 0xE2, 0xDA, 0xED, 0x19, 0x4B,
  0x18, 0xCE, 0xB8, 0x55, 0x6B, 0x34, 0x8D, 0x06, 0xD9, 0xF6,
  0xD1, 0x1F, 0x6B, 0xC3, 0xAE, 0x20, 0x50, 0xE3, 0xFE, 0x14,
  0xDE, 0x5D, 0x10, 0xDA, 0x97, 0x3E, 0x22, 0xE1, 0xE0, 0xA4,
  0x1D, 0x10, 0x58, 0xE4, 0xE7, 0x04, 0x26, 0x41, 0xC9, 0x0D,
  0xD9, 0xF4, 0x15, 0xFA, 0xD6, 0xE2, 0x21, 0x9D, 0x00, 0x7F,
  0x0B, 0x28, 0x2E, 0x7F, 0x0F, 0xF0, 0xBD, 0x07, 0x5A, 0xDE,
  0x5D, 0xAF, 0x8B, 0x33, 0x57, 0xDE, 0x1F, 0x0B, 0x17, 0x0A,
  0x47, 0xF1, 0x4C, 0x0A, 0xEF, 0x14, 0xEA, 0xA1, 0xB8, 0x37,
  0x32, 0xE0, 0xCF, 0x51, 0xD0, 0xD2, 0x2A, 0xF4, 0x33, 0x12,
  0xE6, 0x2D, 0x0E, 0xD3, 0xF9, 0x51, 0x3B, 0xB4, 0x0A, 0xF4,
  0x1E, 0x07, 0xE8, 0xE9, 0xFD, 0x16, 0x1B, 0xE7, 0x11, 0xDB,
  0xF5, 0x41, 0x18, 0xD4, 0xF3, 0x07, 0xF3, 0x0A, 0x1B, 0xF9,
  0xEF, 0x15, 0x2B, 0xCF, 0x03, 0xDC, 0x03, 0x7F, 0x2F, 0x9D,
  0x81, 0x72, 0xD6, 0xE9, 0x66, 0x48, 0x17, 0xC8, 0x0A, 0xEB,
  0x17, 0x67, 0xFB, 0xE9, 0xB4, 0x26, 0x07, 0x1C, 0x17, 0x3A,
  0x1F, 0x22, 0xED, 0xFC, 0x4C, 0xA6, 0x3E, 0xFC, 0xB8, 0xD4,
  0x00, 0x21, 0x27, 0xDF, 0x15, 0xBD, 0xFA, 0xFD, 0x41, 0xF9,
  0x83, 0x72, 0x5F, 0x93, 0x9E, 0x88, 0x6A, 0x7F, 0x41, 0x8E,
  0x06, 0xD9, 0xFF, 0x42, 0x16, 0xB9, 0xCB, 0x1F, 0x44, 0x04,
  0xFE, 0xF3, 0x2D, 0x3F, 0x2D, 0xCD, 0xC3, 0xE2, 0x38, 0xF7,
  0x13, 0xFD, 0x08, 0xF5, 0xF6, 0x27, 0xEE, 0xCF, 0xE0, 0x26,
  0x53, 0x9F, 0x27, 0x4A, 0xD1, 0xE6, 0x81, 0x1D, 0x30, 0xC9,
  0x04, 0xDB, 0x10, 0x0E, 0x2E, 0xFE, 0x9E, 0x60, 0xE7, 0x42,
  0x31, 0x1A, 0xFB, 0xE1, 0x29, 0xE5, 0x12, 0x49, 0x04, 0xF3,
  0xA6, 0x0D, 0x32, 0xB0, 0x24, 0x16, 0xD0, 0xEC, 0xE0, 0xF0,
  0x7F, 0xAF, 0x5A, 0x00, 0xD8, 0xA8, 0x20, 0x71, 0xCB, 0x0E,
  0x26, 0x69, 0xCB, 0xBB, 0xAF, 0x78, 0x51, 0xE4, 0x20, 0xFA,
  0x05, 0xE7, 0x09, 0x4E, 0xBE, 0x06, 0xDB, 0x27, 0x06, 0xF2,
  0xD7, 0x2B, 0x25, 0xCF, 0xDF, 0xD8, 0x25, 0x2E, 0x4B, 0xD3,
  0x10, 0x3C, 0xF2, 0x7F, 0x6C, 0x15, 0xF2, 0x1C, 0x1F, 0x22,
  0x11, 0x29, 0xFC, 0x03, 0xE9, 0x35, 0x57, 0xCD, 0x16, 0x09,
  0x25, 0xC8, 0x38, 0x65, 0xF1, 0x21, 0x00, 0x41, 0x23, 0xF3,
  0xE8, 0x33, 0x77, 0xBB, 0x4C, 0x4D, 0xD6, 0xF9, 0xFD, 0x27,
  0x23, 0xF9, 0x4A, 0xAE, 0xE1, 0x07, 0x7F, 0x0F, 0xAE, 0x4F,
  0xA7, 0x17, 0x6C, 0x29, 0x25, 0xE2, 0xF4, 0x34, 0x0D, 0xF4,
  0x0F, 0x0E, 0x41, 0x10, 0xD8, 0x30, 0xBB, 0x42, 0x2B, 0x14,
  0xB5, 0xE2, 0x24, 0xD7, 0x2B, 0x08, 0xDD, 0xF1, 0xEB, 0x25,
  0xA4, 0x70, 0xEE, 0xAC, 0x33, 0x25, 0x6E, 0xF0, 0x20, 0xFD,
  0x06, 0x4D, 0x1A, 0xF2, 0xCB, 0x0B, 0x19, 0x01, 0x10, 0x0F,
  0x01, 0x25, 0x04, 0xE6, 0xE3, 0xF5, 0xFC, 0xE2, 0xF6, 0x0F,
  0x1D, 0xF4, 0x90, 0x7F, 0xE2, 0x1B, 0x3A, 0x46, 0xEC, 0xC6,
  0x3D, 0xC9, 0x71, 0xA9, 0xC2, 0xD8, 0x7F, 0x4E, 0xDE, 0x31,
  0xDE, 0xF6, 0x1D, 0x34, 0x15, 0xF7, 0x3C, 0xE9, 0x31, 0x4E,
  0x0C, 0x06, 0xF1, 0xFC, 0x39, 0xED, 0x2D, 0xDB, 0xCB, 0x08,
  0x14, 0x09, 0x01, 0xDE, 0x14, 0xA4, 0x08, 0xD5, 0x6E, 0x47,
  0x4B, 0xB9, 0xBC, 0x43, 0x68, 0x81, 0xE0, 0x75, 0xBE, 0x2B,
  0x0A, 0xF2, 0xF3, 0x25, 0x0A, 0xD1, 0x38, 0xD7, 0xD9, 0xD5,
  0x51, 0x18, 0x3C, 0x03, 0xD7, 0x1D, 0x2D, 0x18, 0xBF, 0x29,
  0xDD, 0xE9, 0x19, 0xFE, 0xCB, 0x09, 0x48, 0xA8, 0x0A, 0x53,
  0x1D, 0xFE, 0xDF, 0x68, 0x3D, 0xF1, 0xBE, 0xF8, 0xDD, 0x2C,
  0xBF, 0xDC, 0x57, 0x0A, 0x13, 0x04, 0x0C, 0x1B, 0xFE, 0x1C,
  0x34, 0x44, 0x10, 0xCA, 0xF4, 0x29, 0xF1, 0xB8, 0xF4, 0x3E,
  0x18, 0xBD, 0xFC, 0x07, 0x1B, 0x04, 0xE9, 0x64, 0xFF, 0x81,
  0x09, 0x01, 0xEB, 0xF8, 0x58, 0x7F, 0x43, 0xA7, 0x09, 0xE5,
  0x2E, 0x0B, 0xD0, 0x1B, 0xF8, 0x08, 0xFD, 0x26, 0x04, 0x42,
  0x49, 0xD9, 0xF6, 0x31, 0x06, 0xF4, 0xF1, 0xC0, 0x13, 0x2E,
  0x3E, 0xC3, 0xE3, 0x3F, 0x58, 0x2E, 0xB3, 0xF4, 0x00, 0x2B,
  0x15, 0xEC, 0xA7, 0x65, 0x50, 0x22, 0xB3, 0xD0, 0xDA, 0x10,
  0xD5, 0x81, 0xEE, 0xE8, 0x35, 0xF3, 0x07, 0xF9, 0x51, 0x23,
  0x89, 0xF5, 0xB8, 0xF3, 0xCB, 0xF1, 0x90, 0xEA, 0x68, 0xD5,
  0x13, 0x3B, 0xE2, 0xFD, 0x1B, 0xE2, 0xB1, 0x25, 0x0D, 0xD4,
  0x7A, 0xD8, 0xFF, 0xFF, 0x04, 0x00, 0x00, 0x00, 0x40, 0x00,
  0x00, 0x00, 0xF0, 0x05, 0x00, 0x00, 0x1B, 0x0E, 0x00, 0x00,
  0xA8, 0x03, 0x00, 0x00, 0xFF, 0x0E, 0x00, 0x00, 0x2E, 0x04,
  0x00, 0x00, 0x23, 0x0E, 0x00, 0x00, 0x67, 0x0A, 0x00, 0x00,
  0xBE, 0x00, 0x00, 0x00, 0x41, 0xEC, 0xFF, 0xFF, 0x1A, 0x05,
  0x00, 0x00, 0x3E, 0x09, 0x00, 0x00, 0x19, 0xFF, 0xFF, 0xFF,
  0xA4, 0x08, 0x00, 0x00, 0x04, 0x09, 0x00, 0x00, 0x95, 0xFB,
  0xFF, 0xFF, 0xFA, 0x17, 0x00, 0x00, 0xC6, 0xD8, 0xFF, 0xFF,
  0x04, 0x00, 0x00, 0x00, 0x00, 0x1C, 0x00, 0x00, 0xF9, 0x0C,
  0x15, 0xD6, 0x00, 0x0C, 0xFA, 0xFA, 0xFE, 0xF7, 0xFA, 0x0D,
  0x20, 0x0C, 0xFD, 0xE9, 0xE3, 0x27, 0x14, 0xF3, 0x03, 0xFD,
  0x0A, 0xF0, 0xFF, 0xE5, 0xE7, 0x09, 0x23, 0xFB, 0xFC, 0xCE,
  0xF0, 0x1D, 0x07, 0xEE, 0xF8, 0x00, 0x19, 0xFB, 0xFE, 0xF4,
  0xED, 0x0B, 0x35, 0x01, 0xE0, 0xE6, 0xD3, 0x0B, 0x07, 0x0F,
  0x02, 0x0E, 0x04, 0x16, 0xFF, 0xED, 0x00, 0x0C, 0x22, 0xFF,
  0xF5, 0xE8, 0xCC, 0x11, 0x0E, 0xFD, 0x11, 0xF2, 0x10, 0x14,
  0x01, 0xE8, 0xFB, 0x01, 0x19, 0xFE, 0xFF, 0xF1, 0xDC, 0x0A,
  0xFA, 0x01, 0x08, 0xE7, 0x0C, 0x1D, 0x0D, 0xF5, 0xED, 0xFB,
  0x1D, 0xE3, 0x03, 0x0A, 0xEA, 0xEF, 0xF5, 0x28, 0x04, 0xEC,
  0xFA, 0x16, 0x0A, 0xFC, 0x09, 0xEE, 0xF4, 0xE3, 0x14, 0x08,
  0x02, 0x05, 0xFF, 0x03, 0x10, 0x0F, 0xEA, 0x13, 0xE6, 0xF8,
  0x0E, 0x1B, 0x13, 0x11, 0xFF, 0x15, 0xE6, 0x01, 0xED, 0x1B,
  0xDF, 0x09, 0x07, 0x02, 0x26, 0xDF, 0x27, 0xFB, 0xF5, 0x18,
  0xEB, 0xFF, 0xF7, 0xF7, 0xE6, 0x1D, 0xE0, 0x23, 0x06, 0xFC,
  0xF8, 0xDF, 0xEF, 0x05, 0x01, 0x00, 0xE7, 0x00, 0xFE, 0xFF,
  0x01, 0x05, 0xFA, 0x1C, 0xDA, 0x0E, 0xF4, 0xF7, 0x0F, 0xF8,
  0x07, 0x11, 0xE8, 0x0F, 0xF0, 0x0C, 0x10, 0x10, 0xEA, 0xFF,
  0x12, 0x05, 0x15, 0xE4, 0x00, 0xC0, 0xF4, 0x0D, 0x02, 0xF9,
  0xE9, 0x07, 0xFF, 0x28, 0xC2, 0x0B, 0x0B, 0xEF, 0x31, 0xE7,
  0x2F, 0x28, 0xE7, 0x0D, 0xFC, 0xE1, 0xF9, 0x0C, 0xFD, 0x01,
  0xEE, 0x07, 0xDE, 0x01, 0x16, 0x08, 0x16, 0x05, 0x08, 0x0A,
  0xEB, 0xF7, 0xED, 0xF6, 0x0E, 0x26, 0x01, 0x12, 0xF6, 0x00,
  0xF2, 0x13, 0xFC, 0x19, 0xF7, 0xFE, 0x1A, 0x0D, 0xEC, 0xE4,
  0x29, 0x25, 0xFC, 0x0E, 0xF9, 0xE1, 0xE1, 0x06, 0xF5, 0x10,
  0xF4, 0xE7, 0x12, 0x07, 0x02, 0x07, 0x18, 0x24, 0xEE, 0x0B,
  0x18, 0x16, 0xDF, 0xEC, 0xF2, 0x1B, 0xE1, 0xD7, 0x0C, 0xFA,
  0x0F, 0x0D, 0x36, 0x31, 0xF5, 0x0D, 0x29, 0x1D, 0xE8, 0xE3,
  0xD0, 0x1D, 0xE3, 0xD0, 0x08, 0xE3, 0x20, 0x11, 0x2B, 0x20,
  0x03, 0xED, 0x3C, 0x19, 0xF4, 0xD9, 0xCA, 0x04, 0xF6, 0xE2,
  0xF2, 0xDD, 0x25, 0x1D, 0x23, 0xFD, 0x06, 0xE0, 0x1A, 0x13,
  0x0A, 0xDE, 0xDD, 0xF1, 0x08, 0xF6, 0xEE, 0xE8, 0x08, 0x23,
  0x0A, 0xDE, 0xFC, 0xDF, 0x11, 0x0C, 0x12, 0xEF, 0xF9, 0xE4,
  0xF4, 0x1F, 0xE6, 0xE7, 0x0A, 0x03, 0xF4, 0x03, 0xF8, 0x07,
  0x03, 0x0B, 0x0B, 0xF7, 0x00, 0x05, 0xF9, 0xF3, 0x02, 0xF4,
  0xFE, 0xF8, 0xF3, 0xFF, 0xFF, 0xF7, 0x00, 0xF3, 0x07, 0xFB,
  0xFC, 0xFA, 0x07, 0xFE, 0xF8, 0x01, 0xF5, 0xF4, 0x04, 0x08,
  0xFF, 0x03, 0x02, 0x04, 0xFD, 0x02, 0xF5, 0x05, 0x08, 0xFC,
  0xF9, 0x01, 0x06, 0xF5, 0xFE, 0xF8, 0xF2, 0xF2, 0x04, 0x08,
  0xFB, 0xF8, 0x0B, 0xF9, 0x02, 0x05, 0xF3, 0xFF, 0xF6, 0xF8,
  0xF9, 0xF2, 0x09, 0x05, 0x04, 0x0B, 0xF9, 0x0B, 0xF7, 0xFF,
  0xFD, 0x02, 0x06, 0xF9, 0xF4, 0x03, 0xF4, 0x05, 0xF5, 0xF8,
  0xF4, 0x03, 0x0B, 0x06, 0xFB, 0x03, 0xFC, 0x0A, 0xF4, 0xF9,
  0xF7, 0x07, 0x09, 0xF0, 0xF4, 0xF0, 0x06, 0x0B, 0x0A, 0x09,
  0xFA, 0xF5, 0xFE, 0x01, 0x00, 0x00, 0x05, 0x06, 0xE0, 0x0A,
  0xF9, 0x0E, 0xF0, 0x0B, 0xFA, 0x17, 0x17, 0x10, 0x07, 0xFF,
  0xFE, 0xFE, 0x05, 0xE5, 0x0F, 0xF3, 0xFD, 0xE2, 0x1C, 0xF1,
  0xE0, 0xE8, 0xD7, 0x10, 0x05, 0x17, 0x02, 0x04, 0xFB, 0x17,
  0xE9, 0x0C, 0x03, 0x1B, 0xF8, 0xF5, 0x2C, 0x06, 0x11, 0xD6,
  0xFC, 0xE6, 0x05, 0xF3, 0x03, 0xF2, 0xE8, 0xF6, 0xEB, 0xEB,
  0xE6, 0x1A, 0xC6, 0x12, 0x0B, 0x44, 0x02, 0x14, 0x0C, 0x0F,
  0xFE, 0x00, 0x3B, 0xEE, 0x14, 0xE8, 0x21, 0xF4, 0x23, 0xE7,
  0xD1, 0xEF, 0x06, 0x0B, 0x00, 0x06, 0x05, 0x05, 0xEB, 0x1B,
  0x08, 0x10, 0xDB, 0xFE, 0xF9, 0x11, 0x2C, 0xF8, 0xFC, 0xE9,
  0x05, 0xF8, 0xFD, 0xF7, 0x16, 0xEE, 0xFB, 0xE5, 0x30, 0xFC,
  0xD7, 0x02, 0xD8, 0x17, 0x01, 0x0A, 0xFC, 0x00, 0xFA, 0xEE,
  0x0E, 0xCD, 0xFA, 0x03, 0x04, 0xF1, 0xF7, 0xFC, 0xFD, 0xFE,
  0x15, 0xF7, 0x19, 0x03, 0x08, 0xEA, 0xF2, 0xF3, 0xEF, 0x42,
  0x13, 0xF1, 0xEA, 0x06, 0xEC, 0x07, 0x01, 0x0E, 0xF2, 0x0F,
  0x09, 0x1F, 0xF0, 0x33, 0x16, 0xF9, 0x0B, 0xF3, 0xFB, 0x00,
  0xED, 0x07, 0xCB, 0x0C, 0xF2, 0xFD, 0xE6, 0x16, 0x08, 0x04,
  0x12, 0x99, 0xE6, 0xF9, 0x01, 0xF5, 0x16, 0xF1, 0xFA, 0xE4,
  0x08, 0xF4, 0xF9, 0xDF, 0x0F, 0xEE, 0xF3, 0x05, 0xFA, 0x02,
  0x0C, 0xF8, 0x0F, 0x05, 0x3A, 0xDC, 0xFF, 0x08, 0x1B, 0xF9,
  0x07, 0xFE, 0xE8, 0x45, 0x13, 0xF2, 0xEC, 0x04, 0xF9, 0x05,
  0x25, 0xFC, 0xF1, 0xFF, 0x2D, 0x03, 0xF1, 0x10, 0xF5, 0x09,
  0x1A, 0xE8, 0xEE, 0x12, 0xF7, 0x06, 0xE4, 0x16, 0xF0, 0xEC,
  0x03, 0x02, 0x0A, 0x04, 0x04, 0xF8, 0xFF, 0x04, 0x00, 0x03,
  0xFE, 0xFC, 0x15, 0x09, 0x06, 0xF4, 0x3D, 0xFC, 0x0C, 0x2C,
  0xF0, 0xED, 0x0E, 0xE8, 0x0C, 0xF8, 0x02, 0xEE, 0x35, 0xDD,
  0xF3, 0xFE, 0x47, 0xF2, 0x00, 0x36, 0xF8, 0xD6, 0xF4, 0xD2,
  0xFF, 0xFB, 0xF3, 0xF8, 0x3C, 0xD6, 0xF5, 0x0B, 0x11, 0xEE,
  0x01, 0x0F, 0xFD, 0xEE, 0xFC, 0xFF, 0x00, 0xFF, 0x0D, 0xED,
  0x2A, 0x05, 0xEA, 0x03, 0x1E, 0xF5, 0x0F, 0x30, 0x00, 0xFA,
  0x08, 0xF0, 0x0E, 0x00, 0x05, 0xF1, 0x11, 0xD3, 0xE5, 0xED,
  0x3C, 0xF3, 0x13, 0x44, 0xF6, 0xE1, 0x0B, 0xBE, 0x12, 0x05,
  0xF8, 0xFA, 0x42, 0xCE, 0xF4, 0x17, 0x08, 0xFD, 0x01, 0xFD,
  0x02, 0xFE, 0xF9, 0xF8, 0xFB, 0x11, 0xFD, 0xFB, 0x1F, 0xF7,
  0xF8, 0xF4, 0x1B, 0xF8, 0x04, 0x04, 0xF9, 0xF8, 0x00, 0x22,
  0x0A, 0xF0, 0x07, 0xE6, 0x12, 0x2E, 0x17, 0x00, 0xF3, 0x1D,
  0xFE, 0xEC, 0xFB, 0xFB, 0x0E, 0xFE, 0xFA, 0xFC, 0x01, 0x07,
  0xE9, 0xD5, 0x0A, 0xE5, 0x03, 0x02, 0x0F, 0xE6, 0x0A, 0xFF,
  0x03, 0xE4, 0x02, 0xF8, 0x01, 0xFF, 0x12, 0x3B, 0xE8, 0x00,
  0x27, 0xF0, 0xEB, 0x0C, 0xFE, 0x06, 0x0A, 0x3E, 0xFF, 0x0A,
  0xF0, 0xE7, 0x0A, 0xF5, 0xE5, 0x18, 0xD7, 0x03, 0x04, 0x08,
  0x07, 0x0D, 0xFF, 0xCF, 0xFC, 0xF6, 0x0D, 0x0B, 0xDE, 0xC5,
  0x1B, 0x05, 0xFD, 0x08, 0xFA, 0xE8, 0x08, 0xD5, 0xFF, 0x00,
  0x08, 0xFA, 0x00, 0xF1, 0x15, 0x28, 0x0F, 0xF5, 0x0E, 0x25,
  0x0E, 0xFD, 0xF5, 0xFB, 0xFB, 0x0A, 0xF7, 0xFC, 0x02, 0x09,
  0x00, 0xEE, 0xF1, 0xDB, 0xF9, 0xF1, 0xF2, 0xF5, 0xF1, 0x0E,
  0xFC, 0xF4, 0xE3, 0x29, 0x0F, 0x10, 0xFD, 0x09, 0x0B, 0x15,
  0xFB, 0x03, 0xBC, 0xC2, 0x0C, 0xF9, 0xEB, 0xF6, 0x13, 0x1E,
  0x0A, 0xE3, 0x23, 0x0B, 0xEB, 0x17, 0x17, 0x0C, 0xD7, 0xFA,
  0x30, 0xD6, 0x1B, 0x03, 0x1E, 0xEB, 0xD4, 0xEA, 0x18, 0x02,
  0xF5, 0xFE, 0x14, 0x11, 0x37, 0x0F, 0x0B, 0xF3, 0x14, 0x17,
  0xF7, 0xCC, 0xEF, 0x22, 0xEB, 0xF4, 0xF2, 0xEB, 0xFA, 0x04,
  0x18, 0x2F, 0xBF, 0x15, 0x08, 0x01, 0xD6, 0xF6, 0xFA, 0x25,
  0xE8, 0xF7, 0x21, 0xF4, 0xEB, 0xEB, 0xEA, 0xED, 0xFD, 0x04,
  0xEE, 0xEA, 0xFD, 0x2C, 0x1D, 0x11, 0xFD, 0x03, 0x01, 0x10,
  0xEE, 0xF6, 0xF3, 0xEE, 0x06, 0xFE, 0xE7, 0x03, 0xF8, 0x17,
  0x28, 0xF2, 0x12, 0xF6, 0xF8, 0x14, 0x0E, 0x0F, 0xFC, 0xE8,
  0x0B, 0x0E, 0xF9, 0xF5, 0xF6, 0xFB, 0x04, 0xFE, 0x0B, 0xE0,
  0x04, 0xED, 0x02, 0xE7, 0x16, 0x0E, 0x20, 0x2F, 0x02, 0xDB,
  0xDE, 0xD3, 0x0E, 0xF4, 0xF6, 0xFE, 0x21, 0xF9, 0xF9, 0xDA,
  0x0A, 0x0E, 0x1B, 0x0F, 0x06, 0xF8, 0x02, 0xD9, 0x06, 0xFA,
  0xE5, 0x01, 0x21, 0x37, 0xDE, 0xE4, 0x04, 0xEF, 0xE3, 0xD7,
  0x0D, 0xFE, 0x12, 0x09, 0xDD, 0x13, 0x06, 0x1C, 0xF7, 0x3B,
  0x0C, 0x06, 0xF7, 0xE9, 0xE4, 0xBB, 0x07, 0x1D, 0x06, 0x34,
  0xE3, 0x1C, 0x1F, 0x0D, 0xDD, 0x0E, 0x0E, 0x2D, 0xF0, 0xFE,
  0xE9, 0xF0, 0xF8, 0x17, 0xE5, 0x0E, 0x0C, 0x07, 0x11, 0xE5,
  0xFA, 0xC2, 0x0A, 0x2E, 0x00, 0x0A, 0x13, 0x25, 0x05, 0xF3,
  0xED, 0x08, 0x06, 0xF2, 0xF4, 0xFE, 0x01, 0xC3, 0xEB, 0x02,
  0xFB, 0x2C, 0x17, 0xED, 0x01, 0x15, 0x0F, 0xFD, 0x0B, 0x06,
  0xFB, 0x03, 0xFD, 0x09, 0xE5, 0xF9, 0xDB, 0x1D, 0x0A, 0xE2,
  0xF4, 0x34, 0x0D, 0xFD, 0x15, 0xEF, 0xEF, 0xFD, 0xEB, 0x1F,
  0xFA, 0xFA, 0xEC, 0x2C, 0x1D, 0xDC, 0xF7, 0x13, 0x0F, 0x02,
  0x0B, 0xF6, 0xE9, 0xE6, 0x00, 0x25, 0xFA, 0xF6, 0xE6, 0x23,
  0x19, 0xD2, 0xF6, 0x18, 0x06, 0x08, 0x15, 0xF1, 0xCB, 0xEE,
  0xF9, 0x1F, 0x11, 0xF1, 0xEC, 0x28, 0x0C, 0xDB, 0xE6, 0x1B,
  0x0A, 0x07, 0x1C, 0xF7, 0xD1, 0xF9, 0x03, 0x1F, 0x00, 0xFC,
  0xED, 0xFD, 0xFA, 0xED, 0xF8, 0xFC, 0xFB, 0x06, 0x16, 0xEF,
  0xD4, 0xFB, 0x04, 0x16, 0x2F, 0x09, 0x00, 0xEA, 0xFD, 0xFB,
  0xEB, 0xF6, 0xFB, 0x0D, 0x09, 0x0B, 0xF3, 0xFB, 0x02, 0x0D,
  0x18, 0xFB, 0xF9, 0x05, 0xFB, 0x07, 0x0B, 0xF1, 0xF3, 0x10,
  0xF7, 0xF7, 0xE1, 0xF2, 0x03, 0x0E, 0x2D, 0xDA, 0xFA, 0xDB,
  0xEF, 0x16, 0x05, 0xEB, 0xEB, 0x10, 0xFC, 0xFF, 0xE1, 0x01,
  0x0F, 0x19, 0x2A, 0xEB, 0x00, 0xCE, 0xF1, 0x1D, 0xF9, 0xDF,
  0xEB, 0x16, 0xFA, 0x0A, 0xEB, 0xFE, 0x23, 0xF8, 0x20, 0xFD,
  0x08, 0xD8, 0xE5, 0x2A, 0x04, 0xC7, 0xF6, 0x13, 0xEF, 0x11,
  0xE6, 0x12, 0x0B, 0xF0, 0x2A, 0x06, 0x02, 0xD7, 0xE0, 0x21,
  0x15, 0xDB, 0xF1, 0x1A, 0xEB, 0x0E, 0x08, 0x25, 0x0B, 0xEF,
  0x10, 0x1D, 0x05, 0xDA, 0xF2, 0x25, 0x0C, 0xDF, 0xE7, 0xF3,
  0xF1, 0x24, 0xF5, 0x17, 0x15, 0xDE, 0xE8, 0x18, 0x10, 0xF4,
  0xF4, 0x0C, 0x19, 0xD7, 0x06, 0xFA, 0xE8, 0x17, 0x21, 0x18,
  0xEA, 0xDE, 0xFA, 0xE3, 0x0B, 0x0C, 0x09, 0x24, 0x04, 0xFA,
  0xFD, 0xE4, 0xFD, 0xF9, 0xE2, 0x11, 0x0D, 0x16, 0xE5, 0xE8,
  0xF6, 0xED, 0xE9, 0xE3, 0x09, 0x0F, 0x0D, 0x1C, 0xFA, 0x14,
  0x11, 0x24, 0xE1, 0x26, 0xEF, 0x0F, 0xF2, 0xE5, 0xE9, 0xC4,
  0x10, 0x10, 0x03, 0x1D, 0xE8, 0x18, 0x25, 0x04, 0xDE, 0x0F,
  0x0E, 0x22, 0xEA, 0xED, 0xF2, 0xE8, 0xF7, 0x18, 0xEC, 0x28,
  0x0C, 0x16, 0x0E, 0xE4, 0xE8, 0xCE, 0x1D, 0x20, 0xF3, 0x09,
  0x22, 0x2E, 0xF5, 0xF7, 0xE7, 0xF3, 0x1B, 0xF0, 0xE9, 0xEC,
  0x1C, 0xCE, 0x09, 0xF8, 0x10, 0x09, 0x17, 0x25, 0xF4, 0xD2,
  0x05, 0xDC, 0x0A, 0xE4, 0xE1, 0xFC, 0x1D, 0xF3, 0xFF, 0xE1,
  0x16, 0xFE, 0x06, 0xF9, 0xFE, 0xF5, 0x02, 0xE0, 0x0B, 0xF6,
  0xFD, 0x00, 0x0E, 0x1C, 0xFC, 0xFD, 0x09, 0x1F, 0x0B, 0xF3,
  0x05, 0x03, 0x01, 0xFE, 0x08, 0x06, 0xFB, 0x0D, 0xF9, 0x06,
  0x14, 0xF8, 0xF9, 0x1F, 0x0D, 0xFF, 0x02, 0x0C, 0xE5, 0xF8,
  0xF4, 0x09, 0x25, 0x18, 0xF3, 0xF1, 0x21, 0xE6, 0x01, 0x1D,
  0xFF, 0x05, 0xFC, 0x07, 0xF4, 0xF0, 0x1A, 0xF6, 0x2E, 0x05,
  0xE8, 0x09, 0x09, 0xEC, 0xFD, 0x05, 0xFC, 0x03, 0x0E, 0xF8,
  0xF9, 0xF9, 0x03, 0x12, 0x0E, 0x06, 0xD8, 0xF2, 0x1E, 0xD0,
  0xF3, 0x2B, 0xFE, 0xEC, 0xFE, 0xFA, 0xEF, 0xF3, 0x16, 0x20,
  0x0B, 0xFC, 0xDD, 0xF7, 0x35, 0xE9, 0xE3, 0x0B, 0x11, 0x15,
  0xFD, 0x29, 0xE1, 0xE7, 0x0A, 0xFD, 0x3E, 0x1F, 0xF3, 0xFF,
  0xF7, 0xF6, 0xEE, 0xEB, 0x08, 0xF7, 0x06, 0x03, 0xF5, 0x01,
  0x00, 0x02, 0x11, 0x09, 0xF2, 0xFF, 0x00, 0x04, 0x07, 0x08,
  0x04, 0x0E, 0xFD, 0x03, 0x0F, 0x0A, 0x01, 0x06, 0x01, 0x02,
  0xFC, 0x0F, 0xE3, 0x15, 0x0F, 0x0A, 0x04, 0x28, 0xF2, 0x14,
  0x13, 0x06, 0xE9, 0xC9, 0xEB, 0x18, 0x12, 0xFE, 0xD8, 0x10,
  0x1D, 0xED, 0x0C, 0x20, 0xE6, 0x0B, 0xFB, 0x11, 0xD9, 0xC9,
  0xD9, 0x0B, 0x01, 0xF4, 0xED, 0x14, 0x15, 0x0C, 0x0B, 0x0F,
  0x07, 0x09, 0x15, 0x13, 0xFE, 0xFD, 0xE6, 0x11, 0x03, 0xEC,
  0xF9, 0x19, 0x24, 0x0B, 0x07, 0x0E, 0xFD, 0x06, 0x03, 0x0F,
  0xDF, 0xCA, 0xFA, 0x14, 0x16, 0xFD, 0xE9, 0x0D, 0x1B, 0xFD,
  0x08, 0x1B, 0xE0, 0x04, 0x1D, 0x11, 0xDE, 0xD6, 0xD9, 0x01,
  0x10, 0xED, 0xF5, 0x19, 0x14, 0x08, 0x0C, 0xFD, 0xE2, 0xEE,
  0x22, 0x18, 0x00, 0xF1, 0xF3, 0x07, 0x09, 0xF6, 0xFC, 0x03,
  0xF6, 0x0D, 0xFA, 0xF9, 0xF3, 0x03, 0xF7, 0xF0, 0xF1, 0x0D,
  0x00, 0x0C, 0x03, 0x03, 0x00, 0xEF, 0x27, 0x00, 0x4C, 0xE8,
  0x0F, 0xFA, 0xF5, 0x36, 0xEF, 0xFD, 0x0A, 0xF2, 0xE8, 0x03,
  0x1C, 0xEE, 0x07, 0x22, 0x43, 0x06, 0x1A, 0xFB, 0xEA, 0x22,
  0xE4, 0xE7, 0x0D, 0xEE, 0xE9, 0x14, 0x00, 0xF7, 0x08, 0x02,
  0x04, 0xFD, 0xF6, 0xF4, 0xFE, 0x19, 0xE6, 0xE9, 0x08, 0x07,
  0xF4, 0xFC, 0x07, 0xF4, 0x0F, 0x12, 0x17, 0x02, 0x09, 0xFA,
  0xF2, 0x06, 0xE3, 0xE7, 0x00, 0x00, 0xF8, 0x02, 0x13, 0xEE,
  0x35, 0x05, 0x56, 0xEF, 0x05, 0xEF, 0xDF, 0x3C, 0xDF, 0xED,
  0x24, 0xEE, 0xEF, 0x0D, 0xFC, 0xF6, 0x02, 0xF8, 0x19, 0xEC,
  0x11, 0x04, 0xF3, 0x0A, 0xE5, 0xF6, 0x07, 0x07, 0xFD, 0x09,
  0xFA, 0x08, 0x03, 0x02, 0x01, 0xF4, 0xF7, 0xF4, 0xF5, 0x07,
  0xFB, 0xF4, 0xFE, 0x00, 0x09, 0xFF, 0xFE, 0xF6, 0xFA, 0xF6,
  0xF9, 0xF4, 0xFE, 0x05, 0xF9, 0x0A, 0xF3, 0xF6, 0xFF, 0xFD,
  0xF5, 0xF5, 0xFE, 0x08, 0x05, 0x07, 0x04, 0x08, 0xF6, 0x09,
  0x00, 0x01, 0xFB, 0xF8, 0x02, 0xF5, 0x02, 0x05, 0xF8, 0xFF,
  0xFA, 0xF4, 0xFD, 0x0C, 0x02, 0x04, 0xF7, 0x02, 0x05, 0x00,
  0x0B, 0xF6, 0x05, 0xF7, 0x06, 0xF9, 0xFF, 0xF8, 0x03, 0x01,
  0xF5, 0xFC, 0x0A, 0x08, 0xF3, 0x02, 0xFE, 0xF4, 0xF7, 0xF8,
  0xFD, 0xFC, 0xFD, 0x07, 0x03, 0xFC, 0xF4, 0xF6, 0x08, 0x02,
  0x05, 0xFA, 0x08, 0x0B, 0x0A, 0x00, 0xF5, 0x06, 0xF2, 0x03,
  0xF3, 0xFA, 0xF4, 0x06, 0xF5, 0xF6, 0xF3, 0xF9, 0xFF, 0x07,
  0x04, 0x07, 0x05, 0x05, 0xFA, 0xF0, 0x08, 0x02, 0xF3, 0x03,
  0x0B, 0xFE, 0x03, 0x09, 0x05, 0xF8, 0xF4, 0x09, 0x00, 0xFE,
  0xF6, 0x05, 0xFA, 0xF6, 0x04, 0x00, 0x05, 0x01, 0xF2, 0xF5,
  0xF4, 0xFD, 0xFF, 0x09, 0xFF, 0x00, 0xFC, 0xFE, 0xFC, 0xF4,
  0xFE, 0x0B, 0x05, 0xF9, 0x07, 0xF3, 0x06, 0xF4, 0x02, 0x04,
  0xF6, 0xF6, 0x0A, 0xEE, 0x06, 0xFF, 0x03, 0x0B, 0x03, 0xFC,
  0x01, 0xF6, 0xFE, 0xFC, 0xF4, 0xF4, 0xFF, 0xF7, 0xF9, 0xFE,
  0xFB, 0xF8, 0xF3, 0x05, 0xFB, 0x02, 0xFF, 0x07, 0x08, 0x08,
  0xF5, 0x01, 0xFC, 0xF8, 0xFB, 0xFA, 0x06, 0x06, 0xFB, 0x08,
  0x05, 0xFA, 0xF4, 0x06, 0x00, 0x01, 0xF6, 0xFD, 0x08, 0xF8,
  0xF8, 0xFD, 0xF1, 0xF9, 0x06, 0xFB, 0xFF, 0x07, 0xF5, 0x01,
  0xF5, 0xF5, 0x06, 0xFB, 0x08, 0x0B, 0xFD, 0x12, 0x0B, 0xFA,
  0x02, 0x06, 0x0C, 0x19, 0x09, 0x15, 0xFC, 0xF6, 0x0E, 0xFF,
  0x0A, 0x06, 0xF5, 0xEA, 0x11, 0xD7, 0x08, 0xE4, 0x0C, 0xFD,
  0x04, 0x1F, 0x1A, 0xE8, 0x20, 0x0B, 0xF7, 0x1B, 0x0A, 0xEB,
  0x0B, 0xCC, 0x1B, 0xE5, 0x05, 0x10, 0x02, 0x18, 0xF5, 0xFC,
  0x24, 0xF8, 0xF9, 0x16, 0xEE, 0x04, 0x13, 0x09, 0xF3, 0x05,
  0x02, 0xFC, 0x01, 0x1B, 0xF6, 0x08, 0x26, 0x0D, 0x15, 0x12,
  0x0C, 0xF4, 0x0B, 0xEE, 0x06, 0x12, 0xF7, 0x09, 0x09, 0xFF,
  0x11, 0x26, 0x23, 0x0F, 0xFD, 0xF9, 0xD3, 0xF0, 0x02, 0xE2,
  0x19, 0xE6, 0xE1, 0xE9, 0xFB, 0x1D, 0x0C, 0xC8, 0x0E, 0x08,
  0xF8, 0x10, 0xFE, 0x06, 0x08, 0x05, 0x09, 0xEE, 0xE9, 0xFC,
  0xF7, 0x1F, 0xFC, 0xFE, 0x19, 0x01, 0x0A, 0x0D, 0x2D, 0x13,
  0x00, 0x01, 0x0A, 0x08, 0xEA, 0xDD, 0xE9, 0x17, 0x09, 0xE3,
  0xFA, 0x07, 0xF4, 0xE2, 0x15, 0x28, 0xE3, 0x17, 0xFC, 0xF6,
  0xCB, 0x04, 0x07, 0x0D, 0x05, 0xFF, 0x0A, 0x06, 0xF6, 0xEE,
  0xDE, 0xE8, 0xFB, 0x0C, 0xEB, 0xFC, 0xF7, 0x3F, 0x1F, 0xF2,
  0x0B, 0x04, 0x07, 0x22, 0xF1, 0xFB, 0xBC, 0xC7, 0x38, 0xEF,
  0xF9, 0xEC, 0x21, 0x14, 0x01, 0xE6, 0x0C, 0x0B, 0xE8, 0x14,
  0x28, 0x21, 0x13, 0x08, 0x15, 0xDF, 0x19, 0x0B, 0x17, 0xC3,
  0xF6, 0x00, 0x08, 0x15, 0xE6, 0xF6, 0x01, 0x18, 0x28, 0x12,
  0xE2, 0x02, 0x26, 0x03, 0xE8, 0xE5, 0xED, 0x16, 0xF2, 0xE4,
  0xFF, 0xD4, 0xF0, 0x03, 0x0A, 0x2B, 0xEB, 0x04, 0x11, 0x08,
  0xDD, 0x08, 0xE5, 0x22, 0xE0, 0x0A, 0x1A, 0xED, 0x06, 0xFC,
  0xD8, 0xF8, 0x2F, 0xF4, 0x19, 0xF2, 0x0A, 0x1E, 0xE6, 0x08,
  0x08, 0xFD, 0xFC, 0xFF, 0xF3, 0xFB, 0x26, 0x14, 0xE7, 0x0E,
  0xF6, 0x05, 0xE7, 0xE4, 0x08, 0x09, 0x04, 0x06, 0x0F, 0xFF,
  0x00, 0xFE, 0xC8, 0xE8, 0xF4, 0xED, 0x22, 0x06, 0x07, 0x29,
  0xFF, 0xF5, 0xFB, 0x03, 0x01, 0xF8, 0x0B, 0x08, 0x4D, 0x06,
  0xED, 0x17, 0xD2, 0x17, 0xE7, 0xBC, 0x29, 0x11, 0x08, 0xF8,
  0x06, 0x04, 0x07, 0xFB, 0xB4, 0xEF, 0xFF, 0xE6, 0x2F, 0xF6,
  0x14, 0x2E, 0xE9, 0xFC, 0x07, 0xFF, 0x00, 0xE9, 0x09, 0x0E,
  0x26, 0x20, 0xEA, 0x0B, 0xEC, 0xFA, 0xF3, 0xE1, 0x08, 0xF9,
  0xFB, 0xE7, 0x00, 0xF8, 0xFA, 0x09, 0xEF, 0xEF, 0xD3, 0xFA,
  0x13, 0xEB, 0xFC, 0x3A, 0xFE, 0xF2, 0xFC, 0x0A, 0x07, 0xE9,
  0xFA, 0xF8, 0x03, 0xF0, 0xFB, 0xF4, 0x02, 0xF1, 0xF3, 0x00,
  0xFA, 0xF9, 0xF6, 0xF1, 0xF0, 0xE7, 0xFE, 0x47, 0xF9, 0xFD,
  0x00, 0x0F, 0x0E, 0xFC, 0xF4, 0xF9, 0xF0, 0xF6, 0x09, 0xF7,
  0x3F, 0x28, 0xEC, 0x43, 0xF2, 0xF1, 0xF5, 0x04, 0xFD, 0xF8,
  0xEC, 0xE7, 0xF5, 0xFE, 0xF8, 0x0B, 0x48, 0x3F, 0xDE, 0xD6,
  0x08, 0xFE, 0xF9, 0xE6, 0x02, 0xEE, 0xF3, 0xFF, 0x03, 0xF9,
  0xE1, 0xFD, 0xD2, 0xC7, 0x0C, 0x0A, 0xFE, 0xE6, 0xFA, 0xEF,
  0x0A, 0xE3, 0xF2, 0x03, 0xED, 0x00, 0x06, 0xDF, 0x0B, 0xF8,
  0xEC, 0x5F, 0xF5, 0xFD, 0xF7, 0x09, 0x13, 0xF6, 0xF3, 0xFA,
  0xED, 0x00, 0xFE, 0x07, 0x75, 0x4D, 0xE8, 0x0A, 0xFB, 0x00,
  0x01, 0xED, 0x02, 0xF4, 0xF2, 0x09, 0xFD, 0xF8, 0xEC, 0x02,
  0x0C, 0x13, 0xF4, 0xF3, 0xF8, 0xF6, 0x03, 0x05, 0xFB, 0x06,
  0xF0, 0x06, 0x00, 0x08, 0xFB, 0xF5, 0xFF, 0xFF, 0x02, 0xFA,
  0xFA, 0xF9, 0xFF, 0xF6, 0x07, 0xF9, 0xFB, 0xFA, 0xF8, 0xF7,
  0xF7, 0x06, 0xF7, 0xFA, 0x07, 0x04, 0x07, 0xF0, 0x00, 0xF0,
  0xF8, 0x09, 0x06, 0xF3, 0xFA, 0xFB, 0x00, 0xF3, 0x06, 0xFF,
  0x02, 0xF1, 0xF8, 0xEE, 0xEE, 0xF1, 0x0A, 0x07, 0x06, 0xF5,
  0xFC, 0xF7, 0x01, 0x02, 0x00, 0xF4, 0x04, 0xF6, 0x04, 0x02,
  0x03, 0xF1, 0xFB, 0xFB, 0xFD, 0x08, 0xF0, 0x05, 0xF6, 0xFF,
  0xF3, 0xFC, 0x06, 0x06, 0x04, 0x09, 0x04, 0xFF, 0xF4, 0xF3,
  0xFC, 0xF6, 0xF3, 0x01, 0xF4, 0xF3, 0x04, 0xF4, 0xF2, 0xFD,
  0xF5, 0xF6, 0xFF, 0xFC, 0xFD, 0x08, 0xF5, 0x09, 0x00, 0xFC,
  0x03, 0xFD, 0xF3, 0xF8, 0x03, 0x08, 0x0E, 0x0D, 0x02, 0xF9,
  0x01, 0xEF, 0x06, 0xFF, 0xF5, 0x0C, 0x03, 0xE7, 0x04, 0xEE,
  0xE8, 0xFC, 0xFB, 0xEB, 0x04, 0xF1, 0x0F, 0x2D, 0x03, 0xFB,
  0xE6, 0x03, 0xFE, 0x4A, 0x13, 0xF3, 0xE0, 0x1A, 0xF7, 0xCB,
  0x0B, 0xFB, 0xFB, 0x46, 0xFA, 0x13, 0xF6, 0x09, 0xD6, 0x3C,
  0x2A, 0xEE, 0xC6, 0x12, 0xF1, 0x08, 0x06, 0x10, 0x0C, 0xE5,
  0xFE, 0x09, 0xF5, 0x09, 0xDF, 0xF7, 0x1F, 0xFC, 0xFD, 0x11,
  0x0D, 0xEC, 0x05, 0xED, 0x12, 0x1E, 0xF7, 0xFC, 0x02, 0xF2,
  0xFB, 0x36, 0x11, 0x0C, 0xE9, 0x01, 0x05, 0xE7, 0x0B, 0x06,
  0xFD, 0x2F, 0xEB, 0x09, 0xED, 0xF8, 0xEB, 0x2F, 0x11, 0xF8,
  0xF0, 0xFF, 0xFA, 0x0A, 0xFC, 0x11, 0x08, 0x0B, 0xF6, 0xF4,
  0xFA, 0x05, 0x04, 0xFE, 0x25, 0xEB, 0x0D, 0x13, 0x12, 0x18,
  0x1B, 0x17, 0x09, 0x12, 0x0C, 0x10, 0x0B, 0x08, 0xFC, 0x12,
  0x27, 0x02, 0xD8, 0x0F, 0x0E, 0xEB, 0xFC, 0x03, 0x05, 0xEC,
  0x20, 0xFD, 0xFB, 0x05, 0xD5, 0x03, 0x11, 0xEC, 0xBE, 0x21,
  0x23, 0xD4, 0xFA, 0xFA, 0xFD, 0xF7, 0x1E, 0x16, 0x0B, 0x05,
  0xC4, 0x14, 0x13, 0xD5, 0x8E, 0x34, 0x0B, 0xDA, 0xFC, 0x12,
  0x04, 0x0F, 0x0D, 0x0E, 0x09, 0x18, 0xA1, 0x11, 0x07, 0xED,
  0xC0, 0x1D, 0x1E, 0xE6, 0x15, 0x21, 0x18, 0xEE, 0x12, 0x17,
  0x05, 0x28, 0xBB, 0x1B, 0xFF, 0xFA, 0xC3, 0x08, 0x03, 0xD8,
  0xF7, 0xFB, 0xFF, 0xF9, 0x0B, 0x0A, 0xFE, 0xFC, 0xC6, 0x05,
  0xDB, 0xEB, 0xCD, 0x0F, 0x0C, 0x0A, 0x03, 0x34, 0x0E, 0x0D,
  0x0B, 0x0E, 0x06, 0x0A, 0xEF, 0x1B, 0xF3, 0xF6, 0x13, 0xEC,
  0x05, 0x2E, 0x0A, 0x01, 0x02, 0x0D, 0x06, 0x02, 0x0D, 0xFF,
  0x06, 0x1B, 0xF1, 0xFD, 0x14, 0xD4, 0x11, 0xEA, 0xFC, 0xF9,
  0xFA, 0xF2, 0x13, 0x00, 0x0A, 0xFF, 0x13, 0x03, 0xBD, 0xD3,
  0x35, 0xBE, 0x15, 0x49, 0x07, 0xF9, 0xF8, 0x09, 0x0B, 0x0D,
  0x14, 0x02, 0x20, 0x0B, 0xC9, 0xDA, 0x2F, 0xAA, 0x05, 0x19,
  0x0B, 0x01, 0xFE, 0x0A, 0x04, 0x05, 0x14, 0xFD, 0x27, 0x06,
  0x9A, 0xE2, 0x1F, 0xB8, 0x13, 0x0F, 0x11, 0x1E, 0xF8, 0x2F,
  0x09, 0x0B, 0x17, 0x10, 0x13, 0x1F, 0xC3, 0xD4, 0x1A, 0x9E,
  0x0B, 0x0D, 0x09, 0xFE, 0xF6, 0x0B, 0x05, 0x06, 0x0C, 0xF8,
  0xFE, 0x02, 0x94, 0xC6, 0x19, 0xDA, 0x0C, 0xF2, 0x0D, 0x17,
  0x08, 0x25, 0xFF, 0x13, 0x08, 0x0E, 0x0E, 0x0A, 0xDC, 0xE8,
  0x00, 0xFE, 0xFC, 0xFF, 0xF8, 0xF6, 0x06, 0xFF, 0xF6, 0x02,
  0xFB, 0xF3, 0xFE, 0xFE, 0x04, 0xFC, 0xF5, 0xFA, 0x0B, 0xE5,
  0x1F, 0xFA, 0x17, 0x05, 0xEA, 0x14, 0x17, 0x28, 0xEE, 0x05,
  0xFF, 0xF9, 0xE2, 0xFF, 0xD7, 0xE0, 0x0D, 0xFC, 0x10, 0x12,
  0xE1, 0xED, 0x00, 0x30, 0xF2, 0x07, 0x06, 0x0E, 0xF2, 0xF6,
  0x15, 0xEF, 0x18, 0xEA, 0x2E, 0xFD, 0xF1, 0x19, 0x1C, 0x32,
  0xF3, 0xFB, 0xF8, 0xFE, 0xF4, 0xFF, 0xDF, 0xF4, 0x18, 0xFE,
  0x18, 0x11, 0xE4, 0xF8, 0x03, 0x08, 0xFF, 0x0C, 0xFA, 0x0A,
  0xDD, 0xFC, 0x1D, 0xD7, 0x2A, 0xF7, 0x26, 0x0B, 0xF0, 0x30,
  0x22, 0x39, 0xE2, 0xFF, 0xF0, 0x14, 0xF6, 0x08, 0xEC, 0xFC,
  0x15, 0xF8, 0x1D, 0x02, 0xE3, 0xFA, 0xF5, 0x0B, 0x04, 0xFF,
  0x02, 0x0B, 0xFC, 0xF2, 0xFC, 0x08, 0x09, 0x01, 0xF4, 0xF7,
  0xF9, 0x08, 0xF2, 0x09, 0x03, 0xF7, 0xFF, 0xFB, 0xF7, 0xF4,
  0x05, 0xFB, 0x04, 0xEF, 0x03, 0x09, 0x09, 0xF3, 0x0B, 0xF3,
  0x00, 0x01, 0xF3, 0x0A, 0xFB, 0xF4, 0xFE, 0xF6, 0xF8, 0xFD,
  0xF5, 0xFB, 0x06, 0xF9, 0xFD, 0x0A, 0xF9, 0xF2, 0x02, 0xFD,
  0xFA, 0xFB, 0x0B, 0xF9, 0x00, 0x03, 0xF9, 0xF9, 0xF9, 0xF9,
  0x00, 0xF6, 0xF9, 0xFD, 0x05, 0x04, 0x02, 0x0A, 0x0B, 0x06,
  0xFF, 0xF1, 0x02, 0x01, 0xF7, 0xF7, 0xFE, 0xFC, 0x08, 0xF4,
  0x00, 0x09, 0x00, 0xF8, 0xFF, 0x06, 0x01, 0xF7, 0xFB, 0xFF,
  0xFE, 0xF7, 0x0B, 0xF4, 0x05, 0xFC, 0x08, 0x0B, 0xF7, 0xFA,
  0x09, 0xFE, 0x04, 0x02, 0xF3, 0x05, 0xF9, 0xFD, 0x0A, 0xF5,
  0x08, 0xFF, 0xF2, 0xFF, 0x10, 0x0B, 0x18, 0x0C, 0xFA, 0xF6,
  0xEA, 0x10, 0x1E, 0x12, 0xFF, 0x00, 0x05, 0x0C, 0x21, 0xEF,
  0x11, 0xFB, 0xCA, 0x03, 0xC6, 0xF6, 0xE6, 0xF0, 0x2A, 0xB3,
  0x20, 0xF9, 0x08, 0xEA, 0x17, 0xED, 0x12, 0x0A, 0xF7, 0x1E,
  0xD7, 0xEE, 0xEB, 0xF5, 0x2C, 0xE7, 0x2B, 0xF9, 0xEF, 0xF3,
  0x0E, 0xE5, 0x21, 0x10, 0x26, 0x0F, 0xFE, 0x16, 0x00, 0x18,
  0x17, 0x33, 0x1B, 0x06, 0x06, 0x10, 0x22, 0x06, 0x05, 0xFE,
  0x14, 0x06, 0x00, 0xFF, 0xFA, 0x1B, 0x03, 0xDE, 0x23, 0x13,
  0x07, 0x17, 0x0F, 0x17, 0xFF, 0x13, 0xAD, 0xF2, 0xB9, 0x0F,
  0xE4, 0x0F, 0xF0, 0x9A, 0x17, 0x14, 0x0F, 0x0D, 0xFF, 0x0A,
  0x0E, 0xFF, 0xF7, 0x0D, 0x01, 0x07, 0x04, 0x17, 0x1F, 0x01,
  0x0C, 0x14, 0x05, 0x05, 0x08, 0xFD, 0x0F, 0x00, 0xF3, 0xF7,
  0x0B, 0x05, 0xFB, 0x06, 0xF2, 0xFC, 0x0A, 0xFE, 0xF8, 0x02,
  0x08, 0xFC, 0xF3, 0x0A, 0xFD, 0x02, 0x06, 0x06, 0x0A, 0x0A,
  0xF5, 0xF6, 0x06, 0x08, 0xFD, 0x06, 0xF4, 0xF3, 0xFC, 0xF5,
  0xF9, 0xF6, 0x05, 0x04, 0x06, 0xFC, 0xFB, 0x00, 0xF7, 0xF7,
  0x06, 0xFD, 0xF9, 0x07, 0x09, 0x09, 0x04, 0xFC, 0xF9, 0x08,
  0x01, 0x02, 0xFF, 0xF4, 0x09, 0xF3, 0xFD, 0xF4, 0x06, 0xF7,
  0x02, 0xF8, 0xF7, 0x0B, 0xF3, 0xFA, 0xFC, 0x02, 0xFD, 0x00,
  0x00, 0x00, 0x08, 0xFA, 0xFD, 0xF8, 0x02, 0x04, 0xFF, 0xF7,
  0xF9, 0x02, 0x00, 0xF3, 0x03, 0xFF, 0xF8, 0x0A, 0xFF, 0xF7,
  0x03, 0x01, 0x07, 0xF9, 0xF9, 0xFD, 0xF6, 0xFA, 0x03, 0xF9,
  0xF5, 0x08, 0x02, 0x02, 0xFC, 0xFA, 0x0A, 0xFE, 0x08, 0x06,
  0xF4, 0xFA, 0xFA, 0xFF, 0x00, 0x07, 0xFC, 0x05, 0x09, 0xF5,
  0x07, 0x07, 0x04, 0xF5, 0x05, 0xF5, 0xF3, 0x06, 0x02, 0xFE,
  0x07, 0xFC, 0xF8, 0xF8, 0x06, 0x07, 0x07, 0xF6, 0xF4, 0xF3,
  0x09, 0x09, 0xF7, 0xFD, 0xFC, 0x08, 0xFB, 0xF6, 0xF2, 0xFF,
  0xF9, 0x06, 0x04, 0xFA, 0xFA, 0x03, 0x05, 0xF8, 0xF9, 0xF6,
  0xF5, 0xF4, 0xFA, 0xFA, 0xF2, 0xFE, 0x0A, 0xF3, 0x01, 0xFE,
  0x05, 0x05, 0x0A, 0xF5, 0xFE, 0xFF, 0x00, 0xFC, 0xF3, 0xF3,
  0xFA, 0x03, 0xFC, 0xFD, 0xF3, 0xFF, 0xFD, 0xF9, 0x06, 0xFB,
  0x04, 0xF6, 0x08, 0xFD, 0xFE, 0x05, 0xF5, 0x03, 0x01, 0xF6,
  0x02, 0xFC, 0x08, 0x08, 0x0A, 0x05, 0x0A, 0xF6, 0xFD, 0xF3,
  0xFA, 0xF8, 0xF6, 0xFA, 0xFF, 0xF8, 0xF7, 0xFC, 0x01, 0x08,
  0xFF, 0x05, 0xFC, 0xFB, 0x14, 0xF4, 0x0C, 0xF7, 0x02, 0xFA,
  0xFC, 0x02, 0x01, 0x0F, 0x01, 0xFD, 0x0C, 0x08, 0xCA, 0xE9,
  0xE9, 0x17, 0xE1, 0x15, 0xF2, 0x06, 0x1D, 0x0A, 0x0F, 0xFD,
  0xED, 0x07, 0xF0, 0xEC, 0x20, 0x01, 0x02, 0xF2, 0x2B, 0xF3,
  0xF9, 0xEA, 0xDF, 0x09, 0xFE, 0x00, 0x05, 0x03, 0x10, 0x0D,
  0xE7, 0xFA, 0x0A, 0x01, 0xDF, 0x09, 0x14, 0x01, 0x1D, 0xED,
  0x0B, 0x07, 0x04, 0xFA, 0x01, 0xF3, 0xEF, 0x00, 0xF4, 0xF1,
  0xE9, 0x08, 0xE7, 0x10, 0x01, 0x2D, 0xE4, 0x00, 0x0A, 0xFE,
  0xFB, 0x0D, 0x0B, 0x0D, 0x08, 0x0A, 0x17, 0xDB, 0x1E, 0xFC,
  0xDF, 0xE9, 0x0C, 0x0B, 0xFC, 0xE6, 0x15, 0xFA, 0xF4, 0x03,
  0x03, 0xF8, 0xF6, 0x0E, 0xE7, 0x0C, 0x14, 0xF7, 0x0E, 0xFD,
  0xFA, 0x04, 0xF4, 0x08, 0x12, 0x00, 0xFF, 0xE3, 0x0C, 0x06,
  0xEE, 0xF3, 0xFE, 0x07, 0xFF, 0x09, 0x08, 0x07, 0xFC, 0x04,
  0xF5, 0xF1, 0x0C, 0xF0, 0xF9, 0xF5, 0x14, 0xFA, 0xF3, 0xEC,
  0x08, 0xE0, 0x03, 0xE7, 0x0F, 0xF6, 0xF0, 0xF6, 0xED, 0x17,
  0xED, 0x08, 0xEC, 0x0D, 0x16, 0x1E, 0x0C, 0x0F, 0x03, 0x05,
  0xFE, 0x06, 0x18, 0x04, 0x05, 0xFB, 0x3E, 0xE7, 0x00, 0xF2,
  0xD3, 0xFD, 0xF2, 0x11, 0xEF, 0xFA, 0x0F, 0x0C, 0xEB, 0x10,
  0x14, 0xEC, 0xDD, 0x07, 0x0D, 0x15, 0x22, 0xF2, 0xFA, 0xF5,
  0x02, 0xFA, 0xFC, 0xF2, 0x07, 0xE5, 0x00, 0xD9, 0x03, 0x0F,
  0xED, 0xFF, 0xF0, 0x11, 0x09, 0xFB, 0x07, 0x02, 0xF4, 0x05,
  0x10, 0x02, 0x05, 0x1C, 0x05, 0xED, 0x17, 0xF6, 0xF3, 0xED,
  0x0D, 0xFC, 0x06, 0x05, 0xE2, 0x21, 0x13, 0x40, 0x03, 0x17,
  0x45, 0xE4, 0x23, 0x1C, 0xC8, 0xA4, 0x09, 0x28, 0x11, 0xFA,
  0x07, 0xF7, 0x07, 0xC5, 0xFF, 0xFA, 0x46, 0x25, 0xA4, 0x05,
  0x0B, 0x25, 0x19, 0x21, 0x05, 0x37, 0xEA, 0x02, 0xFA, 0x27,
  0x19, 0xFE, 0xB9, 0x0C, 0x35, 0xFD, 0x4B, 0x10, 0xCA, 0xDF,
  0xFE, 0x04, 0xDD, 0x25, 0x0F, 0x4E, 0x0B, 0x04, 0x7F, 0xD4,
  0xFC, 0x19, 0x86, 0xBA, 0x06, 0x2B, 0x1A, 0xE3, 0x17, 0xDD,
  0xD8, 0xD7, 0x02, 0xD8, 0x14, 0x1D, 0xBE, 0x27, 0xFF, 0x42,
  0x1B, 0x23, 0xE8, 0x06, 0x05, 0x03, 0xFB, 0x19, 0x12, 0x53,
  0xCF, 0x1C, 0x03, 0xDB, 0x37, 0xFF, 0xFF, 0xF6, 0xFB, 0x06,
  0xDB, 0x1D, 0x23, 0x13, 0xE3, 0xED, 0x1C, 0x17, 0x12, 0xE3,
  0xE6, 0xF7, 0x12, 0x23, 0xFD, 0x08, 0xEB, 0x00, 0xFD, 0x0C,
  0x05, 0xFF, 0xF6, 0xE9, 0xF6, 0x01, 0x09, 0x10, 0xFD, 0x17,
  0x13, 0x01, 0x0A, 0x14, 0x02, 0xF9, 0x00, 0xF0, 0x05, 0xF4,
  0x11, 0xFA, 0xF7, 0x02, 0xFE, 0xCD, 0xEC, 0xDD, 0x0F, 0x0C,
  0xFA, 0x01, 0x0A, 0xF8, 0x18, 0x16, 0xFE, 0x0D, 0xED, 0xF1,
  0x0F, 0x10, 0xF6, 0xFB, 0xE9, 0xF5, 0x09, 0x1A, 0x01, 0xFF,
  0xE0, 0xB4, 0xEB, 0x09, 0x18, 0x16, 0x18, 0x15, 0x08, 0x00,
  0x23, 0x07, 0x14, 0xF5, 0x07, 0x04, 0x1A, 0x46, 0x07, 0xF3,
  0xED, 0xF4, 0xFB, 0xDB, 0x00, 0xF2, 0xF0, 0xFF, 0xF6, 0xF1,
  0xFF, 0xE0, 0x01, 0xF5, 0x04, 0x04, 0xF7, 0xF8, 0x07, 0x23,
  0x05, 0x0C, 0xF9, 0xFB, 0xFA, 0xFC, 0x01, 0x05, 0xF9, 0xE2,
  0xF7, 0x0E, 0x06, 0x0F, 0x07, 0xE0, 0x08, 0x05, 0xFD, 0xF6,
  0x03, 0x0D, 0x02, 0xF8, 0x0C, 0x07, 0xF9, 0x01, 0x04, 0xFA,
  0xF4, 0x02, 0xFB, 0x09, 0xF8, 0xF6, 0x0B, 0x09, 0x05, 0xFA,
  0x0A, 0xFA, 0xF8, 0x0C, 0xFE, 0xF6, 0xFE, 0xFA, 0x05, 0x04,
  0x04, 0xF6, 0xF6, 0xF4, 0xF4, 0x0A, 0x00, 0xF9, 0xFC, 0xF6,
  0xF5, 0xF9, 0xFE, 0xF4, 0x0C, 0x0A, 0x03, 0xFE, 0xFE, 0xF4,
  0xF9, 0x01, 0x0B, 0x07, 0xF6, 0xFE, 0xFD, 0xFE, 0x0C, 0x06,
  0x04, 0xF8, 0x09, 0xF6, 0xFA, 0xF6, 0x07, 0xF8, 0xF6, 0xF7,
  0xFC, 0x02, 0xFC, 0x09, 0x01, 0x0A, 0xF5, 0x02, 0x07, 0x07,
  0xFE, 0xF7, 0xF5, 0x08, 0xFC, 0xF5, 0xF3, 0xFD, 0xF7, 0xF8,
  0xFE, 0x08, 0x07, 0x09, 0x0A, 0x03, 0xF8, 0x08, 0x01, 0xF7,
  0xFA, 0xFC, 0xF5, 0xF7, 0x04, 0x00, 0x0D, 0xFF, 0x04, 0x0B,
  0x03, 0xFB, 0xF6, 0xF8, 0x00, 0xFC, 0xF8, 0xF3, 0x02, 0xFB,
  0x01, 0x08, 0xF5, 0xF5, 0xFF, 0xFD, 0xF8, 0x00, 0xF3, 0xF6,
  0xFA, 0xF7, 0xFD, 0x0A, 0xF4, 0x02, 0xF3, 0xFB, 0x04, 0x0A,
  0x00, 0x03, 0x06, 0x00, 0xF9, 0xF9, 0xF6, 0xF8, 0xF5, 0xFF,
  0x00, 0x08, 0xF2, 0xFC, 0xF6, 0x08, 0xF2, 0x04, 0xF8, 0xFB,
  0x07, 0x06, 0xFD, 0xF7, 0x05, 0x00, 0xFE, 0x07, 0x07, 0xFA,
  0x09, 0xFB, 0xFF, 0xF6, 0x09, 0x00, 0xF6, 0x08, 0xF5, 0xF7,
  0xF9, 0x06, 0xF8, 0x05, 0x00, 0x05, 0xF8, 0x09, 0xFD, 0xF2,
  0xFF, 0xF8, 0xF8, 0xF4, 0xF9, 0x05, 0x05, 0x00, 0x02, 0x06,
  0xF7, 0xF7, 0x0A, 0xFA, 0xF9, 0x00, 0x0A, 0xF5, 0xF5, 0xFC,
  0xF3, 0xFC, 0x02, 0xFB, 0xF5, 0xF8, 0xFF, 0xFB, 0xFC, 0x02,
  0xFF, 0xFC, 0x01, 0x04, 0x07, 0xF0, 0xE5, 0x08, 0xFB, 0xE9,
  0xF3, 0x0A, 0x05, 0x06, 0xFC, 0xFF, 0x0F, 0xFD, 0x0A, 0x15,
  0xEF, 0x0E, 0x12, 0xE6, 0x00, 0x0A, 0x26, 0x01, 0x00, 0xF0,
  0x0A, 0x01, 0xF2, 0xE2, 0x07, 0x11, 0x07, 0xF3, 0xF8, 0x0C,
  0x07, 0xFF, 0xE5, 0xF0, 0xFC, 0x17, 0x03, 0xE9, 0xF7, 0xFA,
  0xEE, 0xF9, 0xD4, 0xF7, 0x35, 0xDC, 0x06, 0xF5, 0x07, 0x16,
  0xFF, 0x17, 0x05, 0x0C, 0xFF, 0xFC, 0x15, 0x08, 0x14, 0x1F,
  0xBA, 0x16, 0xFF, 0x14, 0x0C, 0xED, 0xFF, 0xF3, 0x02, 0x0A,
  0x10, 0x03, 0xED, 0xE6, 0xFA, 0xE1, 0x0A, 0xD5, 0xFF, 0xF2,
  0x03, 0x03, 0xFE, 0x03, 0x0A, 0xFA, 0xF8, 0x10, 0x07, 0x04,
  0x33, 0x0E, 0x09, 0xFD, 0xF4, 0x09, 0xF6, 0xC7, 0x0A, 0x0B,
  0xFF, 0xF5, 0x02, 0xFC, 0xF5, 0x10, 0x06, 0x2C, 0x1A, 0xEA,
  0x42, 0x0C, 0x14, 0x05, 0xF5, 0x01, 0x02, 0x0E, 0x42, 0xD0,
  0xE1, 0x12, 0x28, 0x14, 0xF6, 0xF7, 0x29, 0xB2, 0x22, 0x19,
  0xF1, 0x14, 0x20, 0xE1, 0x28, 0xE6, 0x27, 0x1C, 0x18, 0x0F,
  0x09, 0xD5, 0x03, 0x0D, 0x02, 0x1B, 0xEA, 0xD5, 0xE4, 0x07,
  0x19, 0xFA, 0xF3, 0xF8, 0x30, 0x11, 0x2D, 0xF8, 0x12, 0xEC,
  0xF3, 0xF6, 0x0E, 0x15, 0xE2, 0x1B, 0x36, 0x0F, 0xE9, 0x2A,
  0x02, 0xD4, 0x01, 0x1B, 0xFD, 0x2F, 0xEA, 0x29, 0xF3, 0xE7,
  0x1F, 0x3F, 0x1B, 0x10, 0x05, 0x12, 0xF2, 0xF9, 0xEE, 0x01,
  0x09, 0xFA, 0x02, 0xFF, 0xF4, 0xF1, 0xEB, 0xBD, 0xDD, 0x01,
  0xD6, 0x14, 0x20, 0x19, 0xD8, 0x22, 0x1C, 0xF2, 0xFF, 0xF4,
  0x10, 0xFB, 0x0D, 0xF4, 0xF0, 0x27, 0xEF, 0xF9, 0x02, 0x0F,
  0x05, 0xFC, 0x14, 0xDF, 0xFA, 0xF9, 0xF9, 0x15, 0xF2, 0xF6,
  0x06, 0x1D, 0x07, 0xDC, 0x1C, 0xF9, 0x02, 0xFD, 0x01, 0xF7,
  0xF8, 0xF0, 0x07, 0xF3, 0x04, 0x32, 0x06, 0x12, 0xF4, 0x0B,
  0x14, 0xDF, 0x07, 0x08, 0xF9, 0x0B, 0xFF, 0xE5, 0x02, 0xF7,
  0xE8, 0xE1, 0x0B, 0x00, 0xDB, 0x16, 0x02, 0x05, 0x12, 0x1F,
  0xEC, 0xC7, 0xF8, 0xDB, 0x24, 0xFB, 0xF7, 0xFD, 0x02, 0xF6,
  0x31, 0x16, 0xF9, 0xF6, 0x18, 0x02, 0xED, 0x28, 0xFF, 0xF9,
  0x0F, 0xEF, 0x26, 0x19, 0xFB, 0xDE, 0xF8, 0x01, 0xF5, 0x0C,
  0x12, 0x01, 0xFF, 0x20, 0xE5, 0x15, 0x0C, 0x08, 0xF0, 0xE2,
  0xF2, 0xEC, 0x0A, 0x06, 0xE9, 0x03, 0xEF, 0x00, 0xFE, 0x07,
  0xF4, 0x14, 0xF8, 0x06, 0x11, 0x05, 0x01, 0xFC, 0x03, 0x08,
  0xE9, 0xF0, 0x27, 0xF3, 0x00, 0x0F, 0x1A, 0xFF, 0x09, 0xF3,
  0x03, 0x1A, 0xF6, 0x02, 0x1B, 0x16, 0x24, 0xFF, 0x16, 0xE1,
  0x13, 0x13, 0x00, 0xD9, 0xD9, 0xF8, 0xF8, 0xEF, 0xF0, 0xDA,
  0x10, 0x0C, 0x33, 0x20, 0xEC, 0x14, 0x11, 0x08, 0xCE, 0xD5,
  0xEC, 0x23, 0x01, 0xEA, 0xFF, 0xF6, 0xE8, 0xE5, 0x0F, 0x1A,
  0xD0, 0x13, 0xF1, 0xEB, 0xD3, 0x2F, 0x18, 0x16, 0x00, 0xF2,
  0x1C, 0x04, 0xEF, 0xE4, 0xB9, 0xCF, 0x1E, 0xF3, 0xEC, 0xEF,
  0x0B, 0x30, 0x19, 0xF5, 0x11, 0x07, 0x00, 0x1C, 0x0C, 0x03,
  0xEF, 0xCA, 0x2A, 0xE3, 0xFF, 0x02, 0x17, 0xF1, 0xF9, 0xE7,
  0x0E, 0x06, 0xFB, 0x06, 0x1B, 0x1D, 0x05, 0xFC, 0x05, 0xEF,
  0x1B, 0xF0, 0x1A, 0xDD, 0xE3, 0xF8, 0xF7, 0xFB, 0x03, 0xF3,
  0x07, 0x01, 0xF8, 0xF5, 0x01, 0x07, 0x06, 0xF5, 0xE1, 0x04,
  0x00, 0x09, 0xFC, 0xE6, 0xFD, 0x0D, 0x21, 0xDE, 0xFD, 0x0B,
  0xF7, 0xF6, 0x05, 0x20, 0x05, 0xFF, 0x1E, 0xF0, 0x0D, 0x43,
  0x06, 0x01, 0x16, 0x03, 0xE2, 0xED, 0xFA, 0xEF, 0x0B, 0x46,
  0xE3, 0xEF, 0xE7, 0x08, 0x16, 0x1D, 0xF7, 0xF3, 0xD6, 0xF9,
  0x0D, 0xFF, 0x1A, 0x06, 0x13, 0xFC, 0xF1, 0x11, 0xFB, 0x12,
  0xDC, 0xE6, 0x03, 0xFD, 0xEA, 0x07, 0x14, 0xED, 0x09, 0x09,
  0x01, 0x14, 0xE7, 0xFD, 0xF5, 0xCF, 0x02, 0x34, 0x00, 0x02,
  0x47, 0xE2, 0x14, 0x25, 0xDF, 0xE1, 0x0C, 0x2A, 0xF6, 0xF8,
  0x16, 0x0E, 0x23, 0x0C, 0xE8, 0x0C, 0x0E, 0xED, 0x06, 0xFA,
  0x12, 0x0B, 0xFE, 0x0A, 0xF3, 0xFA, 0xF3, 0xFA, 0x12, 0xFE,
  0xF8, 0xFA, 0x09, 0x03, 0x25, 0x00, 0x19, 0xF1, 0xEA, 0x0D,
  0xF1, 0xD4, 0x15, 0x1C, 0x04, 0x0E, 0xF9, 0x04, 0x0B, 0xFE,
  0xCC, 0xD6, 0xF0, 0x0F, 0xFB, 0x0A, 0xFE, 0x10, 0x00, 0xF6,
  0x05, 0x00, 0x01, 0x08, 0xF4, 0xF9, 0x0B, 0x01, 0x19, 0xEB,
  0xE7, 0x13, 0x11, 0xDD, 0x0D, 0x0A, 0xF4, 0xFF, 0x09, 0x07,
  0x03, 0x05, 0xE8, 0x05, 0xC3, 0x1B, 0x0C, 0xF5, 0x07, 0x33,
  0xF6, 0xE3, 0x02, 0x09, 0x12, 0xF7, 0xF9, 0xFB, 0x1E, 0x03,
  0x17, 0xEA, 0xEE, 0x09, 0x01, 0xC8, 0x20, 0x15, 0xF3, 0xF9,
  0xF6, 0x0F, 0x03, 0x0E, 0xEA, 0xFE, 0xE6, 0x0D, 0x0F, 0xE3,
  0xE7, 0x0F, 0xF4, 0x00, 0x09, 0xFA, 0x09, 0xEF, 0x08, 0xF3,
  0xD4, 0x09, 0x3B, 0xEB, 0x1D, 0x00, 0x0C, 0x1A, 0xE4, 0xFE,
  0x00, 0xFD, 0xFD, 0x11, 0x06, 0x02, 0x0D, 0x09, 0xF7, 0x00,
  0x0A, 0x08, 0x04, 0x05, 0x07, 0xF9, 0x01, 0x0D, 0x15, 0xFF,
  0x1E, 0xF5, 0x18, 0x1C, 0x17, 0x0B, 0xE6, 0xFC, 0xFD, 0x12,
  0xD7, 0xCD, 0x11, 0xFE, 0x07, 0xF4, 0x17, 0x02, 0x17, 0x19,
  0x18, 0xFF, 0xE4, 0xF5, 0xF2, 0x1D, 0xC3, 0xC5, 0x19, 0x00,
  0xFE, 0xFD, 0x05, 0x04, 0x16, 0x02, 0x14, 0x04, 0x11, 0x08,
  0x02, 0x1B, 0x0B, 0xF1, 0x0F, 0x00, 0x00, 0x08, 0x04, 0x08,
  0x1F, 0x22, 0x21, 0xFC, 0x0E, 0x09, 0xFA, 0x18, 0xE0, 0xE0,
  0x03, 0x02, 0x0D, 0x05, 0x22, 0x09, 0x08, 0x21, 0x19, 0x0C,
  0xE3, 0xED, 0xFC, 0x04, 0xCE, 0xBD, 0x20, 0xF2, 0xFF, 0x07,
  0x0D, 0x03, 0x26, 0x0C, 0x16, 0xFC, 0xFA, 0xF8, 0xFE, 0x1A,
  0xFF, 0xEE, 0x0F, 0xFC, 0xF5, 0x03, 0x04, 0xEE, 0x1D, 0xED,
  0xF7, 0x0F, 0x04, 0x0A, 0xFB, 0xFE, 0x03, 0x06, 0x09, 0x10,
  0x02, 0x10, 0x07, 0x1F, 0xFF, 0x15, 0x0E, 0xFB, 0x0C, 0xEC,
  0x12, 0xF4, 0xEB, 0xF2, 0xF7, 0xED, 0xF8, 0xD0, 0x13, 0x22,
  0xFD, 0x15, 0x01, 0xDF, 0xEB, 0xF7, 0xF0, 0x02, 0x19, 0x13,
  0x1E, 0x09, 0xDE, 0xDD, 0xE9, 0xF6, 0x13, 0xEF, 0x03, 0xDD,
  0x12, 0x0B, 0x00, 0xE8, 0xF0, 0x00, 0x16, 0xEA, 0x0E, 0x09,
  0xF2, 0xFA, 0xFE, 0xEB, 0x0A, 0x3F, 0xF5, 0xFD, 0xFE, 0x0D,
  0x09, 0x05, 0x15, 0xF8, 0x00, 0x0A, 0x08, 0xFA, 0xF3, 0xDD,
  0x06, 0xD3, 0x17, 0x05, 0xED, 0x02, 0xD5, 0x0E, 0x00, 0x13,
  0x09, 0x03, 0xFF, 0x0D, 0x06, 0x20, 0x01, 0xF5, 0xFE, 0xFB,
  0x19, 0x09, 0x07, 0xE8, 0xE2, 0xFE, 0x05, 0x0C, 0xF8, 0x02,
  0x00, 0xF4, 0x0D, 0xF9, 0xF4, 0xE7, 0xF5, 0xF9, 0x14, 0xFE,
  0x1D, 0x39, 0xFC, 0xE9, 0x1A, 0xFB, 0xE1, 0xEC, 0xFA, 0xF0,
  0x07, 0x3E, 0x04, 0x07, 0xF9, 0x07, 0xFC, 0x09, 0xE0, 0x13,
  0xD3, 0xF8, 0x05, 0xFA, 0x0B, 0x10, 0xF2, 0xE5, 0xF8, 0x06,
  0x09, 0x0B, 0xFD, 0xD6, 0x06, 0x0A, 0x10, 0xFA, 0x12, 0xEC,
  0xF0, 0xDD, 0xF9, 0x1E, 0x13, 0xF1, 0xFE, 0xDC, 0x2D, 0x43,
  0x1B, 0xFC, 0xF6, 0x11, 0xF5, 0xFB, 0xFD, 0x0F, 0x18, 0x1A,
  0xF9, 0x0B, 0xF0, 0x03, 0xAE, 0xDB, 0x09, 0xF2, 0xED, 0x0E,
  0x06, 0x0D, 0xFE, 0x0D, 0xF9, 0xBD, 0xE9, 0xFE, 0x08, 0x0E,
  0x06, 0x1D, 0xF6, 0xEA, 0x1E, 0xF4, 0x06, 0x03, 0x03, 0xE8,
  0x0C, 0x2D, 0x03, 0xF9, 0x05, 0xFD, 0x22, 0x12, 0xDB, 0x15,
  0x19, 0xF2, 0xFE, 0x0D, 0x09, 0x2A, 0x0F, 0xFF, 0xF8, 0x03,
  0xF8, 0x02, 0xF2, 0x06, 0xDD, 0x0C, 0xF7, 0x14, 0xDE, 0x0B,
  0xFC, 0xD6, 0xF9, 0x14, 0x00, 0x08, 0x0C, 0xFF, 0xDF, 0x13,
  0xF2, 0x17, 0xD3, 0x10, 0x04, 0xE8, 0x12, 0xD6, 0x01, 0x14,
  0x06, 0xF8, 0x00, 0xFE, 0x06, 0xE7, 0x0E, 0x03, 0xEA, 0xDA,
  0xF9, 0xC9, 0xEB, 0x33, 0xFD, 0xFE, 0x05, 0x08, 0x03, 0x03,
  0x1B, 0xDF, 0x09, 0x16, 0x16, 0xFD, 0xEE, 0x23, 0xE5, 0x30,
  0x0C, 0xFC, 0xE4, 0x04, 0xEC, 0x11, 0xEB, 0x27, 0xEA, 0xF3,
  0x1E, 0x18, 0x0B, 0x17, 0x14, 0xE1, 0x09, 0xDF, 0x14, 0x03,
  0xFB, 0xF4, 0xE8, 0x12, 0xFB, 0xEB, 0xFE, 0xF6, 0xF5, 0x16,
  0x11, 0xC0, 0xEA, 0x0B, 0x02, 0x05, 0x13, 0xF3, 0x01, 0xDF,
  0x0B, 0x10, 0x02, 0x12, 0xFA, 0xFD, 0xEA, 0xD1, 0xFD, 0x15,
  0x01, 0x12, 0xF7, 0x0F, 0x11, 0x0A, 0xF2, 0x0C, 0x08, 0x2A,
  0xED, 0xDE, 0x00, 0xE1, 0xF6, 0x10, 0xFC, 0x11, 0x00, 0x12,
  0x06, 0xE5, 0xEE, 0xCE, 0x1E, 0x20, 0xEF, 0xF4, 0xFC, 0x1D,
  0xF4, 0xF8, 0xF1, 0xEF, 0x20, 0x07, 0x03, 0xEE, 0x02, 0xD0,
  0x00, 0xF6, 0x06, 0x22, 0x21, 0x38, 0x06, 0xE7, 0xFA, 0xD9,
  0x14, 0xEA, 0xE4, 0xF1, 0x17, 0xED, 0xF8, 0xDE, 0x13, 0x17,
  0x14, 0xFE, 0x17, 0xE3, 0x0D, 0xE9, 0xEC, 0xF8, 0xF8, 0x0F,
  0x13, 0x2D, 0xEE, 0xD1, 0xF8, 0xE8, 0xFC, 0xCA, 0x0F, 0x04,
  0x0C, 0x08, 0xE9, 0x0B, 0x16, 0x0E, 0xF0, 0x31, 0xFF, 0x03,
  0xEF, 0xFF, 0xF2, 0xE7, 0x03, 0x17, 0x08, 0x23, 0xDE, 0x17,
  0x10, 0x09, 0xF7, 0x14, 0xF6, 0x02, 0x0C, 0x18, 0xD1, 0x12,
  0x0B, 0x0D, 0x05, 0x20, 0xFD, 0xDE, 0x02, 0x01, 0x07, 0x04,
  0xF7, 0xFE, 0x17, 0xF6, 0x0E, 0xE0, 0x12, 0xF8, 0x04, 0xEE,
  0xF7, 0xFF, 0x01, 0xE1, 0xF0, 0xFF, 0x0F, 0x10, 0x19, 0xFF,
  0xD8, 0x23, 0xFC, 0x05, 0xE9, 0xE5, 0x05, 0xF6, 0x17, 0x13,
  0x02, 0xF4, 0xF4, 0xF5, 0xE3, 0xFA, 0x52, 0xD3, 0x20, 0x00,
  0xFA, 0xFF, 0xEA, 0x19, 0xEF, 0x02, 0x00, 0x08, 0x08, 0x0C,
  0x04, 0x00, 0xDD, 0x18, 0xE4, 0xE8, 0xF8, 0x01, 0xFC, 0x07,
  0x0F, 0xFC, 0x00, 0xEB, 0x05, 0xFD, 0xD6, 0xCF, 0x22, 0xCB,
  0xF3, 0xFB, 0x25, 0xF9, 0x03, 0xFF, 0x0A, 0xF5, 0xF6, 0x16,
  0xFB, 0x06, 0x37, 0x12, 0xEA, 0x1F, 0xD5, 0xFD, 0xE4, 0xDC,
  0x1D, 0x1D, 0x04, 0xF4, 0x02, 0x11, 0x0A, 0xFC, 0x0F, 0x11,
  0x00, 0x13, 0xF6, 0xF9, 0x19, 0xF7, 0x0B, 0xEB, 0xF8, 0xF1,
  0x07, 0x02, 0x03, 0xFC, 0xE2, 0xF1, 0x03, 0xF5, 0x02, 0x0C,
  0xFA, 0x09, 0x05, 0x1C, 0xFD, 0x0B, 0xF5, 0x03, 0xF7, 0xED,
  0x0E, 0xD9, 0xFF, 0xDF, 0xF9, 0x00, 0x08, 0xEF, 0x0B, 0x01,
  0xFD, 0x02, 0x07, 0x10, 0xF9, 0x21, 0xF6, 0x2B, 0xF8, 0x23,
  0xFD, 0xEE, 0x26, 0x03, 0x03, 0xE3, 0xF7, 0xF1, 0xE4, 0xD8,
  0x03, 0xDA, 0xFD, 0xF8, 0xFC, 0xF6, 0x19, 0x12, 0xD2, 0x02,
  0xFC, 0x0B, 0x0C, 0x05, 0x0F, 0x2A, 0xFA, 0x07, 0x12, 0xFE,
  0x17, 0xEF, 0x0A, 0xEC, 0xF4, 0xFD, 0xF8, 0xF5, 0x07, 0xFF,
  0xFE, 0xF9, 0x0B, 0xF7, 0xF1, 0xF6, 0x06, 0xFB, 0xE7, 0x08,
  0x01, 0x03, 0x13, 0x10, 0x06, 0xEF, 0x14, 0x07, 0xEF, 0x02,
  0x0B, 0x14, 0x00, 0xF5, 0x3D, 0xF8, 0xFD, 0xFE, 0xC5, 0xE8,
  0xFB, 0x08, 0x0B, 0xFC, 0x22, 0xDB, 0xFF, 0xD0, 0x04, 0xF5,
  0xD9, 0x0C, 0xCF, 0x10, 0x2F, 0x27, 0x06, 0xF9, 0xF6, 0x1D,
  0xF4, 0x12, 0x07, 0x17, 0xF7, 0x19, 0xE2, 0xFE, 0x2D, 0x02,
  0x07, 0xCE, 0xFC, 0xF6, 0x0F, 0xFA, 0xF1, 0xFF, 0xFD, 0x0B,
  0x07, 0xE7, 0x62, 0xE1, 0xE6, 0x08, 0xA2, 0xFE, 0xFE, 0x02,
  0x12, 0xF5, 0x05, 0xEF, 0xE0, 0xE1, 0x12, 0xFB, 0xC6, 0x0B,
  0xF9, 0x07, 0x39, 0x2C, 0xFE, 0xF2, 0xFE, 0x19, 0xFA, 0x04,
  0x09, 0x03, 0xDD, 0x0F, 0xF4, 0xF8, 0x29, 0xE5, 0x22, 0xD8,
  0xF6, 0xFE, 0x05, 0xF6, 0x05, 0xF4, 0x0F, 0x03, 0xF6, 0xEF,
  0x23, 0x05, 0xF1, 0xFE, 0xEC, 0x14, 0x01, 0xFE, 0x04, 0x06,
  0x0B, 0xE4, 0xFB, 0x01, 0x01, 0x05, 0x02, 0x14, 0xF2, 0xFF,
  0x0A, 0x06, 0x01, 0x0F, 0x1C, 0x1D, 0xFF, 0x15, 0xF2, 0xED,
  0xFE, 0xF6, 0x0E, 0x06, 0x06, 0x09, 0x01, 0x01, 0xFC, 0xFC,
  0xD6, 0xEC, 0xFF, 0xDF, 0x00, 0x0E, 0x03, 0xEE, 0xFA, 0xF4,
  0x02, 0x0A, 0xF1, 0xF8, 0x07, 0xEB, 0x19, 0x1C, 0x05, 0x2A,
  0x07, 0xF6, 0x13, 0xF4, 0x15, 0x00, 0xE5, 0xFC, 0xEB, 0x14,
  0x11, 0x1A, 0xC8, 0xDE, 0xF7, 0xC6, 0xFD, 0xF9, 0xFB, 0x11,
  0xF8, 0x0D, 0x0F, 0x01, 0x0E, 0xEE, 0xEB, 0xF0, 0x14, 0x33,
  0x04, 0x24, 0xF8, 0x1A, 0xFF, 0xF4, 0x0A, 0xF8, 0xF4, 0x03,
  0xF4, 0x05, 0x07, 0x18, 0xEE, 0xD2, 0x0D, 0xEC, 0x12, 0xE9,
  0x05, 0xF9, 0x02, 0x08, 0xFF, 0xFE, 0xF6, 0xF2, 0x0B, 0xE6,
  0x27, 0x21, 0xF6, 0x03, 0xEC, 0xDB, 0x03, 0xFE, 0xFB, 0xFD,
  0x05, 0x0C, 0x19, 0xE8, 0x0A, 0x14, 0xF4, 0x10, 0x05, 0xEC,
  0xE9, 0xD1, 0xFF, 0xFB, 0xE0, 0xEF, 0x03, 0x26, 0x26, 0xF5,
  0x18, 0x19, 0xE7, 0x1A, 0xE6, 0xED, 0xEC, 0xFF, 0xF8, 0x0D,
  0xD0, 0xE9, 0xF7, 0x24, 0x1F, 0xF4, 0x0F, 0x0F, 0x06, 0x1D,
  0xD5, 0xD9, 0xEF, 0x0E, 0xFB, 0x14, 0xDD, 0xE4, 0xE4, 0x2B,
  0x24, 0x0D, 0x0C, 0x11, 0x11, 0x1B, 0xE2, 0xE1, 0xF6, 0x16,
  0xF2, 0x0D, 0xD5, 0xF0, 0xEB, 0x21, 0x18, 0x18, 0xFE, 0xFA,
  0x11, 0x12, 0xFD, 0xF0, 0x09, 0x32, 0xF8, 0x18, 0xEC, 0x03,
  0xE6, 0x05, 0xFE, 0x0D, 0xFD, 0xE6, 0x17, 0xF9, 0x11, 0xEF,
  0x0A, 0x08, 0xFA, 0xFD, 0x14, 0x18, 0xFC, 0x05, 0xF2, 0x12,
  0xFA, 0xC6, 0x12, 0xFE, 0x06, 0x06, 0xE2, 0x03, 0xF6, 0xE9,
  0xF6, 0x19, 0xFF, 0x26, 0xF8, 0x11, 0xFE, 0x06, 0xF6, 0xFE,
  0xFB, 0xFB, 0xCC, 0xF5, 0xD0, 0xEE, 0x09, 0x1F, 0x03, 0x1C,
  0xF3, 0x1D, 0x0D, 0x0A, 0xF2, 0x0E, 0xF2, 0xD8, 0x07, 0x0B,
  0xE8, 0xE8, 0x1C, 0x08, 0xFD, 0xFF, 0xDC, 0x0B, 0x06, 0x16,
  0x04, 0x2C, 0xF2, 0xCB, 0x2C, 0xFA, 0xF8, 0xF3, 0x13, 0xFE,
  0x0B, 0xEA, 0xE6, 0x0A, 0xFB, 0x13, 0x0A, 0x40, 0xE8, 0xD6,
  0x28, 0xF6, 0x13, 0xF8, 0x16, 0xEE, 0x0A, 0xDB, 0xFD, 0xE8,
  0xF0, 0x0D, 0x15, 0x2F, 0xFB, 0x04, 0x23, 0xF5, 0x1C, 0x0A,
  0xF9, 0xE2, 0x13, 0xED, 0x03, 0xEB, 0xFC, 0xF1, 0x02, 0x09,
  0x03, 0x0C, 0xFB, 0x1A, 0x16, 0x23, 0xFA, 0xF9, 0x08, 0x05,
  0xFE, 0xE5, 0x03, 0xED, 0x07, 0xEA, 0x05, 0xFC, 0xFB, 0x14,
  0x13, 0x0A, 0x0C, 0x01, 0xF6, 0x03, 0xFA, 0x05, 0x00, 0x09,
  0xCA, 0x0C, 0x09, 0x01, 0xFB, 0xDF, 0xFE, 0xDA, 0xF4, 0xF6,
  0x01, 0xFF, 0xF5, 0xF8, 0x0B, 0xDA, 0x28, 0xE9, 0x0E, 0xEB,
  0x03, 0x1E, 0x10, 0x29, 0x1C, 0xFD, 0xFE, 0x08, 0xEC, 0x0C,
  0x08, 0x09, 0xC4, 0xF4, 0x07, 0x03, 0x09, 0xED, 0xED, 0xC0,
  0xEF, 0x00, 0xFE, 0x01, 0x04, 0xEB, 0x00, 0xEE, 0x60, 0x02,
  0xE7, 0x0C, 0xF4, 0x1C, 0x10, 0x27, 0x18, 0xF8, 0xF8, 0x08,
  0xF7, 0x18, 0xF6, 0x25, 0xB5, 0xDD, 0x0D, 0x03, 0x01, 0xC4,
  0xFF, 0xD8, 0xF9, 0x0B, 0xFF, 0xF8, 0x00, 0xFB, 0x0B, 0xEB,
  0x2E, 0x14, 0xFA, 0xE7, 0xF6, 0x33, 0xFE, 0x29, 0x15, 0x12,
  0xF6, 0x12, 0xFA, 0x04, 0xEA, 0x13, 0xD6, 0x0B, 0xF6, 0xFD,
  0xF1, 0x01, 0xF4, 0x06, 0x02, 0x07, 0xF3, 0xFB, 0x09, 0x00,
  0x01, 0x04, 0xFC, 0xF7, 0xF8, 0xFA, 0x05, 0xF9, 0xFC, 0xF7,
  0xFE, 0xF1, 0xF8, 0xF7, 0xFD, 0xF9, 0xF0, 0x05, 0x02, 0x08,
  0x03, 0xFF, 0xFE, 0x06, 0x00, 0xFA, 0xF9, 0x03, 0xF2, 0x00,
  0x06, 0xFA, 0xF4, 0x06, 0xFC, 0xFA, 0xFB, 0xF9, 0x09, 0xF5,
  0x00, 0xFB, 0x03, 0x0A, 0xF9, 0xF5, 0xF6, 0xF9, 0x04, 0x05,
  0x07, 0x03, 0x01, 0x06, 0x05, 0xFF, 0xF5, 0x02, 0xF8, 0x05,
  0x05, 0xFF, 0xF9, 0xF7, 0x0A, 0xF5, 0x04, 0xFB, 0xF4, 0x06,
  0xF2, 0xF4, 0x03, 0xF8, 0x05, 0x0A, 0xFE, 0x08, 0x00, 0x01,
  0xF5, 0xF7, 0xF1, 0xF3, 0xFE, 0x00, 0xFF, 0x00, 0xF9, 0xF8,
  0xFA, 0xF3, 0xFA, 0xFD, 0xFA, 0xF7, 0x09, 0x09, 0x0B, 0x06,
  0x0D, 0xEB, 0x17, 0x0A, 0xF8, 0xFE, 0x06, 0x0A, 0xFB, 0xEF,
  0xF9, 0x07, 0x15, 0x11, 0x0C, 0x13, 0xFA, 0xCE, 0x14, 0xED,
  0x0D, 0x00, 0x0A, 0xEC, 0xF3, 0xD0, 0xEB, 0x02, 0xFD, 0xF9,
  0x0E, 0x0F, 0x05, 0xFD, 0x0B, 0x03, 0x2B, 0x17, 0xF4, 0xDC,
  0x01, 0xE4, 0x1D, 0xEE, 0xFE, 0xF6, 0x10, 0x04, 0x13, 0xFD,
  0xF7, 0xFF, 0x24, 0x07, 0x02, 0x07, 0x02, 0x01, 0x0E, 0xE4,
  0x02, 0xEB, 0x04, 0xED, 0xFC, 0x22, 0xF8, 0x00, 0x0A, 0x0D,
  0x00, 0xD8, 0xFF, 0x0C, 0x07, 0xFB, 0xF6, 0xDE, 0x00, 0xD8,
  0x11, 0x1E, 0xF4, 0xF9, 0xFF, 0xF7, 0xEC, 0x01, 0xE6, 0x14,
  0x1A, 0x05, 0x12, 0x04, 0xFE, 0xD9, 0x09, 0x0B, 0xF5, 0x07,
  0xF6, 0xED, 0x17, 0x10, 0xE3, 0x0E, 0xE9, 0x1A, 0xF7, 0x16,
  0xF4, 0xD7, 0xFC, 0x0B, 0x0F, 0x1A, 0xED, 0x1C, 0xDE, 0xF4,
  0x30, 0x01, 0x23, 0xD1, 0xF4, 0x04, 0x03, 0xF7, 0xF4, 0xFB,
  0x1E, 0x0B, 0xF4, 0xEA, 0x37, 0xEB, 0xFA, 0xF9, 0xB3, 0xF5,
  0x08, 0xFB, 0xFE, 0xF7, 0x18, 0xFF, 0xEA, 0xEC, 0x0F, 0x08,
  0xC3, 0x00, 0xD4, 0xFA, 0x28, 0x10, 0x02, 0xFE, 0x05, 0xF9,
  0xFA, 0x18, 0x28, 0x29, 0xDB, 0x21, 0xF8, 0xF8, 0x4B, 0x0A,
  0x20, 0xA8, 0xE7, 0x08, 0xFC, 0xE4, 0xF5, 0x03, 0xFE, 0xF2,
  0xFA, 0xEA, 0x40, 0xEF, 0xD8, 0x10, 0x9B, 0x1F, 0xFF, 0xFD,
  0x06, 0xEF, 0x0F, 0xF8, 0xED, 0xE0, 0x04, 0xF9, 0xC8, 0x08,
  0xF1, 0xD4, 0x46, 0x22, 0x01, 0xFC, 0x08, 0x0B, 0xF6, 0x03,
  0x05, 0xFE, 0x00, 0xFF, 0xFE, 0xFA, 0x1B, 0xF6, 0x21, 0xF0,
  0xFE, 0x00, 0xFB, 0xFF, 0x10, 0x05, 0x03, 0xF4, 0x0A, 0xFF,
  0x09, 0x0C, 0xFB, 0x00, 0xF8, 0x0E, 0xF5, 0xDD, 0x01, 0xFA,
  0x09, 0xFC, 0xEE, 0xDA, 0xF2, 0xFD, 0xFC, 0x13, 0x06, 0x06,
  0x0B, 0xF9, 0x0A, 0x16, 0xF8, 0x08, 0xFC, 0xEF, 0x00, 0x25,
  0x09, 0xFD, 0xF9, 0xD0, 0xF7, 0x0F, 0xF4, 0x05, 0x0A, 0x03,
  0x06, 0x03, 0x0D, 0xFB, 0x0E, 0xEF, 0x09, 0xFB, 0x17, 0x21,
  0x03, 0xF8, 0xF3, 0x08, 0xEF, 0xAE, 0xF9, 0x00, 0xFF, 0x08,
  0xEF, 0xF2, 0x05, 0xEA, 0xF6, 0x05, 0x06, 0xF7, 0x0C, 0xF6,
  0x07, 0x3B, 0x00, 0x01, 0xF0, 0x02, 0xFA, 0x11, 0xF8, 0x12,
  0xFC, 0xD0, 0xFE, 0x0C, 0xFD, 0x09, 0xF1, 0xF7, 0x0D, 0xFA,
  0x06, 0x06, 0x0A, 0x00, 0xFE, 0xFB, 0x0E, 0x38, 0xFD, 0xF8,
  0x00, 0xFD, 0xFA, 0xF6, 0xFF, 0x07, 0x06, 0x1B, 0x09, 0xED,
  0x11, 0x19, 0x00, 0x01, 0xFF, 0xF1, 0x16, 0xF3, 0x04, 0xF1,
  0xFF, 0xE8, 0xFB, 0x24, 0xF8, 0xFE, 0x0C, 0x02, 0xF4, 0xE8,
  0x03, 0xFF, 0x03, 0xFA, 0xF0, 0xE8, 0xFB, 0xD2, 0x10, 0x2C,
  0xE5, 0x05, 0xEE, 0xFF, 0xFE, 0x0A, 0x01, 0x21, 0xFB, 0xF5,
  0x18, 0x01, 0xE9, 0xC7, 0x07, 0x18, 0xD4, 0x07, 0xE7, 0xF7,
  0xEB, 0x28, 0xF0, 0x35, 0x02, 0x1D, 0xFD, 0xF2, 0xF8, 0xEF,
  0xF2, 0x07, 0xE7, 0xFD, 0xE9, 0xE6, 0x0C, 0x0B, 0xEC, 0x26,
  0xE1, 0x22, 0x00, 0x1D, 0xFF, 0x01, 0x02, 0xF1, 0xFF, 0xF5,
  0xFF, 0xDD, 0x1C, 0x06, 0x03, 0x08, 0xE1, 0x15, 0xFC, 0x17,
  0x04, 0x11, 0xF1, 0xF2, 0x1C, 0xEA, 0xF9, 0xF1, 0x09, 0xED,
  0xFD, 0xFA, 0xFF, 0x09, 0x02, 0xFE, 0x01, 0x18, 0x1B, 0x15,
  0x0F, 0xFE, 0x05, 0x05, 0x18, 0x12, 0xFE, 0xE0, 0xEE, 0x05,
  0xF6, 0xFA, 0xFD, 0xF3, 0x16, 0x28, 0x04, 0xF2, 0x09, 0xE6,
  0x28, 0x14, 0x19, 0xE8, 0xE2, 0xED, 0xFD, 0xE4, 0xE0, 0xC8,
  0x14, 0x1E, 0xEC, 0xD6, 0x1A, 0xEE, 0x2B, 0x09, 0x10, 0xED,
  0xD3, 0xF2, 0x0D, 0x03, 0xEC, 0xEC, 0x13, 0x14, 0xEB, 0xC4,
  0x17, 0xCA, 0x0E, 0xF3, 0x1D, 0xF5, 0x09, 0xE4, 0x07, 0x1A,
  0xDE, 0x02, 0x03, 0x11, 0xDE, 0xD6, 0x0E, 0xEC, 0x04, 0xEA,
  0x1F, 0x04, 0x0B, 0xDD, 0x05, 0x1E, 0xFC, 0x01, 0xF8, 0x08,
  0xE7, 0xEA, 0x06, 0xF4, 0xF8, 0xCE, 0x02, 0x25, 0x07, 0xE7,
  0x11, 0x15, 0xFE, 0x1B, 0xEF, 0xF3, 0xF6, 0x0F, 0x13, 0x11,
  0xEB, 0xE6, 0xEB, 0x13, 0x15, 0x0A, 0x0E, 0x14, 0x05, 0x12,
  0x08, 0x01, 0xF1, 0xF0, 0x08, 0xFD, 0x05, 0x10, 0x01, 0x03,
  0xFA, 0xF0, 0x18, 0x18, 0xEE, 0x05, 0xF6, 0xE7, 0x0A, 0x0F,
  0x11, 0x03, 0xF5, 0xD0, 0xEB, 0x17, 0xFC, 0x08, 0x04, 0x09,
  0x0A, 0x07, 0x07, 0x05, 0x05, 0x15, 0x01, 0xFC, 0x19, 0x12,
  0xF6, 0xF4, 0xEF, 0x08, 0xF1, 0xBA, 0xF9, 0xF8, 0x18, 0x07,
  0xEE, 0xDE, 0xFA, 0xE4, 0xFF, 0x19, 0x13, 0x04, 0x04, 0xDB,
  0x22, 0x3D, 0xF2, 0xFB, 0xDD, 0xF9, 0xF9, 0x3D, 0x07, 0x09,
  0x03, 0xA1, 0xFA, 0x1F, 0xFC, 0x1F, 0xF8, 0xED, 0x0C, 0x03,
  0x0E, 0x19, 0x04, 0xEE, 0xF2, 0x00, 0x06, 0x32, 0xFA, 0xDC,
  0xFB, 0xFE, 0xFE, 0xE5, 0x07, 0xEE, 0xFE, 0xFF, 0xF7, 0xFD,
  0x04, 0xF6, 0x05, 0xEC, 0x0B, 0x0E, 0xF8, 0xFB, 0x04, 0x3F,
  0xF7, 0xF1, 0xF4, 0x08, 0x01, 0xF1, 0x06, 0xF7, 0x03, 0xF5,
  0xF7, 0xF2, 0xF2, 0x05, 0x05, 0x03, 0xFE, 0x07, 0x02, 0x05,
  0xFD, 0xFA, 0xF8, 0x04, 0x01, 0x09, 0x06, 0xF7, 0xFB, 0x05,
  0x04, 0x07, 0xF7, 0x05, 0x03, 0xF6, 0xF4, 0xFC, 0x07, 0x08,
  0xF5, 0xF9, 0xF7, 0xF1, 0x06, 0xFD, 0xF6, 0xF5, 0x03, 0xF8,
  0xF6, 0xF4, 0xF9, 0x01, 0xFC, 0xF9, 0xF9, 0x06, 0xF3, 0xFC,
  0x01, 0xF3, 0x03, 0x05, 0x04, 0x03, 0xF6, 0xFE, 0x02, 0x00,
  0xFE, 0xF2, 0xF8, 0xFD, 0xFA, 0x01, 0xFF, 0x01, 0xF4, 0x05,
  0xF4, 0x00, 0xFB, 0x07, 0xF7, 0x02, 0xF4, 0x08, 0xFB, 0xF7,
  0xFB, 0x00, 0xFD, 0xF4, 0xF2, 0xFA, 0x03, 0xF7, 0x02, 0x0A,
  0x02, 0xF2, 0xF3, 0x0A, 0x07, 0x06, 0x06, 0x06, 0xF5, 0xFB,
  0x07, 0x07, 0xF4, 0x0B, 0x00, 0x1A, 0x01, 0xE8, 0xFB, 0xDF,
  0x02, 0xF7, 0xFF, 0x02, 0xFB, 0xFB, 0x04, 0xF7, 0x0A, 0xE3,
  0x09, 0xD4, 0x02, 0x0F, 0x08, 0x1F, 0xFF, 0xFD, 0xFA, 0x10,
  0xFE, 0x08, 0x0F, 0x01, 0xE4, 0x22, 0x15, 0x29, 0xF7, 0x01,
  0x0D, 0xD5, 0x01, 0xF7, 0xF3, 0x03, 0x03, 0x04, 0x06, 0xF9,
  0xEE, 0xD1, 0xFE, 0xBC, 0x04, 0x09, 0x0D, 0x36, 0x07, 0x0B,
  0x05, 0x05, 0x03, 0x06, 0x12, 0xE3, 0xDE, 0x40, 0x03, 0x31,
  0xF9, 0xF2, 0xEF, 0xC9, 0xF9, 0x04, 0xFE, 0xFB, 0x02, 0xF3,
  0xF4, 0x0C, 0x2D, 0xC7, 0xFD, 0xF6, 0x08, 0x07, 0x03, 0x33,
  0x07, 0xF7, 0xFB, 0xFE, 0xFC, 0x06, 0xF5, 0x03, 0xEF, 0x10,
  0xF7, 0x31, 0x09, 0xEF, 0x04, 0xD6, 0x00, 0xF3, 0xFC, 0xFB,
  0x07, 0xFC, 0xFB, 0x07, 0x01, 0xC7, 0xD2, 0xF4, 0xFF, 0xFF,
  0x04, 0x00, 0x00, 0x00, 0x00, 0x01, 0x00, 0x00, 0x12, 0x03,
  0x00, 0x00, 0xD1, 0x13, 0x00, 0x00, 0x6F, 0x03, 0x00, 0x00,
  0xEB, 0xFF, 0xFF, 0xFF, 0x59, 0x00, 0x00, 0x00, 0x1A, 0x05,
  0x00, 0x00, 0x9E, 0x02, 0x00, 0x00, 0x91, 0x00, 0x00, 0x00,
  0x78, 0x03, 0x00, 0x00, 0x31, 0x02, 0x00, 0x00, 0x1B, 0x06,
  0x00, 0x00, 0x07, 0x04, 0x00, 0x00, 0x51, 0x04, 0x00, 0x00,
  0x8B, 0xFD, 0xFF, 0xFF, 0x0C, 0x09, 0x00, 0x00, 0x9E, 0xFC,
  0xFF, 0xFF, 0xE9, 0xFF, 0xFF, 0xFF, 0xD1, 0xFF, 0xFF, 0xFF,
  0x75, 0xF7, 0xFF, 0xFF, 0x02, 0xFF, 0xFF, 0xFF, 0xDA, 0x03,
  0x00, 0x00, 0xCE, 0x03, 0x00, 0x00, 0x89, 0xFF, 0xFF, 0xFF,
  0x30, 0xFD, 0xFF, 0xFF, 0xAD, 0x02, 0x00, 0x00, 0x3C, 0x03,
  0x00, 0x00, 0xCF, 0xFE, 0xFF, 0xFF, 0xCE, 0xFF, 0xFF, 0xFF,
  0xA1, 0xFA, 0xFF, 0xFF, 0xE3, 0xFF, 0xFF, 0xFF, 0xCF, 0xFF,
  0xFF, 0xFF, 0x21, 0x02, 0x00, 0x00, 0xFE, 0x04, 0x00, 0x00,
  0xEB, 0x06, 0x00, 0x00, 0xEE, 0x02, 0x00, 0x00, 0xFE, 0xFF,
  0xFF, 0xFF, 0xD5, 0xFF, 0xFF, 0xFF, 0x39, 0x05, 0x00, 0x00,
  0x18, 0x01, 0x00, 0x00, 0xCF, 0xFE, 0xFF, 0xFF, 0x1A, 0x06,
  0x00, 0x00, 0xA4, 0xFC, 0xFF, 0xFF, 0x42, 0x02, 0x00, 0x00,
  0xAF, 0xFA, 0xFF, 0xFF, 0x72, 0x00, 0x00, 0x00, 0xF2, 0xFB,
  0xFF, 0xFF, 0x9C, 0x05, 0x00, 0x00, 0x73, 0x04, 0x00, 0x00,
  0xA2, 0x05, 0x00, 0x00, 0xE9, 0x03, 0x00, 0x00, 0xDA, 0x06,
  0x00, 0x00, 0x44, 0x00, 0x00, 0x00, 0xA0, 0x00, 0x00, 0x00,
  0xFC, 0x01, 0x00, 0x00, 0x41, 0x03, 0x00, 0x00, 0xC7, 0xFF,
  0xFF, 0xFF, 0xD2, 0x01, 0x00, 0x00, 0xCB, 0x08, 0x00, 0x00,
  0x14, 0x05, 0x00, 0x00, 0xE2, 0x02, 0x00, 0x00, 0x6E, 0x05,
  0x00, 0x00, 0xCA, 0xFE, 0xFF, 0xFF, 0xE6, 0xFF, 0xFF, 0xFF,
  0xDA, 0x04, 0x00, 0x00, 0xDE, 0xF5, 0xFF, 0xFF, 0x04, 0x00,
  0x00, 0x00, 0x00, 0x04, 0x00, 0x00, 0x74, 0x05, 0xFA, 0x02,
  0xFD, 0xF9, 0xF5, 0xEE, 0xFC, 0xFA, 0x6D, 0x6B, 0xFE, 0x00,
  0xFA, 0xFF, 0x01, 0x01, 0xE6, 0xFE, 0xF9, 0xFE, 0x01, 0xF5,
  0xF5, 0xF3, 0xFF, 0xFF, 0xF4, 0x00, 0x00, 0xF7, 0xEC, 0x0C,
  0xFD, 0x00, 0x00, 0x05, 0xF6, 0xFC, 0xFC, 0xFF, 0xF3, 0x02,
  0x0A, 0xF7, 0xF8, 0xF6, 0xFE, 0xF9, 0xF8, 0xF9, 0xFD, 0x01,
  0xFA, 0xFF, 0xFB, 0xF9, 0xFA, 0xF6, 0xFE, 0xF9, 0x00, 0xFF,
  0x14, 0x0C, 0x00, 0xFE, 0xF9, 0x6E, 0xF9, 0x09, 0xFA, 0xFB,
  0xF8, 0xF9, 0xF9, 0x0F, 0x0B, 0x00, 0x03, 0x01, 0xFF, 0xF9,
  0xF8, 0xFD, 0xFF, 0xFD, 0xF4, 0xF4, 0xFE, 0x02, 0xF7, 0x00,
  0xFD, 0xD8, 0x58, 0xFA, 0xFD, 0xFF, 0x02, 0xF1, 0xFA, 0xF3,
  0x07, 0xF7, 0xF3, 0xFD, 0x8B, 0x03, 0x7A, 0x0A, 0x0F, 0xF3,
  0xFF, 0xFF, 0xFB, 0xFA, 0x03, 0xFE, 0xF9, 0x06, 0xF5, 0x0A,
  0xFF, 0xFB, 0xFF, 0xF7, 0xF9, 0x09, 0xFB, 0x01, 0x01, 0xF8,
  0xF1, 0xE7, 0xF6, 0xFD, 0xFC, 0xFD, 0xFC, 0x0D, 0x0F, 0xFC,
  0xFE, 0x00, 0xE7, 0xFF, 0xF7, 0x14, 0x01, 0xFF, 0xEF, 0xE4,
  0x05, 0xFF, 0xFA, 0x01, 0x01, 0xF9, 0xF3, 0xFF, 0xFF, 0x01,
  0x03, 0x03, 0xF9, 0x01, 0xFE, 0xF0, 0xF8, 0xF5, 0xFF, 0xEE,
  0xEA, 0xFB, 0x06, 0x29, 0xFE, 0x74, 0xFC, 0xF6, 0x6D, 0x03,
  0xF8, 0xFC, 0xF5, 0xFA, 0xFB, 0xF8, 0x02, 0x7C, 0xFD, 0xFB,
  0x04, 0x01, 0x03, 0xFF, 0xF7, 0x1B, 0x04, 0x03, 0xFE, 0x02,
  0x03, 0xF4, 0x0A, 0xF9, 0x01, 0x02, 0x15, 0x00, 0x07, 0x49,
  0xFF, 0x0D, 0xE9, 0xAE, 0x05, 0x02, 0xFA, 0xFE, 0x00, 0x08,
  0xFC, 0xFB, 0xFB, 0x00, 0x01, 0xFB, 0x05, 0x03, 0x06, 0xFF,
  0x0C, 0xFF, 0x0D, 0x11, 0x01, 0x04, 0xFD, 0xE9, 0x0A, 0xDA,
  0xFE, 0x01, 0xD7, 0xFE, 0xFE, 0x08, 0xFF, 0x00, 0xFE, 0x03,
  0xFF, 0xD4, 0xFE, 0xF8, 0xFF, 0xFE, 0xFF, 0xFE, 0x30, 0xDA,
  0xFF, 0xFF, 0x01, 0xFF, 0x00, 0x30, 0xE0, 0x0E, 0x02, 0xFF,
  0xFC, 0x00, 0x01, 0x02, 0xFF, 0xE0, 0xD9, 0xE3, 0xEE, 0xFE,
  0xFC, 0xFF, 0x00, 0xF9, 0xFF, 0x02, 0x13, 0xFE, 0x00, 0x09,
  0xF9, 0xF0, 0x01, 0x13, 0xFE, 0x12, 0xFC, 0xE8, 0x03, 0xF9,
  0x07, 0x13, 0xFA, 0x05, 0x02, 0x00, 0x04, 0x00, 0x0D, 0x02,
  0x1A, 0xFA, 0x04, 0x04, 0x02, 0x0C, 0x07, 0xF9, 0x03, 0x01,
  0x05, 0xFE, 0xDF, 0x3C, 0xFE, 0x07, 0xFF, 0x05, 0xFA, 0x2A,
  0xFF, 0xFE, 0xFD, 0x03, 0xF3, 0x04, 0x05, 0xFD, 0x02, 0x2D,
  0xEA, 0xFB, 0x01, 0x01, 0xF9, 0xFD, 0x00, 0x1A, 0xF2, 0xF1,
  0xC1, 0x02, 0x03, 0xE1, 0xF2, 0x2C, 0xFE, 0x2F, 0xFE, 0xFF,
  0x07, 0x50, 0xF5, 0x04, 0x0E, 0xE4, 0x04, 0x0C, 0xFD, 0xF9,
  0x09, 0xFF, 0xE2, 0xFF, 0xCD, 0x0B, 0xF6, 0xE9, 0x01, 0x00,
  0xF4, 0x02, 0xF8, 0x02, 0xF9, 0xF9, 0xE5, 0x07, 0x00, 0x01,
  0xFE, 0xFF, 0x03, 0x15, 0xFA, 0xFB, 0x00, 0x03, 0xE0, 0xFE,
  0xF8, 0x02, 0x01, 0x18, 0xF1, 0xED, 0xFE, 0x02, 0xF7, 0x02,
  0xFD, 0xE9, 0xF2, 0x07, 0x7F, 0x00, 0x00, 0xF5, 0xF2, 0xF5,
  0xFF, 0x05, 0xF6, 0xF8, 0xF9, 0xF5, 0xFB, 0xF8, 0x11, 0x04,
  0xF5, 0xF3, 0xFB, 0xFA, 0xF6, 0x02, 0x04, 0xFC, 0x7E, 0xF4,
  0xF7, 0x7F, 0x00, 0xF8, 0xFE, 0x09, 0x69, 0x00, 0xFA, 0xFB,
  0xF5, 0xF8, 0xFD, 0xFC, 0xFC, 0xFF, 0xFF, 0x00, 0xF7, 0xFD,
  0x03, 0x00, 0xED, 0xFA, 0xFA, 0x00, 0x02, 0x05, 0xF5, 0xF5,
  0xFA, 0x02, 0xF7, 0x02, 0xFE, 0xF8, 0xF7, 0x09, 0xF8, 0xFE,
  0xFE, 0xF8, 0xF5, 0xF8, 0xF9, 0xFC, 0xFA, 0xFE, 0xFA, 0xF3,
  0xFA, 0xFE, 0x03, 0xFF, 0xFA, 0xF5, 0x70, 0xFB, 0xFA, 0xFD,
  0x02, 0xFB, 0xEF, 0xF9, 0x6E, 0xF5, 0x02, 0xF9, 0xFB, 0x08,
  0xFB, 0x00, 0xF9, 0xFD, 0xFC, 0xF2, 0x70, 0xFB, 0xFB, 0xFE,
  0xFF, 0x00, 0x01, 0xFC, 0x02, 0x01, 0xE6, 0x70, 0xF9, 0xFE,
  0x02, 0xFA, 0xF7, 0xF4, 0xFD, 0x02, 0xF3, 0x00, 0xFF, 0xEE,
  0xF5, 0x05, 0xFB, 0x02, 0xFF, 0xFE, 0xFA, 0xF2, 0x6A, 0xFA,
  0xF6, 0xFB, 0xFB, 0x00, 0xF6, 0xFB, 0xFD, 0x09, 0xF9, 0xEE,
  0xF8, 0xFA, 0xF7, 0x01, 0xFF, 0xFF, 0xFB, 0xFA, 0xFE, 0xFB,
  0x01, 0xFA, 0xF4, 0x02, 0xFF, 0x01, 0xFF, 0xFD, 0x02, 0x04,
  0xF8, 0xFE, 0xFB, 0x00, 0x00, 0x03, 0x0B, 0x0B, 0xFF, 0xFE,
  0xE3, 0xF8, 0x73, 0xFD, 0x01, 0x05, 0xF4, 0xF5, 0x06, 0xFE,
  0xE2, 0xFF, 0xFD, 0xFC, 0xED, 0xFE, 0xEA, 0x03, 0xFE, 0x42,
  0xF9, 0xFA, 0xF7, 0xF7, 0x74, 0x01, 0xFF, 0xEA, 0xF9, 0xFC,
  0x54, 0xFC, 0x07, 0xF0, 0xFB, 0xFB, 0xF2, 0x00, 0xF1, 0x01,
  0x00, 0xF8, 0xFA, 0xFC, 0x00, 0xFE, 0x09, 0xE6, 0x02, 0xFF,
  0xFA, 0x00, 0x02, 0x00, 0xFE, 0x04, 0x00, 0x04, 0xFF, 0xF5,
  0x13, 0x3E, 0xFF, 0xFF, 0x02, 0xFB, 0xD1, 0xFB, 0x02, 0x06,
  0xF5, 0xFF, 0x1E, 0x01, 0xDC, 0x00, 0xFF, 0x08, 0xFD, 0xF4,
  0x0D, 0xFE, 0xFE, 0xDA, 0x03, 0xF9, 0x00, 0xFF, 0xCF, 0x11,
  0xFC, 0x0B, 0x00, 0x06, 0xD6, 0xF7, 0x0B, 0x05, 0x03, 0x02,
  0xFF, 0x02, 0x06, 0x14, 0x09, 0x04, 0x02, 0x04, 0x02, 0x03,
  0x01, 0x04, 0x01, 0xFD, 0x03, 0x03, 0xFE, 0x06, 0xFC, 0xFF,
  0xFE, 0x00, 0x03, 0x0F, 0xD5, 0xFD, 0x00, 0xFE, 0x0E, 0x03,
  0x0B, 0x02, 0x02, 0xF8, 0xFC, 0xF0, 0x33, 0x00, 0xFD, 0xFE,
  0x01, 0xF5, 0x01, 0x1B, 0xFD, 0x01, 0x01, 0xFB, 0xF5, 0x04,
  0x00, 0x02, 0x0E, 0xCD, 0xFC, 0x07, 0xFA, 0xFF, 0x1C, 0x1B,
  0xD5, 0xF5, 0x01, 0xFF, 0xFF, 0xFF, 0x00, 0xDB, 0xFC, 0x01,
  0x01, 0x05, 0xFD, 0x05, 0x00, 0x2E, 0xFF, 0xFE, 0xED, 0xF8,
  0x0E, 0xFE, 0x00, 0x00, 0xFE, 0x01, 0x02, 0xF1, 0x08, 0x04,
  0x00, 0x03, 0xFC, 0xFC, 0xFF, 0xFF, 0x00, 0xF7, 0xF0, 0xFA,
  0x0C, 0x03, 0xF0, 0x03, 0x01, 0x20, 0xE6, 0xE1, 0x08, 0xFD,
  0xFD, 0x0D, 0x00, 0xF2, 0x01, 0x18, 0xF9, 0xED, 0xF4, 0xEF,
  0xFF, 0xFA, 0xF5, 0xBC, 0x6D, 0x15, 0xFE, 0xFE, 0x00, 0xFE,
  0x05, 0x65, 0x01, 0xFE, 0x03, 0xFB, 0xFE, 0xFB, 0xF3, 0x0B,
  0xFE, 0xFE, 0x71, 0xF6, 0x08, 0xEF, 0xF9, 0xFC, 0xFF, 0x02,
  0x01, 0xF1, 0x09, 0xFA, 0xFF, 0xFE, 0xDA, 0xFE, 0xFD, 0x02,
  0xFE, 0x01, 0xF1, 0xF3, 0x03, 0xFE, 0xF0, 0x01, 0x00, 0x66,
  0x65, 0x00, 0xF4, 0xFF, 0x01, 0x07, 0xFD, 0xE6, 0xFD, 0x0D,
  0xEB, 0xF1, 0x3C, 0xE3, 0x05, 0xF7, 0xED, 0x54, 0xFB, 0xC4,
  0xF8, 0xF8, 0xF6, 0x01, 0x14, 0xF8, 0xF5, 0xE5, 0xFA, 0xFA,
  0x02, 0xF9, 0xF9, 0x00, 0xFD, 0x00, 0xED, 0xF8, 0x00, 0xF0,
  0xF9, 0xF2, 0xFE, 0xFC, 0xFC, 0x03, 0x03, 0xFA, 0x01, 0x01,
  0xDF, 0xF9, 0x01, 0x01, 0xFE, 0xF0, 0xF5, 0xF1, 0xFE, 0x02,
  0xF4, 0xFE, 0x00, 0xEE, 0x05, 0x12, 0x03, 0xFD, 0xFF, 0x22,
  0xF6, 0x49, 0xFB, 0xFB, 0xF9, 0xF2, 0xFE, 0xF5, 0xF7, 0xF9,
  0xE3, 0xFA, 0xF7, 0xFD, 0xF9, 0x7A, 0xFA, 0xFE, 0x59, 0xFE,
  0xFF, 0x76, 0xFF, 0xF5, 0x02, 0xF7, 0xF9, 0x06, 0xFB, 0x00,
  0xFE, 0xF9, 0xFB, 0xEF, 0xFC, 0x6E, 0xFB, 0xFE, 0x76, 0x00,
  0x00, 0xF8, 0x03, 0xFE, 0xEB, 0xFC, 0xFA, 0x03, 0x00, 0xF4,
  0xF7, 0xF5, 0xFE, 0x00, 0xF2, 0x00, 0x00, 0xF1, 0xF4, 0x0A,
  0xFF, 0xFF, 0x01, 0x03, 0xFB, 0xF3, 0xFF, 0x00, 0xF3, 0xFA,
  0xFB, 0xFB, 0xFA, 0x6E, 0xF7, 0x01, 0xF5, 0xF9, 0xFB, 0xFA,
  0xFD, 0xFF, 0x01, 0xF4, 0xF7, 0xF6, 0xFD, 0xF7, 0x00, 0xFA,
  0xEA, 0xF9, 0xFF, 0xFF, 0x04, 0x00, 0x00, 0x00, 0x40, 0x00,
  0x00, 0x00, 0x04, 0x01, 0x00, 0x00, 0xC2, 0x00, 0x00, 0x00,
  0x4B, 0x00, 0x00, 0x00, 0x04, 0x00, 0x00, 0x00, 0x6D, 0xFD,
  0xFF, 0xFF, 0xD1, 0xFE, 0xFF, 0xFF, 0xD9, 0xFF, 0xFF, 0xFF,
  0x1B, 0x01, 0x00, 0x00, 0x7D, 0x01, 0x00, 0x00, 0x90, 0x01,
  0x00, 0x00, 0xBA, 0xFE, 0xFF, 0xFF, 0x42, 0x00, 0x00, 0x00,
  0x71, 0x04, 0x00, 0x00, 0xE6, 0x00, 0x00, 0x00, 0x70, 0x00,
  0x00, 0x00, 0xB7, 0xFF, 0xFF, 0xFF, 0x36, 0xFA, 0xFF, 0xFF,
  0x04, 0x00, 0x00, 0x00, 0x08, 0x00, 0x00, 0x00, 0xFF, 0xFF,
  0xFF, 0xFF, 0x70, 0x00, 0x00, 0x00, 0x4A, 0xFA, 0xFF, 0xFF,
  0x04, 0x00, 0x00, 0x00, 0x0C, 0x00, 0x00, 0x00, 0x00, 0x00,
  0x00, 0x00, 0x80, 0x00, 0x00, 0x00, 0x00, 0x00, 0x00, 0x00,
  0x62, 0xFA, 0xFF, 0xFF, 0x04, 0x00, 0x00, 0x00, 0x04, 0x00,
  0x00, 0x00, 0x02, 0x00, 0x00, 0x00, 0x72, 0xFA, 0xFF, 0xFF,
  0x04, 0x00, 0x00, 0x00, 0x04, 0x00, 0x00, 0x00, 0x40, 0x00,
  0x00, 0x00, 0x04, 0xDE, 0xFF, 0xFF, 0x86, 0xFA, 0xFF, 0xFF,
  0x04, 0x00, 0x00, 0x00, 0x04, 0x00, 0x00, 0x00, 0x01, 0x00,
  0x00, 0x00, 0x96, 0xFA, 0xFF, 0xFF, 0x04, 0x00, 0x00, 0x00,
  0x04, 0x00, 0x00, 0x00, 0x00, 0x00, 0x00, 0x00, 0xA6, 0xFA,
  0xFF, 0xFF, 0x04, 0x00, 0x00, 0x00, 0x0C, 0x00, 0x00, 0x00,
  0x01, 0x00, 0x00, 0x00, 0x01, 0x00, 0x00, 0x00, 0x01, 0x00,
  0x00, 0x00, 0xBE, 0xFA, 0xFF, 0xFF, 0x04, 0x00, 0x00, 0x00,
  0x0C, 0x00, 0x00, 0x00, 0x00, 0x00, 0x00, 0x00, 0x40, 0x00,
  0x00, 0x00, 0x00, 0x00, 0x00, 0x00, 0xD6, 0xFA, 0xFF, 0xFF,
  0x04, 0x00, 0x00, 0x00, 0x0C, 0x00, 0x00, 0x00, 0x00, 0x00,
  0x00, 0x00, 0x00, 0x00, 0x00, 0x00, 0x00, 0x00, 0x00, 0x00,
  0x70, 0xDE, 0xFF, 0xFF, 0x74, 0xDE, 0xFF, 0xFF, 0x0F, 0x00,
  0x00, 0x00, 0x4D, 0x4C, 0x49, 0x52, 0x20, 0x43, 0x6F, 0x6E,
  0x76, 0x65, 0x72, 0x74, 0x65, 0x64, 0x2E, 0x00, 0x01, 0x00,
  0x00, 0x00, 0x14, 0x00, 0x00, 0x00, 0x00, 0x00, 0x0E, 0x00,
  0x18, 0x00, 0x14, 0x00, 0x10, 0x00, 0x0C, 0x00, 0x08, 0x00,
  0x04, 0x00, 0x0E, 0x00, 0x00, 0x00, 0x14, 0x00, 0x00, 0x00,
  0x1C, 0x00, 0x00, 0x00, 0xE0, 0x05, 0x00, 0x00, 0xE4, 0x05,
  0x00, 0x00, 0xE8, 0x05, 0x00, 0x00, 0x04, 0x00, 0x00, 0x00,
  0x6D, 0x61, 0x69, 0x6E, 0x00, 0x00, 0x00, 0x00, 0x17, 0x00,
  0x00, 0x00, 0x80, 0x05, 0x00, 0x00, 0x34, 0x05, 0x00, 0x00,
  0xD8, 0x04, 0x00, 0x00, 0x90, 0x04, 0x00, 0x00, 0x68, 0x04,
  0x00, 0x00, 0x1C, 0x04, 0x00, 0x00, 0xE8, 0x03, 0x00, 0x00,
  0xAC, 0x03, 0x00, 0x00, 0x6C, 0x03, 0x00, 0x00, 0x44, 0x03,
  0x00, 0x00, 0xF0, 0x02, 0x00, 0x00, 0x9C, 0x02, 0x00, 0x00,
  0x54, 0x02, 0x00, 0x00, 0x10, 0x02, 0x00, 0x00, 0xC8, 0x01,
  0x00, 0x00, 0x84, 0x01, 0x00, 0x00, 0x3C, 0x01, 0x00, 0x00,
  0xF8, 0x00, 0x00, 0x00, 0xC4, 0x00, 0x00, 0x00, 0x9C, 0x00,
  0x00, 0x00, 0x60, 0x00, 0x00, 0x00, 0x28, 0x00, 0x00, 0x00,
  0x04, 0x00, 0x00, 0x00, 0xEE, 0xFB, 0xFF, 0xFF, 0x0C, 0x00,
  0x00, 0x00, 0x10, 0x00, 0x00, 0x00, 0x08, 0x00, 0x00, 0x00,
  0x01, 0x00, 0x00, 0x00, 0x2D, 0x00, 0x00, 0x00, 0x01, 0x00,
  0x00, 0x00, 0x2C, 0x00, 0x00, 0x00, 0x52, 0xFB, 0xFF, 0xFF,
  0x14, 0x00, 0x00, 0x00, 0x00, 0x00, 0x00, 0x08, 0x10, 0x00,
  0x00, 0x00, 0x14, 0x00, 0x00, 0x00, 0x07, 0x00, 0x00, 0x00,
  0x60, 0xDF, 0xFF, 0xFF, 0x01, 0x00, 0x00, 0x00, 0x2C, 0x00,
  0x00, 0x00, 0x03, 0x00, 0x00, 0x00, 0x2B, 0x00, 0x00, 0x00,
  0x0C, 0x00, 0x00, 0x00, 0x0B, 0x00, 0x00, 0x00, 0x86, 0xFB,
  0xFF, 0xFF, 0x14, 0x00, 0x00, 0x00, 0x00, 0x00, 0x00, 0x08,
  0x14, 0x00, 0x00, 0x00, 0x18, 0x00, 0x00, 0x00, 0x07, 0x00,
  0x00, 0x00, 0x76, 0xFB, 0xFF, 0xFF, 0x00, 0x00, 0x00, 0x03,
  0x01, 0x00, 0x00, 0x00, 0x2B, 0x00, 0x00, 0x00, 0x03, 0x00,
  0x00, 0x00, 0x2A, 0x00, 0x00, 0x00, 0x0E, 0x00, 0x00, 0x00,
  0x0D, 0x00, 0x00, 0x00, 0x7A, 0xFC, 0xFF, 0xFF, 0x0C, 0x00,
  0x00, 0x00, 0x10, 0x00, 0x00, 0x00, 0x03, 0x00, 0x00, 0x00,
  0x01, 0x00, 0x00, 0x00, 0x2A, 0x00, 0x00, 0x00, 0x02, 0x00,
  0x00, 0x00, 0x29, 0x00, 0x00, 0x00, 0x0A, 0x00, 0x00, 0x00,
  0xE2, 0xFB, 0xFF, 0xFF, 0x14, 0x00, 0x00, 0x00, 0x00, 0x00,
  0x00, 0x0B, 0x10, 0x00, 0x00, 0x00, 0x14, 0x00, 0x00, 0x00,
  0x06, 0x00, 0x00, 0x00, 0xF0, 0xDF, 0xFF, 0xFF, 0x01, 0x00,
  0x00, 0x00, 0x29, 0x00, 0x00, 0x00, 0x02, 0x00, 0x00, 0x00,
  0x24, 0x00, 0x00, 0x00, 0x28, 0x00, 0x00, 0x00, 0x12, 0xFC,
  0xFF, 0xFF, 0x14, 0x00, 0x00, 0x00, 0x00, 0x00, 0x00, 0x05,
  0x24, 0x00, 0x00, 0x00, 0x28, 0x00, 0x00, 0x00, 0x05, 0x00,
  0x00, 0x00, 0x72, 0xFE, 0xFF, 0xFF, 0x01, 0x00, 0x00, 0x00,
  0x02, 0x00, 0x00, 0x00, 0x01, 0x00, 0x00, 0x00, 0x02, 0x00,
  0x00, 0x00, 0x00, 0x00, 0x00, 0x01, 0x01, 0x00, 0x00, 0x00,
  0x28, 0x00, 0x00, 0x00, 0x01, 0x00, 0x00, 0x00, 0x27, 0x00,
  0x00, 0x00, 0x52, 0xFC, 0xFF, 0xFF, 0x14, 0x00, 0x00, 0x00,
  0x00, 0x00, 0x00, 0x01, 0x20, 0x00, 0x00, 0x00, 0x24, 0x00,
  0x00, 0x00, 0x04, 0x00, 0x00, 0x00, 0x64, 0xFE, 0xFF, 0xFF,
  0x00, 0x00, 0x00, 0x03, 0x01, 0x00, 0x00, 0x00, 0x02, 0x00,
  0x00, 0x00, 0x00, 0x00, 0x00, 0x01, 0x01, 0x00, 0x00, 0x00,
  0x27, 0x00, 0x00, 0x00, 0x03, 0x00, 0x00, 0x00, 0x26, 0x00,
  0x00, 0x00, 0x10, 0x00, 0x00, 0x00, 0x0F, 0x00, 0x00, 0x00,
  0x96, 0xFC, 0xFF, 0xFF, 0x14, 0x00, 0x00, 0x00, 0x00, 0x00,
  0x00, 0x05, 0x24, 0x00, 0x00, 0x00, 0x28, 0x00, 0x00, 0x00,
  0x05, 0x00, 0x00, 0x00, 0xF6, 0xFE, 0xFF, 0xFF, 0x01, 0x00,
  0x00, 0x00, 0x02, 0x00, 0x00, 0x00, 0x01, 0x00, 0x00, 0x00,
  0x02, 0x00, 0x00, 0x00, 0x00, 0x00, 0x00, 0x01, 0x01, 0x00,
  0x00, 0x00, 0x26, 0x00, 0x00, 0x00, 0x01, 0x00, 0x00, 0x00,
  0x25, 0x00, 0x00, 0x00, 0xD6, 0xFC, 0xFF, 0xFF, 0x14, 0x00,
  0x00, 0x00, 0x00, 0x00, 0x00, 0x01, 0x20, 0x00, 0x00, 0x00,
  0x24, 0x00, 0x00, 0x00, 0x04, 0x00, 0x00, 0x00, 0xE8, 0xFE,
  0xFF, 0xFF, 0x00, 0x00, 0x00, 0x03, 0x01, 0x00, 0x00, 0x00,
  0x01, 0x00, 0x00, 0x00, 0x00, 0x00, 0x00, 0x01, 0x01, 0x00,
  0x00, 0x00, 0x25, 0x00, 0x00, 0x00, 0x03, 0x00, 0x00, 0x00,
  0x20, 0x00, 0x00, 0x00, 0x12, 0x00, 0x00, 0x00, 0x11, 0x00,
  0x00, 0x00, 0x1A, 0xFD, 0xFF, 0xFF, 0x14, 0x00, 0x00, 0x00,
  0x00, 0x00, 0x00, 0x05, 0x24, 0x00, 0x00, 0x00, 0x28, 0x00,
  0x00, 0x00, 0x05, 0x00, 0x00, 0x00, 0x7A, 0xFF, 0xFF, 0xFF,
  0x01, 0x00, 0x00, 0x00, 0x02, 0x00, 0x00, 0x00, 0x01, 0x00,
  0x00, 0x00, 0x02, 0x00, 0x00, 0x00, 0x00, 0x00, 0x00, 0x01,
  0x01, 0x00, 0x00, 0x00, 0x24, 0x00, 0x00, 0x00, 0x01, 0x00,
  0x00, 0x00, 0x23, 0x00, 0x00, 0x00, 0x5A, 0xFD, 0xFF, 0xFF,
  0x14, 0x00, 0x00, 0x00, 0x00, 0x00, 0x00, 0x01, 0x20, 0x00,
  0x00, 0x00, 0x24, 0x00, 0x00, 0x00, 0x04, 0x00, 0x00, 0x00,
  0x6C, 0xFF, 0xFF, 0xFF, 0x00, 0x00, 0x00, 0x03, 0x01, 0x00,
  0x00, 0x00, 0x02, 0x00, 0x00, 0x00, 0x00, 0x00, 0x00, 0x01,
  0x01, 0x00, 0x00, 0x00, 0x23, 0x00, 0x00, 0x00, 0x03, 0x00,
  0x00, 0x00, 0x22, 0x00, 0x00, 0x00, 0x14, 0x00, 0x00, 0x00,
  0x13, 0x00, 0x00, 0x00, 0x9E, 0xFD, 0xFF, 0xFF, 0x24, 0x00,
  0x00, 0x00, 0x00, 0x00, 0x00, 0x05, 0x34, 0x00, 0x00, 0x00,
  0x38, 0x00, 0x00, 0x00, 0x05, 0x00, 0x00, 0x00, 0x00, 0x00,
  0x0E, 0x00, 0x18, 0x00, 0x17, 0x00, 0x10, 0x00, 0x0C, 0x00,
  0x08, 0x00, 0x04, 0x00, 0x0E, 0x00, 0x00, 0x00, 0x01, 0x00,
  0x00, 0x00, 0x02, 0x00, 0x00, 0x00, 0x01, 0x00, 0x00, 0x00,
  0x02, 0x00, 0x00, 0x00, 0x00, 0x00, 0x00, 0x01, 0x01, 0x00,
  0x00, 0x00, 0x22, 0x00, 0x00, 0x00, 0x01, 0x00, 0x00, 0x00,
  0x21, 0x00, 0x00, 0x00, 0xEE, 0xFD, 0xFF, 0xFF, 0x20, 0x00,
  0x00, 0x00, 0x00, 0x00, 0x00, 0x01, 0x2C, 0x00, 0x00, 0x00,
  0x30, 0x00, 0x00, 0x00, 0x04, 0x00, 0x00, 0x00, 0x0C, 0x00,
  0x14, 0x00, 0x13, 0x00, 0x0C, 0x00, 0x08, 0x00, 0x07, 0x00,
  0x0C, 0x00, 0x00, 0x00, 0x00, 0x00, 0x00, 0x03, 0x01, 0x00,
  0x00, 0x00, 0x01, 0x00, 0x00, 0x00, 0x00, 0x00, 0x00, 0x01,
  0x01, 0x00, 0x00, 0x00, 0x21, 0x00, 0x00, 0x00, 0x03, 0x00,
  0x00, 0x00, 0x1B, 0x00, 0x00, 0x00, 0x16, 0x00, 0x00, 0x00,
  0x15, 0x00, 0x00, 0x00, 0xFA, 0xFE, 0xFF, 0xFF, 0x0C, 0x00,
  0x00, 0x00, 0x10, 0x00, 0x00, 0x00, 0x03, 0x00, 0x00, 0x00,
  0x01, 0x00, 0x00, 0x00, 0x20, 0x00, 0x00, 0x00, 0x02, 0x00,
  0x00, 0x00, 0x1C, 0x00, 0x00, 0x00, 0x1F, 0x00, 0x00, 0x00,
  0x62, 0xFE, 0xFF, 0xFF, 0x14, 0x00, 0x00, 0x00, 0x00, 0x00,
  0x00, 0x3B, 0x14, 0x00, 0x00, 0x00, 0x18, 0x00, 0x00, 0x00,
  0x02, 0x00, 0x00, 0x00, 0xEE, 0xFE, 0xFF, 0xFF, 0x04, 0x00,
  0x00, 0x00, 0x01, 0x00, 0x00, 0x00, 0x1F, 0x00, 0x00, 0x00,
  0x04, 0x00, 0x00, 0x00, 0x1E, 0x00, 0x00, 0x00, 0x06, 0x00,
  0x00, 0x00, 0x07, 0x00, 0x00, 0x00, 0x08, 0x00, 0x00, 0x00,
  0x56, 0xFE, 0xFF, 0xFF, 0x10, 0x00, 0x00, 0x00, 0x00, 0x00,
  0x00, 0x20, 0x10, 0x00, 0x00, 0x00, 0x14, 0x00, 0x00, 0x00,
  0xE6, 0xFE, 0xFF, 0xFF, 0x01, 0x00, 0x00, 0x00, 0x01, 0x00,
  0x00, 0x00, 0x1E, 0x00, 0x00, 0x00, 0x04, 0x00, 0x00, 0x00,
  0x1D, 0x00, 0x00, 0x00, 0x04, 0x00, 0x00, 0x00, 0x05, 0x00,
  0x00, 0x00, 0x05, 0x00, 0x00, 0x00, 0xD6, 0xFE, 0xFF, 0xFF,
  0x14, 0x00, 0x00, 0x00, 0x00, 0x00, 0x00, 0x37, 0x14, 0x00,
  0x00, 0x00, 0x18, 0x00, 0x00, 0x00, 0x01, 0x00, 0x00, 0x00,
  0xC6, 0xFE, 0xFF, 0xFF, 0x00, 0x00, 0x00, 0x02, 0x01, 0x00,
  0x00, 0x00, 0x1D, 0x00, 0x00, 0x00, 0x01, 0x00, 0x00, 0x00,
  0x1C, 0x00, 0x00, 0x00, 0xBE, 0xFE, 0xFF, 0xFF, 0x10, 0x00,
  0x00, 0x00, 0x00, 0x00, 0x00, 0x20, 0x14, 0x00, 0x00, 0x00,
  0x18, 0x00, 0x00, 0x00, 0xB0, 0xFE, 0xFF, 0xFF, 0x05, 0x00,
  0x00, 0x00, 0x05, 0x00, 0x00, 0x00, 0x01, 0x00, 0x00, 0x00,
  0x1C, 0x00, 0x00, 0x00, 0x04, 0x00, 0x00, 0x00, 0x00, 0x00,
  0x00, 0x00, 0x02, 0x00, 0x00, 0x00, 0x09, 0x00, 0x00, 0x00,
  0x03, 0x00, 0x00, 0x00, 0x00, 0x00, 0x0A, 0x00, 0x10, 0x00,
  0x0C, 0x00, 0x08, 0x00, 0x04, 0x00, 0x0A, 0x00, 0x00, 0x00,
  0x0C, 0x00, 0x00, 0x00, 0x10, 0x00, 0x00, 0x00, 0x03, 0x00,
  0x00, 0x00, 0x01, 0x00, 0x00, 0x00, 0x1B, 0x00, 0x00, 0x00,
  0x02, 0x00, 0x00, 0x00, 0x17, 0x00, 0x00, 0x00, 0x1A, 0x00,
  0x00, 0x00, 0x72, 0xFF, 0xFF, 0xFF, 0x1C, 0x00, 0x00, 0x00,
  0x00, 0x00, 0x00, 0x3B, 0x1C, 0x00, 0x00, 0x00, 0x20, 0x00,
  0x00, 0x00, 0x02, 0x00, 0x00, 0x00, 0x00, 0x00, 0x06, 0x00,
  0x08, 0x00, 0x04, 0x00, 0x06, 0x00, 0x00, 0x00, 0x04, 0x00,
  0x00, 0x00, 0x01, 0x00, 0x00, 0x00, 0x1A, 0x00, 0x00, 0x00,
  0x04, 0x00, 0x00, 0x00, 0x19, 0x00, 0x00, 0x00, 0x06, 0x00,
  0x00, 0x00, 0x07, 0x00, 0x00, 0x00, 0x08, 0x00, 0x00, 0x00,
  0x6E, 0xFF, 0xFF, 0xFF, 0x20, 0x00, 0x00, 0x00, 0x00, 0x00,
  0x00, 0x20, 0x20, 0x00, 0x00, 0x00, 0x24, 0x00, 0x00, 0x00,
  0x00, 0x00, 0x0E, 0x00, 0x08, 0x00, 0x00, 0x00, 0x00, 0x00,
  0x00, 0x00, 0x00, 0x00, 0x04, 0x00, 0x0E, 0x00, 0x00, 0x00,
  0x01, 0x00, 0x00, 0x00, 0x01, 0x00, 0x00, 0x00, 0x19, 0x00,
  0x00, 0x00, 0x04, 0x00, 0x00, 0x00, 0x18, 0x00, 0x00, 0x00,
  0x04, 0x00, 0x00, 0x00, 0x05, 0x00, 0x00, 0x00, 0x05, 0x00,
  0x00, 0x00, 0x00, 0x00, 0x0E, 0x00, 0x1A, 0x00, 0x14, 0x00,
  0x10, 0x00, 0x0C, 0x00, 0x0B, 0x00, 0x04, 0x00, 0x0E, 0x00,
  0x00, 0x00, 0x1C, 0x00, 0x00, 0x00, 0x00, 0x00, 0x00, 0x37,
  0x1C, 0x00, 0x00, 0x00, 0x20, 0x00, 0x00, 0x00, 0x01, 0x00,
  0x00, 0x00, 0x00, 0x00, 0x06, 0x00, 0x08, 0x00, 0x07, 0x00,
  0x06, 0x00, 0x00, 0x00, 0x00, 0x00, 0x00, 0x02, 0x01, 0x00,
  0x00, 0x00, 0x18, 0x00, 0x00, 0x00, 0x01, 0x00, 0x00, 0x00,
  0x17, 0x00, 0x00, 0x00, 0x00, 0x00, 0x0E, 0x00, 0x14, 0x00,
  0x00, 0x00, 0x10, 0x00, 0x0C, 0x00, 0x0B, 0x00, 0x04, 0x00,
  0x0E, 0x00, 0x00, 0x00, 0x18, 0x00, 0x00, 0x00, 0x00, 0x00,
  0x00, 0x20, 0x1C, 0x00, 0x00, 0x00, 0x20, 0x00, 0x00, 0x00,
  0x08, 0x00, 0x0C, 0x00, 0x08, 0x00, 0x04, 0x00, 0x08, 0x00,
  0x00, 0x00, 0x05, 0x00, 0x00, 0x00, 0x05, 0x00, 0x00, 0x00,
  0x01, 0x00, 0x00, 0x00, 0x17, 0x00, 0x00, 0x00, 0x04, 0x00,
  0x00, 0x00, 0x00, 0x00, 0x00, 0x00, 0x01, 0x00, 0x00, 0x00,
  0x02, 0x00, 0x00, 0x00, 0x03, 0x00, 0x00, 0x00, 0x01, 0x00,
  0x00, 0x00, 0x2D, 0x00, 0x00, 0x00, 0x01, 0x00, 0x00, 0x00,
  0x00, 0x00, 0x00, 0x00, 0x2E, 0x00, 0x00, 0x00, 0xB0, 0x1B,
  0x00, 0x00, 0x3C, 0x1B, 0x00, 0x00, 0xCC, 0x1A, 0x00, 0x00,
  0x74, 0x1A, 0x00, 0x00, 0x14, 0x1A, 0x00, 0x00, 0xB4, 0x19,
  0x00, 0x00, 0x5C, 0x19, 0x00, 0x00, 0x04, 0x19, 0x00, 0x00,
  0xAC, 0x18, 0x00, 0x00, 0x54, 0x18, 0x00, 0x00, 0x04, 0x18,
  0x00, 0x00, 0x8C, 0x17, 0x00, 0x00, 0x20, 0x17, 0x00, 0x00,
  0xA4, 0x16, 0x00, 0x00, 0x38, 0x16, 0x00, 0x00, 0x04, 0x15,
  0x00, 0x00, 0xD0, 0x13, 0x00, 0x00, 0xFC, 0x12, 0x00, 0x00,
  0x28, 0x12, 0x00, 0x00, 0xF4, 0x10, 0x00, 0x00, 0xC0, 0x0F,
  0x00, 0x00, 0xEC, 0x0E, 0x00, 0x00, 0x18, 0x0E, 0x00, 0x00,
  0x90, 0x0D, 0x00, 0x00, 0x40, 0x0D, 0x00, 0x00, 0xEC, 0x0C,
  0x00, 0x00, 0x94, 0x0C, 0x00, 0x00, 0xFC, 0x0B, 0x00, 0x00,
  0x74, 0x0B, 0x00, 0x00, 0x24, 0x0B, 0x00, 0x00, 0xD0, 0x0A,
  0x00, 0x00, 0x78, 0x0A, 0x00, 0x00, 0xE0, 0x09, 0x00, 0x00,
  0xAC, 0x08, 0x00, 0x00, 0x10, 0x08, 0x00, 0x00, 0xDC, 0x06,
  0x00, 0x00, 0x40, 0x06, 0x00, 0x00, 0x2C, 0x05, 0x00, 0x00,
  0x90, 0x04, 0x00, 0x00, 0x7C, 0x03, 0x00, 0x00, 0xE0, 0x02,
  0x00, 0x00, 0x4C, 0x02, 0x00, 0x00, 0xC8, 0x01, 0x00, 0x00,
  0x14, 0x01, 0x00, 0x00, 0x80, 0x00, 0x00, 0x00, 0x04, 0x00,
  0x00, 0x00, 0x1E, 0xE5, 0xFF, 0xFF, 0x00, 0x00, 0x00, 0x01,
  0x18, 0x00, 0x00, 0x00, 0x20, 0x00, 0x00, 0x00, 0x3C, 0x00,
  0x00, 0x00, 0x2E, 0x00, 0x00, 0x00, 0x00, 0x00, 0x00, 0x09,
  0x50, 0x00, 0x00, 0x00, 0x02, 0x00, 0x00, 0x00, 0xFF, 0xFF,
  0xFF, 0xFF, 0x10, 0x00, 0x00, 0x00, 0x04, 0xE5, 0xFF, 0xFF,
  0x08, 0x00, 0x00, 0x00, 0x10, 0x00, 0x00, 0x00, 0x01, 0x00,
  0x00, 0x00, 0x80, 0xFF, 0xFF, 0xFF, 0xFF, 0xFF, 0xFF, 0xFF,
  0x01, 0x00, 0x00, 0x00, 0x00, 0x00, 0x80, 0x3B, 0x19, 0x00,
  0x00, 0x00, 0x53, 0x74, 0x61, 0x74, 0x65, 0x66, 0x75, 0x6C,
  0x50, 0x61, 0x72, 0x74, 0x69, 0x74, 0x69, 0x6F, 0x6E, 0x65,
  0x64, 0x43, 0x61, 0x6C, 0x6C, 0x3A, 0x30, 0x00, 0x00, 0x00,
  0x02, 0x00, 0x00, 0x00, 0x01, 0x00, 0x00, 0x00, 0x10, 0x00,
  0x00, 0x00, 0x96, 0xE5, 0xFF, 0xFF, 0x00, 0x00, 0x00, 0x01,
  0x18, 0x00, 0x00, 0x00, 0x20, 0x00, 0x00, 0x00, 0x3C, 0x00,
  0x00, 0x00, 0x2D, 0x00, 0x00, 0x00, 0x00, 0x00, 0x00, 0x09,
  0x68, 0x00, 0x00, 0x00, 0x02, 0x00, 0x00, 0x00, 0xFF, 0xFF,
  0xFF, 0xFF, 0x10, 0x00, 0x00, 0x00, 0x7C, 0xE5, 0xFF, 0xFF,
  0x08, 0x00, 0x00, 0x00, 0x10, 0x00, 0x00, 0x00, 0x01, 0x00,
  0x00, 0x00, 0xEA, 0xFF, 0xFF, 0xFF, 0xFF, 0xFF, 0xFF, 0xFF,
  0x01, 0x00, 0x00, 0x00, 0xA7, 0x18, 0x33, 0x3F, 0x32, 0x00,
  0x00, 0x00, 0x50, 0x61, 0x72, 0x61, 0x6C, 0x6C, 0x65, 0x6C,
  0x43, 0x4E, 0x4E, 0x5F, 0x32, 0x44, 0x2F, 0x46, 0x32, 0x2F,
  0x4D, 0x61, 0x74, 0x4D, 0x75, 0x6C, 0x3B, 0x50, 0x61, 0x72,
  0x61, 0x6C, 0x6C, 0x65, 0x6C, 0x43, 0x4E, 0x4E, 0x5F, 0x32,
  0x44, 0x2F, 0x46, 0x32, 0x2F, 0x42, 0x69, 0x61, 0x73, 0x41,
  0x64, 0x64, 0x00, 0x00, 0x02, 0x00, 0x00, 0x00, 0x01, 0x00,
  0x00, 0x00, 0x10, 0x00, 0x00, 0x00, 0x26, 0xE6, 0xFF, 0xFF,
  0x00, 0x00, 0x00, 0x01, 0x18, 0x00, 0x00, 0x00, 0x20, 0x00,
  0x00, 0x00, 0x40, 0x00, 0x00, 0x00, 0x2C, 0x00, 0x00, 0x00,
  0x00, 0x00, 0x00, 0x09, 0x88, 0x00, 0x00, 0x00, 0x02, 0x00,
  0x00, 0x00, 0xFF, 0xFF, 0xFF, 0xFF, 0x40, 0x00, 0x00, 0x00,
  0x0C, 0xE6, 0xFF, 0xFF, 0x08, 0x00, 0x00, 0x00, 0x14, 0x00,
  0x00, 0x00, 0x01, 0x00, 0x00, 0x00, 0x80, 0xFF, 0xFF, 0xFF,
  0xFF, 0xFF, 0xFF, 0xFF, 0x00, 0x00, 0x00, 0x00, 0x01, 0x00,
  0x00, 0x00, 0xC1, 0xC0, 0xC0, 0x3C, 0x4F, 0x00, 0x00, 0x00,
  0x50, 0x61, 0x72, 0x61, 0x6C, 0x6C, 0x65, 0x6C, 0x43, 0x4E,
  0x4E, 0x5F, 0x32, 0x44, 0x2F, 0x46, 0x31, 0x2F, 0x4D, 0x61,
  0x74, 0x4D, 0x75, 0x6C, 0x3B, 0x50, 0x61, 0x72, 0x61, 0x6C,
  0x6C, 0x65, 0x6C, 0x43, 0x4E, 0x4E, 0x5F, 0x32, 0x44, 0x2F,
  0x46, 0x31, 0x5F, 0x72, 0x65, 0x6C, 0x75, 0x2F, 0x52, 0x65,
  0x6C, 0x75, 0x36, 0x3B, 0x50, 0x61, 0x72, 0x61, 0x6C, 0x6C,
  0x65, 0x6C, 0x43, 0x4E, 0x4E, 0x5F, 0x32, 0x44, 0x2F, 0x46,
  0x31, 0x2F, 0x42, 0x69, 0x61, 0x73, 0x41, 0x64, 0x64, 0x00,
  0x02, 0x00, 0x00, 0x00, 0x01, 0x00, 0x00, 0x00, 0x40, 0x00,
  0x00, 0x00, 0xD6, 0xE6, 0xFF, 0xFF, 0x00, 0x00, 0x00, 0x01,
  0x18, 0x00, 0x00, 0x00, 0x20, 0x00, 0x00, 0x00, 0x40, 0x00,
  0x00, 0x00, 0x2B, 0x00, 0x00, 0x00, 0x00, 0x00, 0x00, 0x09,
  0x58, 0x00, 0x00, 0x00, 0x02, 0x00, 0x00, 0x00, 0xFF, 0xFF,
  0xFF, 0xFF, 0x70, 0x00, 0x00, 0x00, 0xBC, 0xE6, 0xFF, 0xFF,
  0x08, 0x00, 0x00, 0x00, 0x14, 0x00, 0x00, 0x00, 0x01, 0x00,
  0x00, 0x00, 0x80, 0xFF, 0xFF, 0xFF, 0xFF, 0xFF, 0xFF, 0xFF,
  0x00, 0x00, 0x00, 0x00, 0x01, 0x00, 0x00, 0x00, 0xF4, 0xE1,
  0x1B, 0x3D, 0x1E, 0x00, 0x00, 0x00, 0x50, 0x61, 0x72, 0x61,
  0x6C, 0x6C, 0x65, 0x6C, 0x43, 0x4E, 0x4E, 0x5F, 0x32, 0x44,
  0x2F, 0x66, 0x6C, 0x61, 0x74, 0x74, 0x65, 0x6E, 0x2F, 0x52,
  0x65, 0x73, 0x68, 0x61, 0x70, 0x65, 0x00, 0x00, 0x02, 0x00,
  0x00, 0x00, 0x01, 0x00, 0x00, 0x00, 0x70, 0x00, 0x00, 0x00,
  0x56, 0xE7, 0xFF, 0xFF, 0x00, 0x00, 0x00, 0x01, 0x18, 0x00,
  0x00, 0x00, 0x28, 0x00, 0x00, 0x00, 0x48, 0x00, 0x00, 0x00,
  0x2A, 0x00, 0x00, 0x00, 0x00, 0x00, 0x00, 0x09, 0x60, 0x00,
  0x00, 0x00, 0x04, 0x00, 0x00, 0x00, 0xFF, 0xFF, 0xFF, 0xFF,
  0x01, 0x00, 0x00, 0x00, 0x07, 0x00, 0x00, 0x00, 0x10, 0x00,
  0x00, 0x00, 0x44, 0xE7, 0xFF, 0xFF, 0x08, 0x00, 0x00, 0x00,
  0x14, 0x00, 0x00, 0x00, 0x01, 0x00, 0x00, 0x00, 0x80, 0xFF,
  0xFF, 0xFF, 0xFF, 0xFF, 0xFF, 0xFF, 0x00, 0x00, 0x00, 0x00,
  0x01, 0x00, 0x00, 0x00, 0xF4, 0xE1, 0x1B, 0x3D, 0x1F, 0x00,
  0x00, 0x00, 0x50, 0x61, 0x72, 0x61, 0x6C, 0x6C, 0x65, 0x6C,
  0x43, 0x4E, 0x4E, 0x5F, 0x32, 0x44, 0x2F, 0x61, 0x64, 0x64,
  0x5F, 0x62, 0x72, 0x61, 0x6E, 0x63, 0x68, 0x65, 0x73, 0x2F,
  0x61, 0x64, 0x64, 0x00, 0x04, 0x00, 0x00, 0x00, 0x01, 0x00,
  0x00, 0x00, 0x01, 0x00, 0x00, 0x00, 0x07, 0x00, 0x00, 0x00,
  0x10, 0x00, 0x00, 0x00, 0xE6, 0xE7, 0xFF, 0xFF, 0x00, 0x00,
  0x00, 0x01, 0x18, 0x00, 0x00, 0x00, 0x28, 0x00, 0x00, 0x00,
  0x48, 0x00, 0x00, 0x00, 0x29, 0x00, 0x00, 0x00, 0x00, 0x00,
  0x00, 0x09, 0x68, 0x00, 0x00, 0x00, 0x04, 0x00, 0x00, 0x00,
  0xFF, 0xFF, 0xFF, 0xFF, 0x01, 0x00, 0x00, 0x00, 0x07, 0x00,
  0x00, 0x00, 0x10, 0x00, 0x00, 0x00, 0xD4, 0xE7, 0xFF, 0xFF,
  0x08, 0x00, 0x00, 0x00, 0x14, 0x00, 0x00, 0x00, 0x01, 0x00,
  0x00, 0x00, 0x80, 0xFF, 0xFF, 0xFF, 0xFF, 0xFF, 0xFF, 0xFF,
  0x00, 0x00, 0x00, 0x00, 0x01, 0x00, 0x00, 0x00, 0xC1, 0xC0,
  0xC0, 0x3C, 0x24, 0x00, 0x00, 0x00, 0x50, 0x61, 0x72, 0x61,
  0x6C, 0x6C, 0x65, 0x6C, 0x43, 0x4E, 0x4E, 0x5F, 0x32, 0x44,
  0x2F, 0x62, 0x72, 0x61, 0x6E, 0x63, 0x68, 0x32, 0x5F, 0x70,
  0x6F, 0x6F, 0x6C, 0x32, 0x2F, 0x4D, 0x61, 0x78, 0x50, 0x6F,
  0x6F, 0x6C, 0x00, 0x00, 0x00, 0x00, 0x04, 0x00, 0x00, 0x00,
  0x01, 0x00, 0x00, 0x00, 0x01, 0x00, 0x00, 0x00, 0x07, 0x00,
  0x00, 0x00, 0x10, 0x00, 0x00, 0x00, 0x7E, 0xE8, 0xFF, 0xFF,
  0x00, 0x00, 0x00, 0x01, 0x18, 0x00, 0x00, 0x00, 0x28, 0x00,
  0x00, 0x00, 0x48, 0x00, 0x00, 0x00, 0x28, 0x00, 0x00, 0x00,
  0x00, 0x00, 0x00, 0x09, 0xE0, 0x00, 0x00, 0x00, 0x04, 0x00,
  0x00, 0x00, 0xFF, 0xFF, 0xFF, 0xFF, 0x01, 0x00, 0x00, 0x00,
  0x0E, 0x00, 0x00, 0x00, 0x10, 0x00, 0x00, 0x00, 0x6C, 0xE8,
  0xFF, 0xFF, 0x08, 0x00, 0x00, 0x00, 0x14, 0x00, 0x00, 0x00,
  0x01, 0x00, 0x00, 0x00, 0x80, 0xFF, 0xFF, 0xFF, 0xFF, 0xFF,
  0xFF, 0xFF, 0x00, 0x00, 0x00, 0x00, 0x01, 0x00, 0x00, 0x00,
  0xC1, 0xC0, 0xC0, 0x3C, 0x9F, 0x00, 0x00, 0x00, 0x50, 0x61,
  0x72, 0x61, 0x6C, 0x6C, 0x65, 0x6C, 0x43, 0x4E, 0x4E, 0x5F,
  0x32, 0x44, 0x2F, 0x62, 0x72, 0x61, 0x6E, 0x63, 0x68, 0x32,
  0x5F, 0x72, 0x65, 0x6C, 0x75, 0x32, 0x2F, 0x52, 0x65, 0x6C,
  0x75, 0x36, 0x3B, 0x50, 0x61, 0x72, 0x61, 0x6C, 0x6C, 0x65,
  0x6C, 0x43, 0x4E, 0x4E, 0x5F, 0x32, 0x44, 0x2F, 0x62, 0x72,
  0x61, 0x6E, 0x63, 0x68, 0x32, 0x5F, 0x63, 0x6F, 0x6E, 0x76,
  0x32, 0x2F, 0x42, 0x69, 0x61, 0x73, 0x41, 0x64, 0x64, 0x3B,
  0x50, 0x61, 0x72, 0x61, 0x6C, 0x6C, 0x65, 0x6C, 0x43, 0x4E,
  0x4E, 0x5F, 0x32, 0x44, 0x2F, 0x62, 0x72, 0x61, 0x6E, 0x63,
  0x68, 0x32, 0x5F, 0x63, 0x6F, 0x6E, 0x76, 0x32, 0x2F, 0x43,
  0x6F, 0x6E, 0x76, 0x32, 0x44, 0x3B, 0x50, 0x61, 0x72, 0x61,
  0x6C, 0x6C, 0x65, 0x6C, 0x43, 0x4E, 0x4E, 0x5F, 0x32, 0x44,
  0x2F, 0x62, 0x72, 0x61, 0x6E, 0x63, 0x68, 0x32, 0x5F, 0x63,
  0x6F, 0x6E, 0x76, 0x32, 0x2F, 0x42, 0x69, 0x61, 0x73, 0x41,
  0x64, 0x64, 0x2F, 0x52, 0x65, 0x61, 0x64, 0x56, 0x61, 0x72,
  0x69, 0x61, 0x62, 0x6C, 0x65, 0x4F, 0x70, 0x00, 0x04, 0x00,
  0x00, 0x00, 0x01, 0x00, 0x00, 0x00, 0x01, 0x00, 0x00, 0x00,
  0x0E, 0x00, 0x00, 0x00, 0x10, 0x00, 0x00, 0x00, 0x8E, 0xE9,
  0xFF, 0xFF, 0x00, 0x00, 0x00, 0x01, 0x18, 0x00, 0x00, 0x00,
  0x28, 0x00, 0x00, 0x00, 0x48, 0x00, 0x00, 0x00, 0x27, 0x00,
  0x00, 0x00, 0x00, 0x00, 0x00, 0x09, 0x68, 0x00, 0x00, 0x00,
  0x04, 0x00, 0x00, 0x00, 0xFF, 0xFF, 0xFF, 0xFF, 0x01, 0x00,
  0x00, 0x00, 0x1F, 0x00, 0x00, 0x00, 0x08, 0x00, 0x00, 0x00,
  0x7C, 0xE9, 0xFF, 0xFF, 0x08, 0x00, 0x00, 0x00, 0x14, 0x00,
  0x00, 0x00, 0x01, 0x00, 0x00, 0x00, 0x80, 0xFF, 0xFF, 0xFF,
  0xFF, 0xFF, 0xFF, 0xFF, 0x00, 0x00, 0x00, 0x00, 0x01, 0x00,
  0x00, 0x00, 0x8C, 0xE9, 0x94, 0x3C, 0x24, 0x00, 0x00, 0x00,
  0x50, 0x61, 0x72, 0x61, 0x6C, 0x6C, 0x65, 0x6C, 0x43, 0x4E,
  0x4E, 0x5F, 0x32, 0x44, 0x2F, 0x62, 0x72, 0x61, 0x6E, 0x63,
  0x68, 0x32, 0x5F, 0x70, 0x6F, 0x6F, 0x6C, 0x31, 0x2F, 0x4D,
  0x61, 0x78, 0x50, 0x6F, 0x6F, 0x6C, 0x00, 0x00, 0x00, 0x00,
  0x04, 0x00, 0x00, 0x00, 0x01, 0x00, 0x00, 0x00, 0x01, 0x00,
  0x00, 0x00, 0x1F, 0x00, 0x00, 0x00, 0x08, 0x00, 0x00, 0x00,
  0x26, 0xEA, 0xFF, 0xFF, 0x00, 0x00, 0x00, 0x01, 0x18, 0x00,
  0x00, 0x00, 0x28, 0x00, 0x00, 0x00, 0x48, 0x00, 0x00, 0x00,
  0x26, 0x00, 0x00, 0x00, 0x00, 0x00, 0x00, 0x09, 0xE0, 0x00,
  0x00, 0x00, 0x04, 0x00, 0x00, 0x00, 0xFF, 0xFF, 0xFF, 0xFF,
  0x01, 0x00, 0x00, 0x00, 0x3E, 0x00, 0x00, 0x00, 0x08, 0x00,
  0x00, 0x00, 0x14, 0xEA, 0xFF, 0xFF, 0x08, 0x00, 0x00, 0x00,
  0x14, 0x00, 0x00, 0x00, 0x01, 0x00, 0x00, 0x00, 0x80, 0xFF,
  0xFF, 0xFF, 0xFF, 0xFF, 0xFF, 0xFF, 0x00, 0x00, 0x00, 0x00,
  0x01, 0x00, 0x00, 0x00, 0x8C, 0xE9, 0x94, 0x3C, 0x9F, 0x00,
  0x00, 0x00, 0x50, 0x61, 0x72, 0x61, 0x6C, 0x6C, 0x65, 0x6C,
  0x43, 0x4E, 0x4E, 0x5F, 0x32, 0x44, 0x2F, 0x62, 0x72, 0x61,
  0x6E, 0x63, 0x68, 0x32, 0x5F, 0x72, 0x65, 0x6C, 0x75, 0x31,
  0x2F, 0x52, 0x65, 0x6C, 0x75, 0x36, 0x3B, 0x50, 0x61, 0x72,
  0x61, 0x6C, 0x6C, 0x65, 0x6C, 0x43, 0x4E, 0x4E, 0x5F, 0x32,
  0x44, 0x2F, 0x62, 0x72, 0x61, 0x6E, 0x63, 0x68, 0x32, 0x5F,
  0x63, 0x6F, 0x6E, 0x76, 0x31, 0x2F, 0x42, 0x69, 0x61, 0x73,
  0x41, 0x64, 0x64, 0x3B, 0x50, 0x61, 0x72, 0x61, 0x6C, 0x6C,
  0x65, 0x6C, 0x43, 0x4E, 0x4E, 0x5F, 0x32, 0x44, 0x2F, 0x62,
  0x72, 0x61, 0x6E, 0x63, 0x68, 0x32, 0x5F, 0x63, 0x6F, 0x6E,
  0x76, 0x31, 0x2F, 0x43, 0x6F, 0x6E, 0x76, 0x32, 0x44, 0x3B,
  0x50, 0x61, 0x72, 0x61, 0x6C, 0x6C, 0x65, 0x6C, 0x43, 0x4E,
  0x4E, 0x5F, 0x32, 0x44, 0x2F, 0x62, 0x72, 0x61, 0x6E, 0x63,
  0x68, 0x32, 0x5F, 0x63, 0x6F, 0x6E, 0x76, 0x31, 0x2F, 0x42,
  0x69, 0x61, 0x73, 0x41, 0x64, 0x64, 0x2F, 0x52, 0x65, 0x61,
  0x64, 0x56, 0x61, 0x72, 0x69, 0x61, 0x62, 0x6C, 0x65, 0x4F,
  0x70, 0x00, 0x04, 0x00, 0x00, 0x00, 0x01, 0x00, 0x00, 0x00,
  0x01, 0x00, 0x00, 0x00, 0x3E, 0x00, 0x00, 0x00, 0x08, 0x00,
  0x00, 0x00, 0x36, 0xEB, 0xFF, 0xFF, 0x00, 0x00, 0x00, 0x01,
  0x18, 0x00, 0x00, 0x00, 0x28, 0x00, 0x00, 0x00, 0x48, 0x00,
  0x00, 0x00, 0x25, 0x00, 0x00, 0x00, 0x00, 0x00, 0x00, 0x09,
  0x68, 0x00, 0x00, 0x00, 0x04, 0x00, 0x00, 0x00, 0xFF, 0xFF,
  0xFF, 0xFF, 0x01, 0x00, 0x00, 0x00, 0x07, 0x00, 0x00, 0x00,
  0x10, 0x00, 0x00, 0x00, 0x24, 0xEB, 0xFF, 0xFF, 0x08, 0x00,
  0x00, 0x00, 0x14, 0x00, 0x00, 0x00, 0x01, 0x00, 0x00, 0x00,
  0x80, 0xFF, 0xFF, 0xFF, 0xFF, 0xFF, 0xFF, 0xFF, 0x00, 0x00,
  0x00, 0x00, 0x01, 0x00, 0x00, 0x00, 0x5A, 0x74, 0x97, 0x3C,
  0x24, 0x00, 0x00, 0x00, 0x50, 0x61, 0x72, 0x61, 0x6C, 0x6C,
  0x65, 0x6C, 0x43, 0x4E, 0x4E, 0x5F, 0x32, 0x44, 0x2F, 0x62,
  0x72, 0x61, 0x6E, 0x63, 0x68, 0x31, 0x5F, 0x70, 0x6F, 0x6F,
  0x6C, 0x32, 0x2F, 0x4D, 0x61, 0x78, 0x50, 0x6F, 0x6F, 0x6C,
  0x00, 0x00, 0x00, 0x00, 0x04, 0x00, 0x00, 0x00, 0x01, 0x00,
  0x00, 0x00, 0x01, 0x00, 0x00, 0x00, 0x07, 0x00, 0x00, 0x00,
  0x10, 0x00, 0x00, 0x00, 0xCE, 0xEB, 0xFF, 0xFF, 0x00, 0x00,
  0x00, 0x01, 0x18, 0x00, 0x00, 0x00, 0x28, 0x00, 0x00, 0x00,
  0x44, 0x00, 0x00, 0x00, 0x24, 0x00, 0x00, 0x00, 0x00, 0x00,
  0x00, 0x09, 0x00, 0x01, 0x00, 0x00, 0x04, 0x00, 0x00, 0x00,
  0xFF, 0xFF, 0xFF, 0xFF, 0x01, 0x00, 0x00, 0x00, 0x0E, 0x00,
  0x00, 0x00, 0x10, 0x00, 0x00, 0x00, 0xBC, 0xEB, 0xFF, 0xFF,
  0x08, 0x00, 0x00, 0x00, 0x10, 0x00, 0x00, 0x00, 0x01, 0x00,
  0x00, 0x00, 0x80, 0xFF, 0xFF, 0xFF, 0xFF, 0xFF, 0xFF, 0xFF,
  0x01, 0x00, 0x00, 0x00, 0x5A, 0x74, 0x97, 0x3C, 0xC3, 0x00,
  0x00, 0x00, 0x50, 0x61, 0x72, 0x61, 0x6C, 0x6C, 0x65, 0x6C,
  0x43, 0x4E, 0x4E, 0x5F, 0x32, 0x44, 0x2F, 0x62, 0x72, 0x61,
  0x6E, 0x63, 0x68, 0x31, 0x5F, 0x72, 0x65, 0x6C, 0x75, 0x32,
  0x2F, 0x52, 0x65, 0x6C, 0x75, 0x36, 0x3B, 0x50, 0x61, 0x72,
  0x61, 0x6C, 0x6C, 0x65, 0x6C, 0x43, 0x4E, 0x4E, 0x5F, 0x32,
  0x44, 0x2F, 0x62, 0x72, 0x61, 0x6E, 0x63, 0x68, 0x31, 0x5F,
  0x63, 0x6F, 0x6E, 0x76, 0x32, 0x2F, 0x42, 0x69, 0x61, 0x73,
  0x41, 0x64, 0x64, 0x3B, 0x50, 0x61, 0x72, 0x61, 0x6C, 0x6C,
  0x65, 0x6C, 0x43, 0x4E, 0x4E, 0x5F, 0x32, 0x44, 0x2F, 0x62,
  0x72, 0x61, 0x6E, 0x63, 0x68, 0x32, 0x5F, 0x63, 0x6F, 0x6E,
  0x76, 0x32, 0x2F, 0x43, 0x6F, 0x6E, 0x76, 0x32, 0x44, 0x3B,
  0x50, 0x61, 0x72, 0x61, 0x6C, 0x6C, 0x65, 0x6C, 0x43, 0x4E,
  0x4E, 0x5F, 0x32, 0x44, 0x2F, 0x62, 0x72, 0x61, 0x6E, 0x63,
  0x68, 0x31, 0x5F, 0x63, 0x6F, 0x6E, 0x76, 0x32, 0x2F, 0x43,
  0x6F, 0x6E, 0x76, 0x32, 0x44, 0x3B, 0x50, 0x61, 0x72, 0x61,
  0x6C, 0x6C, 0x65, 0x6C, 0x43, 0x4E, 0x4E, 0x5F, 0x32, 0x44,
  0x2F, 0x62, 0x72, 0x61, 0x6E, 0x63, 0x68, 0x31, 0x5F, 0x63,
  0x6F, 0x6E, 0x76, 0x32, 0x2F, 0x42, 0x69, 0x61, 0x73, 0x41,
  0x64, 0x64, 0x2F, 0x52, 0x65, 0x61, 0x64, 0x56, 0x61, 0x72,
  0x69, 0x61, 0x62, 0x6C, 0x65, 0x4F, 0x70, 0x00, 0x04, 0x00,
  0x00, 0x00, 0x01, 0x00, 0x00, 0x00, 0x01, 0x00, 0x00, 0x00,
  0x0E, 0x00, 0x00, 0x00, 0x10, 0x00, 0x00, 0x00, 0xFE, 0xEC,
  0xFF, 0xFF, 0x00, 0x00, 0x00, 0x01, 0x18, 0x00, 0x00, 0x00,
  0x28, 0x00, 0x00, 0x00, 0x48, 0x00, 0x00, 0x00, 0x23, 0x00,
  0x00, 0x00, 0x00, 0x00, 0x00, 0x09, 0x68, 0x00, 0x00, 0x00,
  0x04, 0x00, 0x00, 0x00, 0xFF, 0xFF, 0xFF, 0xFF, 0x01, 0x00,
  0x00, 0x00, 0x1F, 0x00, 0x00, 0x00, 0x08, 0x00, 0x00, 0x00,
  0xEC, 0xEC, 0xFF, 0xFF, 0x08, 0x00, 0x00, 0x00, 0x14, 0x00,
  0x00, 0x00, 0x01, 0x00, 0x00, 0x00, 0x80, 0xFF, 0xFF, 0xFF,
  0xFF, 0xFF, 0xFF, 0xFF, 0x00, 0x00, 0x00, 0x00, 0x01, 0x00,
  0x00, 0x00, 0x2E, 0x84, 0x72, 0x3C, 0x24, 0x00, 0x00, 0x00,
  0x50, 0x61, 0x72, 0x61, 0x6C, 0x6C, 0x65, 0x6C, 0x43, 0x4E,
  0x4E, 0x5F, 0x32, 0x44, 0x2F, 0x62, 0x72, 0x61, 0x6E, 0x63,
  0x68, 0x31, 0x5F, 0x70, 0x6F, 0x6F, 0x6C, 0x31, 0x2F, 0x4D,
  0x61, 0x78, 0x50, 0x6F, 0x6F, 0x6C, 0x00, 0x00, 0x00, 0x00,
  0x04, 0x00, 0x00, 0x00, 0x01, 0x00, 0x00, 0x00, 0x01, 0x00,
  0x00, 0x00, 0x1F, 0x00, 0x00, 0x00, 0x08, 0x00, 0x00, 0x00,
  0x96, 0xED, 0xFF, 0xFF, 0x00, 0x00, 0x00, 0x01, 0x18, 0x00,
  0x00, 0x00, 0x28, 0x00, 0x00, 0x00, 0x44, 0x00, 0x00, 0x00,
  0x22, 0x00, 0x00, 0x00, 0x00, 0x00, 0x00, 0x09, 0x00, 0x01,
  0x00, 0x00, 0x04, 0x00, 0x00, 0x00, 0xFF, 0xFF, 0xFF, 0xFF,
  0x01, 0x00, 0x00, 0x00, 0x3E, 0x00, 0x00, 0x00, 0x08, 0x00,
  0x00, 0x00, 0x84, 0xED, 0xFF, 0xFF, 0x08, 0x00, 0x00, 0x00,
  0x10, 0x00, 0x00, 0x00, 0x01, 0x00, 0x00, 0x00, 0x80, 0xFF,
  0xFF, 0xFF, 0xFF, 0xFF, 0xFF, 0xFF, 0x01, 0x00, 0x00, 0x00,
  0x2E, 0x84, 0x72, 0x3C, 0xC3, 0x00, 0x00, 0x00, 0x50, 0x61,
  0x72, 0x61, 0x6C, 0x6C, 0x65, 0x6C, 0x43, 0x4E, 0x4E, 0x5F,
  0x32, 0x44, 0x2F, 0x62, 0x72, 0x61, 0x6E, 0x63, 0x68, 0x31,
  0x5F, 0x72, 0x65, 0x6C, 0x75, 0x31, 0x2F, 0x52, 0x65, 0x6C,
  0x75, 0x36, 0x3B, 0x50, 0x61, 0x72, 0x61, 0x6C, 0x6C, 0x65,
  0x6C, 0x43, 0x4E, 0x4E, 0x5F, 0x32, 0x44, 0x2F, 0x62, 0x72,
  0x61, 0x6E, 0x63, 0x68, 0x31, 0x5F, 0x63, 0x6F, 0x6E, 0x76,
  0x31, 0x2F, 0x42, 0x69, 0x61, 0x73, 0x41, 0x64, 0x64, 0x3B,
  0x50, 0x61, 0x72, 0x61, 0x6C, 0x6C, 0x65, 0x6C, 0x43, 0x4E,
  0x4E, 0x5F, 0x32, 0x44, 0x2F, 0x62, 0x72, 0x61, 0x6E, 0x63,
  0x68, 0x32, 0x5F, 0x63, 0x6F, 0x6E, 0x76, 0x31, 0x2F, 0x43,
  0x6F, 0x6E, 0x76, 0x32, 0x44, 0x3B, 0x50, 0x61, 0x72, 0x61,
  0x6C, 0x6C, 0x65, 0x6C, 0x43, 0x4E, 0x4E, 0x5F, 0x32, 0x44,
  0x2F, 0x62, 0x72, 0x61, 0x6E, 0x63, 0x68, 0x31, 0x5F, 0x63,
  0x6F, 0x6E, 0x76, 0x31, 0x2F, 0x43, 0x6F, 0x6E, 0x76, 0x32,
  0x44, 0x3B, 0x50, 0x61, 0x72, 0x61, 0x6C, 0x6C, 0x65, 0x6C,
  0x43, 0x4E, 0x4E, 0x5F, 0x32, 0x44, 0x2F, 0x62, 0x72, 0x61,
  0x6E, 0x63, 0x68, 0x31, 0x5F, 0x63, 0x6F, 0x6E, 0x76, 0x31,
  0x2F, 0x42, 0x69, 0x61, 0x73, 0x41, 0x64, 0x64, 0x2F, 0x52,
  0x65, 0x61, 0x64, 0x56, 0x61, 0x72, 0x69, 0x61, 0x62, 0x6C,
  0x65, 0x4F, 0x70, 0x00, 0x04, 0x00, 0x00, 0x00, 0x01, 0x00,
  0x00, 0x00, 0x01, 0x00, 0x00, 0x00, 0x3E, 0x00, 0x00, 0x00,
  0x08, 0x00, 0x00, 0x00, 0xC6, 0xEE, 0xFF, 0xFF, 0x00, 0x00,
  0x00, 0x01, 0x18, 0x00, 0x00, 0x00, 0x28, 0x00, 0x00, 0x00,
  0x48, 0x00, 0x00, 0x00, 0x21, 0x00, 0x00, 0x00, 0x00, 0x00,
  0x00, 0x09, 0x64, 0x00, 0x00, 0x00, 0x04, 0x00, 0x00, 0x00,
  0xFF, 0xFF, 0xFF, 0xFF, 0x01, 0x00, 0x00, 0x00, 0x40, 0x00,
  0x00, 0x00, 0x02, 0x00, 0x00, 0x00, 0xB4, 0xEE, 0xFF, 0xFF,
  0x08, 0x00, 0x00, 0x00, 0x14, 0x00, 0x00, 0x00, 0x01, 0x00,
  0x00, 0x00, 0x01, 0x00, 0x00, 0x00, 0x00, 0x00, 0x00, 0x00,
  0x00, 0x00, 0x00, 0x00, 0x01, 0x00, 0x00, 0x00, 0x64, 0xDC,
  0x11, 0x3E, 0x21, 0x00, 0x00, 0x00, 0x50, 0x61, 0x72, 0x61,
  0x6C, 0x6C, 0x65, 0x6C, 0x43, 0x4E, 0x4E, 0x5F, 0x32, 0x44,
  0x2F, 0x72, 0x65, 0x73, 0x68, 0x61, 0x70, 0x65, 0x5F, 0x49,
  0x32, 0x2F, 0x52, 0x65, 0x73, 0x68, 0x61, 0x70, 0x65, 0x00,
  0x00, 0x00, 0x04, 0x00, 0x00, 0x00, 0x01, 0x00, 0x00, 0x00,
  0x01, 0x00, 0x00, 0x00, 0x40, 0x00, 0x00, 0x00, 0x02, 0x00,
  0x00, 0x00, 0xCA, 0xEF, 0xFF, 0xFF, 0x00, 0x00, 0x00, 0x01,
  0x14, 0x00, 0x00, 0x00, 0x14, 0x00, 0x00, 0x00, 0x20, 0x00,
  0x00, 0x00, 0x00, 0x00, 0x00, 0x02, 0x34, 0x00, 0x00, 0x00,
  0xB4, 0xEF, 0xFF, 0xFF, 0x27, 0x00, 0x00, 0x00, 0x50, 0x61,
  0x72, 0x61, 0x6C, 0x6C, 0x65, 0x6C, 0x43, 0x4E, 0x4E, 0x5F,
  0x32, 0x44, 0x2F, 0x72, 0x65, 0x73, 0x68, 0x61, 0x70, 0x65,
  0x5F, 0x49, 0x32, 0x2F, 0x52, 0x65, 0x73, 0x68, 0x61, 0x70,
  0x65, 0x2F, 0x73, 0x68, 0x61, 0x70, 0x65, 0x00, 0x01, 0x00,
  0x00, 0x00, 0x04, 0x00, 0x00, 0x00, 0x1E, 0xF0, 0xFF, 0xFF,
  0x00, 0x00, 0x00, 0x01, 0x14, 0x00, 0x00, 0x00, 0x14, 0x00,
  0x00, 0x00, 0x1F, 0x00, 0x00, 0x00, 0x00, 0x00, 0x00, 0x02,
  0x34, 0x00, 0x00, 0x00, 0x08, 0xF0, 0xFF, 0xFF, 0x27, 0x00,
  0x00, 0x00, 0x50, 0x61, 0x72, 0x61, 0x6C, 0x6C, 0x65, 0x6C,
  0x43, 0x4E, 0x4E, 0x5F, 0x32, 0x44, 0x2F, 0x72, 0x65, 0x73,
  0x68, 0x61, 0x70, 0x65, 0x5F, 0x49, 0x32, 0x2F, 0x73, 0x74,
  0x72, 0x69, 0x64, 0x65, 0x64, 0x5F, 0x73, 0x6C, 0x69, 0x63,
  0x65, 0x00, 0x00, 0x00, 0x00, 0x00, 0x6E, 0xF0, 0xFF, 0xFF,
  0x00, 0x00, 0x00, 0x01, 0x14, 0x00, 0x00, 0x00, 0x14, 0x00,
  0x00, 0x00, 0x1E, 0x00, 0x00, 0x00, 0x00, 0x00, 0x00, 0x02,
  0x2C, 0x00, 0x00, 0x00, 0x58, 0xF0, 0xFF, 0xFF, 0x1F, 0x00,
  0x00, 0x00, 0x50, 0x61, 0x72, 0x61, 0x6C, 0x6C, 0x65, 0x6C,
  0x43, 0x4E, 0x4E, 0x5F, 0x32, 0x44, 0x2F, 0x72, 0x65, 0x73,
  0x68, 0x61, 0x70, 0x65, 0x5F, 0x49, 0x32, 0x2F, 0x53, 0x68,
  0x61, 0x70, 0x65, 0x00, 0x01, 0x00, 0x00, 0x00, 0x03, 0x00,
  0x00, 0x00, 0x4A, 0xF0, 0xFF, 0xFF, 0x00, 0x00, 0x00, 0x01,
  0x18, 0x00, 0x00, 0x00, 0x24, 0x00, 0x00, 0x00, 0x40, 0x00,
  0x00, 0x00, 0x1D, 0x00, 0x00, 0x00, 0x00, 0x00, 0x00, 0x09,
  0x58, 0x00, 0x00, 0x00, 0x03, 0x00, 0x00, 0x00, 0xFF, 0xFF,
  0xFF, 0xFF, 0x40, 0x00, 0x00, 0x00, 0x02, 0x00, 0x00, 0x00,
  0x34, 0xF0, 0xFF, 0xFF, 0x08, 0x00, 0x00, 0x00, 0x10, 0x00,
  0x00, 0x00, 0x01, 0x00, 0x00, 0x00, 0x01, 0x00, 0x00, 0x00,
  0x00, 0x00, 0x00, 0x00, 0x01, 0x00, 0x00, 0x00, 0x64, 0xDC,
  0x11, 0x3E, 0x1F, 0x00, 0x00, 0x00, 0x50, 0x61, 0x72, 0x61,
  0x6C, 0x6C, 0x65, 0x6C, 0x43, 0x4E, 0x4E, 0x5F, 0x32, 0x44,
  0x2F, 0x49, 0x32, 0x2F, 0x73, 0x74, 0x72, 0x69, 0x64, 0x65,
  0x64, 0x5F, 0x73, 0x6C, 0x69, 0x63, 0x65, 0x00, 0x03, 0x00,
  0x00, 0x00, 0x01, 0x00, 0x00, 0x00, 0x40, 0x00, 0x00, 0x00,
  0x02, 0x00, 0x00, 0x00, 0xCE, 0xF0, 0xFF, 0xFF, 0x00, 0x00,
  0x00, 0x01, 0x18, 0x00, 0x00, 0x00, 0x28, 0x00, 0x00, 0x00,
  0x48, 0x00, 0x00, 0x00, 0x1C, 0x00, 0x00, 0x00, 0x00, 0x00,
  0x00, 0x09, 0x64, 0x00, 0x00, 0x00, 0x04, 0x00, 0x00, 0x00,
  0xFF, 0xFF, 0xFF, 0xFF, 0x01, 0x00, 0x00, 0x00, 0x40, 0x00,
  0x00, 0x00, 0x02, 0x00, 0x00, 0x00, 0xBC, 0xF0, 0xFF, 0xFF,
  0x08, 0x00, 0x00, 0x00, 0x14, 0x00, 0x00, 0x00, 0x01, 0x00,
  0x00, 0x00, 0x01, 0x00, 0x00, 0x00, 0x00, 0x00, 0x00, 0x00,
  0x00, 0x00, 0x00, 0x00, 0x01, 0x00, 0x00, 0x00, 0x64, 0xDC,
  0x11, 0x3E, 0x21, 0x00, 0x00, 0x00, 0x50, 0x61, 0x72, 0x61,
  0x6C, 0x6C, 0x65, 0x6C, 0x43, 0x4E, 0x4E, 0x5F, 0x32, 0x44,
  0x2F, 0x72, 0x65, 0x73, 0x68, 0x61, 0x70, 0x65, 0x5F, 0x49,
  0x31, 0x2F, 0x52, 0x65, 0x73, 0x68, 0x61, 0x70, 0x65, 0x00,
  0x00, 0x00, 0x04, 0x00, 0x00, 0x00, 0x01, 0x00, 0x00, 0x00,
  0x01, 0x00, 0x00, 0x00, 0x40, 0x00, 0x00, 0x00, 0x02, 0x00,
  0x00, 0x00, 0xD2, 0xF1, 0xFF, 0xFF, 0x00, 0x00, 0x00, 0x01,
  0x14, 0x00, 0x00, 0x00, 0x14, 0x00, 0x00, 0x00, 0x1B, 0x00,
  0x00, 0x00, 0x00, 0x00, 0x00, 0x02, 0x34, 0x00, 0x00, 0x00,
  0xBC, 0xF1, 0xFF, 0xFF, 0x27, 0x00, 0x00, 0x00, 0x50, 0x61,
  0x72, 0x61, 0x6C, 0x6C, 0x65, 0x6C, 0x43, 0x4E, 0x4E, 0x5F,
  0x32, 0x44, 0x2F, 0x72, 0x65, 0x73, 0x68, 0x61, 0x70, 0x65,
  0x5F, 0x49, 0x31, 0x2F, 0x52, 0x65, 0x73, 0x68, 0x61, 0x70,
  0x65, 0x2F, 0x73, 0x68, 0x61, 0x70, 0x65, 0x00, 0x01, 0x00,
  0x00, 0x00, 0x04, 0x00, 0x00, 0x00, 0x26, 0xF2, 0xFF, 0xFF,
  0x00, 0x00, 0x00, 0x01, 0x14, 0x00, 0x00, 0x00, 0x14, 0x00,
  0x00, 0x00, 0x1A, 0x00, 0x00, 0x00, 0x00, 0x00, 0x00, 0x02,
  0x34, 0x00, 0x00, 0x00, 0x10, 0xF2, 0xFF, 0xFF, 0x27, 0x00,
  0x00, 0x00, 0x50, 0x61, 0x72, 0x61, 0x6C, 0x6C, 0x65, 0x6C,
